#version: 0.2
Ġ t
h e
Ġ a
i n
Ġt he
e r
o n
Ġ ,
r e
Ġ s
e d
Ġ w
Ġ o
n d
a t
Ġ .
o r
e n
Ġ c
i t
Ġ f
i s
e s
a r
Ġ b
Ġo f
a n
Ġ in
a l
in g
Ġ p
a s
Ġa nd
Ġt o
i c
r o
Ġ m
Ġ d
Ġ h
i on
l e
o u
Ġ T
Ġ re
i l
Ġ S
en t
Ġ "
Ġ 1
Ġ A
Ġt h
s t
e l
Ġ l
Ġ @
Ġ C
o m
Ġ e
č Ċ
Ġ =
a m
Ġ n
a d
a c
Ġw as
Ġ M
e c
Ġ on
Ġ B
l y
u r
Ġ '
e t
i d
o l
Ġ g
i m
- @
Ġ@ -@
Ġf or
i r
i g
i v
o t
t er
u t
ĠT he
Ġ I
Ġ H
Ġa s
u s
o w
it h
a y
Ġs t
Ġ 2
Ġ P
Ġ he
v er
at ion
Ġw ith
Ġb e
Ġth at
Ġ R
c e
u n
Ġ D
e m
Ġw h
c h
Ġb y
t h
Ġ W
Ġa l
Ġ )
Ġ F
Ġ (
u l
Ġ is
Ġc on
er s
Ġa t
Ġ L
Ġ G
c t
r a
Ġ N
o s
Ġa n
Ġ1 9
Ġ it
he r
ro m
a nd
u m
es t
0 0
Ġ J
Ġh is
a g
a v
a in
Ġ E
r i
o d
Ġf rom
is t
Ġc om
Ġ v
Ġp ro
o p
il l
o re
Ġ O
i f
l d
u p
Ġ r
e w
er e
re s
ig h
i es
Ġd e
b er
ar t
ar d
or t
Ġs e
ic h
Ġw ere
at e
al l
a k
an t
o c
u d
a p
Ġe x
q u
on g
a b
Ġc h
Ġo r
g h
e ar
es s
at ed
Ġ K
Ġp l
Ġs h
it y
i p
iv e
am e
Ġ â
Ġh ad
ec t
Ġ U
ac k
ĠI n
Ġâ Ģ
Ġs u
as t
s e
re d
Ġ k
ĠS t
g e
Ġwh ich
ou r
m ent
Ġ le
u nd
Ġa re
o v
i an
i al
Ġn ot
el l
Ġs p
o st
Ġ y
igh t
i a
or d
u st
ar y
in e
t her
p t
r it
Ġ 3
ou n
p p
ic al
av e
Ġ un
ĠC h
c c
Ġ2 00
Ġin c
f ter
ou ld
Ġb ut
ir st
is h
t e
ou s
Ġ V
f f
ion s
s o
Ġcom p
id e
Ġ2 0
Ġ ro
u re
Ġw he
u b
Ġa r
Ġcon t
i e
Ġ ;
o g
ig n
Ġf irst
Ġc l
w o
Ġhe r
r y
u e
Ġit s
as s
Ġthe ir
or m
ĠâĢ ĵ
o k
or k
Ġin t
Ġre s
Ġ :
at er
Ġal so
Ġa b
on d
Ġa d
om e
ou t
r an
ĠH e
m er
i re
he d
r u
Ġ us
ag e
d u
Ġ 4
im e
T he
l ow
Ġp er
p er
Ġwh o
Ġ 5
Ġon e
Ġh ave
Ġs c
p l
al ly
ow n
i le
Ġre c
t ed
Ġ1 8
. @
Ġ@ .@
Ġt wo
it ion
u gh
ĠT h
i z
re e
en ce
t s
ur ing
p ort
Ġbe en
Ġp art
Ġb ec
ic e
Ġh as
Ġa g
Ġa pp
ou gh
, @
Ġ@ ,@
Ġ20 1
Ġ j
Ġ en
Ġd is
l ud
k e
Ġo ver
Ġs er
Ġth is
or y
el y
Ġy ear
ation s
em ber
re n
ct ion
ou nd
ac h
Ġof f
Ġa fter
r ic
Ġ up
l and
ĠA l
Ġpl ay
Ġd es
ac e
ar k
o ver
an ce
Ġo ut
Ġthe y
Ġm an
ad e
Ġt e
ĠI t
ac t
Ġo ther
i b
m an
ul t
Ġ im
p h
res s
Ġinc lud
c ed
en s
ur n
Ġ Y
w n
Ġw ould
in d
Ġt ime
on e
Ġp re
Ġint o
v el
w ard
w e
Ġw e
Ġh im
it e
o in
at es
ĠU n
Ġ 6
Ġs he
l es
Ġe v
il m
Ġat t
as ed
Ġn e
it ed
ab le
e nd
i ed
as e
am p
Ġcom m
or s
n e
Ġin ter
a re
ro ugh
o y
on s
oun t
e p
f orm
Ġal l
os e
o od
an g
Ġm ore
c es
Ġw ork
Ġ 7
a il
ol d
a w
er ed
ing s
v e
il d
Ġn ew
Ġs ec
Ġb et
in al
Ġf e
Ġf ilm
ic k
Ġwhe n
v i
ent s
w ay
at t
f t
is s
a us
f er
g an
Ġ 8
re at
ri b
Ġcon s
ĠA n
ro und
ak e
Ġre m
v ed
ĠM ar
Ġt r
ĠS e
Ġd ec
as on
ĠA r
an s
Ġd uring
Ġ und
or th
ub l
h ip
Ġ 9
Ġag ain
Ġm ost
Ġg ame
ot h
Ġthe m
Ġon ly
Ġp r
at h
we en
i x
Ġ19 9
Ġe ar
ol low
Ġth an
o b
ro p
Ġs up
s s
ation al
f ore
Ġab out
Ġpro du
u g
Ġc ent
ter n
Ġre t
Ġch ar
Ġs ong
Ġc an
ĠN ew
ou th
Ġbet ween
Ġl ater
Ġre le
Ġund er
ic t
Ġk n
Ġth ree
t on
r on
Ġc ol
Ġa ct
Ġ 00
h n
al s
Ġ qu
Ġth rough
or ld
o ok
Ġn um
Ġs o
Ġm e
Ġa cc
Ġre l
Ġwh ile
ĠE n
Ġ ra
Ġe nd
mer ic
I n
le ct
Ġf l
e ver
ter s
ĠA meric
oc k
Ġp os
r al
ĠL e
Ġsu b
n ing
ul ar
Ġas s
at ing
Ġ ver
Ġwhe re
Ġd ay
c k
Ġre g
Ġsec ond
en er
a id
Ġb u
Ġm ade
am es
is ion
iv ed
ĠR e
Ġp e
Ġrec ord
ĠC om
Ġde f
b um
Ġf our
Ġg ro
Ġf ollow
Ġse ason
s on
Ġ00 0
Ġe p
Ġfor m
Ġs ome
Ġsu ch
Ġa m
o ol
is hed
Ġm ov
Ġbe fore
Ġt ra
he s
Ġm us
Ġw rit
Ġthe re
ic s
i o
Ġsp ec
i el
i ke
Ġ1 0
ĠS p
Ġyear s
Ġs y
od e
Ġte am
u al
id ent
Ġ /
Ġl ar
ĠO n
Ġal bum
Ġin d
he n
il y
ow ever
ĠJ o
Ġ ent
Ġus ed
Ġc all
an k
Ġs ur
if ic
l l
Ġa c
ur y
Ġh igh
Ġp ubl
Ġbe ing
or n
ĠTh is
Ġep is
ĠS h
ain ed
Ġthe n
t en
vel op
a j
Ġd o
Ġl oc
Ġex p
if e
r is
Ġagain st
Ġ1 7
Ġin v
Ġb l
Ġ 0
Ġp res
Ġsh ow
ot her
Ġnum ber
Ġchar ac
i ous
Ġse ver
Ġad d
al e
Ġc o
Ġs et
in ce
j ect
ar s
Ġbec ame
Ġre ce
aus e
e k
Ġle ad
Ġper form
ĠB rit
Ġn o
Ġinclud ing
Ġs ing
at her
in s
in es
ĠâĢ Ķ
Ġf ound
ĠA t
a ir
ran s
Ġw ell
Ġm on
Ġre p
ĠUn ited
Ġp ol
ĠA s
Ġb ack
Ġb oth
i er
Ġc ap
Ġser ies
Ġ1 5
Ġ1 2
o ber
Ġ19 8
r am
ĠS c
i k
ow er
Ġsh ip
em ent
it s
er t
i red
u res
le y
iv ers
p en
Ġm ain
Ġm in
Ġ19 4
i et
d er
over n
Ġd id
v en
Ġg o
l ed
Ġc re
el f
ol og
Ġim p
Ġde velop
Ġm et
a z
ĠS he
it ies
an e
ĠC on
Ġl ong
iv er
an y
is ed
er m
ĠEn g
t ing
u ch
a red
ir d
Ġe m
Ġm ill
f ul
Ġa ir
Ġm at
Ġepis ode
te nd
ire ct
Ġs aid
Ġst ud
Ġman y
ut e
Ġb ro
as h
at ive
Ġde p
Ġc ar
Ġc ould
Ġor ig
Ġ1 6
Ġw ar
Ġcont in
an n
Ġsever al
a h
th ough
Ġd if
iel d
ĠJo hn
Ġin st
Ġp op
ou se
ĠAmeric an
is e
em b
Ġkn own
t y
ĠI nd
ĠC l
Ġ19 7
ĠW h
u ally
t il
Ġcon c
Ġ1 1
Ġ19 6
i am
vi ew
ĠA ust
ers on
Ġo b
u ed
Ġs m
Ġret urn
er man
Ġbe gan
Ġan y
ĠW ar
Ġcomp le
Ġdes ign
Ġdes c
Ġs ign
op le
ch ool
ro ss
m y
is m
o ot
Ġ est
cc ess
Ġt rans
er n
Ġ Z
Ġpro v
ak ing
Ġfe at
id ed
Ġin f
an c
Ġr un
Ġear ly
ĠD e
Ġar t
iz ed
Ġd ist
Ġmus ic
Ġo wn
Ġn ear
Ġrele ased
Ġun til
Ġcall ed
Ġe ff
ĠA fter
im es
ĠB l
r id
ist s
un e
Ġres p
Ġb el
Ġp ass
st em
u red
Ġf in
ĠC ol
ial ly
Ġp h
ĠU S
ĠB e
ut ion
Ġd own
ĠM ay
Ġdis c
ment s
Ġc rit
os ed
x t
Ġd irect
Ġg ener
y s
Ġal ong
i um
Ġin s
Ġmill ion
g er
en n
ul l
a x
Ġgro up
Ġoff ic
v ent
Ġf am
ĠBrit ish
Ġ1 3
ĠG erman
Ġthe se
aj or
Ġm od
e b
Ġm ay
ce pt
Ġ $
Ġo pen
an ge
Ġm il
Ġp oin
u c
g g
Ġl and
Ġs im
Ġhis t
Ġg overn
ĠA ug
Ã ©
ĠSe pt
Ġsu ccess
er v
ĠSept ember
et s
ĠAug ust
ĠSt ates
ib le
in k
Ġg u
Ġo per
Ġc ount
Ġatt ack
ĠA d
Ġs ame
Ġus e
ward s
Ġdesc rib
Ġpe ople
ĠW orld
ĠA p
y p
ac ed
Ġcharac ter
am ed
Ġbec ause
el s
Ġv i
Ġl ike
Ġ1 4
Ġser v
g ed
ĠJ u
Ġa round
Ġst art
Ġth ough
Ġ ed
n er
Ġw in
Ġk m
Ġ19 5
ĠI s
Ġcon st
u es
r ing
Ġto ok
Ġo cc
ru ct
av ing
Ġb att
ĠF ran
ov e
ĠO ct
Ġsup port
Ġ Q
ĠAust ral
Ġfollow ing
Ġs ix
Ġn orth
Ġe le
ĠN ov
Ġ19 3
ĠP l
Ġsy stem
Ġapp ear
us s
en e
ĠAl l
Ġf inal
Ġrece ived
Ġcl ass
in ed
ĠOct ober
iv es
Ġhe ad
Ġp rom
Ġcons id
r ad
ant s
ĠC ar
l ing
Ġan n
il ity
ical ly
Ġe ver
Ġst ate
Ġ19 1
Ġbu ild
ĠD ec
ĠP ro
re t
ĠH owever
Ġe ach
ĠF or
an u
Ġex t
Ġf ive
r ist
Ġa ut
Ġcent ury
in a
Ġv ar
Ġb o
Ġw ill
Ġare a
ĠY ork
at ely
Ġsm all
g et
os s
Ġpart ic
Ġl ife
iv ing
r il
Ġre port
Ġ ]
ĠM e
t le
ĠThe y
ore d
ĠN orth
ian s
ord ing
ĠJ une
Ġc ity
Ġ [
Ġcont ro
g in
Ġm ar
p ed
Ġm ajor
Ġwe ek
Ġpubl ic
Ġ %
iss ion
Ġcon f
ĠJu ly
Ġb and
ect ion
Ġre f
m ed
in c
ĠK ing
ĠNov ember
ur ch
Ġre st
Ġw orld
Ġm ed
Ġs ince
es p
Ġsing le
ra ft
ra ph
p or
b le
ĠAp ril
ĠCom m
e y
ain s
ri ed
l ish
Ġd et
om et
Ġj ust
ĠH ar
ĠMar ch
Ġl ast
ect ed
ur al
ion al
he st
a im
Ġt urn
iv ely
ĠP h
Ġhe l
il t
Ġal low
Ġp o
ĠW ill
c l
Ġ3 0
i ent
vi ous
ĠC an
Ġle ft
Ġlar ge
Ġl ine
at s
Ġdif fer
ĠM c
al es
Ġc are
Ġs outh
ĠE d
Ġad v
if ied
Ġd r
Ġst r
Ġb ook
Ġver s
em pt
Ġs chool
Ġs l
ĠS outh
. .
ĠB ro
ag ue
Ġth ird
ĠDec ember
av y
Ġinc re
Ġmon th
Ġ2 5
Ġd ue
Ġapp ro
ĠG e
Ġplay ed
Ġm uch
ro te
Ġev ent
Ġ if
Ġan other
anu ary
ro w
Ġinclud ed
Ġwh at
ĠJ anuary
Ġ19 2
Ġpl ace
Ġb ased
Ġsh ort
on y
ĠI I
b y
Ġex pl
Ġgovern ment
Ġp erson
b all
Ġw rote
Ġtr ack
ap an
Ġc amp
Ġt it
Ġo ld
Ġb re
al f
Ġn ame
Ġde ath
Ġp ort
ent ly
Ġe lect
ĠP r
ĠE u
p le
ren t
i ence
Ġen g
Ġw on
Ġch ild
Ġpro t
Ġl it
ĠJ apan
Ġk ill
Ġpro g
o ad
Ġ. ..
Ġst ory
ide o
ag es
Ġp ower
ĠB y
Ġre view
od y
Ġv is
it al
Ġh ome
ot t
Ġl ed
p s
en g
on t
Ġdescrib ed
Ġre qu
om an
Ġpre vious
Ġfam ily
ne y
Ġg un
ra nd
ĠT e
ĠO r
y l
Ġw ay
Ġn amed
Ġr ight
Ġn ow
t ain
Ġd em
ur ther
i od
iv en
il ar
Ġm en
Ġev en
Ġm ake
emb ers
Ġor gan
re en
is ter
c y
ivers ity
om in
Ġatt empt
Ġb est
it ions
s h
ĠM us
Ġc our
Ġ1 00
Ġre pl
iv ision
Ġo pp
Ġle g
Ġ Â
ren ch
Ġg ames
i or
ĠG u
ac hed
Ġt erm
Ġcomm and
iv al
Ġh and
Ġpos s
m p
Ġbel ie
Ġd am
Ġver y
e an
o x
Ġth ose
eb ru
Ġp ar
l u
ebru ary
Ġis s
Ġst ill
ĠF ebruary
ĠEu rop
Ġto p
Ġne xt
Ġspec ies
Ġeff ect
ri end
Ġvi ew
c hed
oc i
Ġorig inal
at ure
en ces
Ġsp e
ak en
ĠN ational
Ġw ater
n ess
Ġadd ition
Ġj oin
ĠCh rist
ĠF l
ĠA nd
Ġl ist
a u
h or
Ġper iod
Ġwith in
al k
Ġm embers
Ġm ark
Ġde b
et er
Ġhe ld
Ġbu ilt
ĠH is
Ġex per
a f
Ġrele ase
Ġl ate
Ġal though
Ġfor mer
re w
ĠF rench
Ġmat ch
Ġg reat
Ġ201 0
a ugh
rid ge
ĠW e
Ġc ur
Ġd est
Ġs old
ut ed
tend ed
Ġv ideo
ĠB ar
ard s
Ġc aus
Ġ2 1
l ine
ĠP ar
Ġst orm
Ġc over
ec h
v es
Ġin it
Ġro le
rop ical
Ġt ri
s elf
he l
Ġc ame
Ġest ab
Ġday s
an ces
Ġres ult
Ġm id
Ġpres ent
ĠW est
n a
le v
ag ed
pt ion
o on
Ġ X
ul ation
Ġst and
Ġre al
Ġpol it
h am
Ġh owever
it ary
as ter
ĠA m
ĠW hen
Ġpro p
le t
om b
Ġ200 8
en se
at ic
id es
Ġf ew
Ġto wn
Ġw ind
e ad
ĠWill iam
Ġ200 9
Ġy ou
Ġ2 4
og raph
Ġt w
Ġs ide
Ġs k
ĠM in
Ġcontin ued
Ġof ten
Ġe qu
Ġp ost
ay s
Ġloc al
el t
ĠM an
at or
Ġam ong
Ġsim ilar
ru ction
Ġ201 1
r act
Ġh um
Ġa v
Ġcl aim
es tern
om en
c hes
un g
ĠA ir
Ġ &
s ide
re et
re ad
ak es
ĠGe or
Ġdiffer ent
ĠEng land
es e
op s
Ġm y
Ġd el
l er
Ġbe h
olog y
ĠH er
ar m
p ar
Ġt yp
Ġf urther
Ġs ent
t al
Ġ2 2
es c
ot s
est ed
Ġle vel
ur s
Ġf re
Ġconsid ered
Ġt ake
Ġl aw
ĠD uring
er y
g y
Ġcare er
ĠM ich
ro du
Ġ200 7
Ġprodu ction
ĠCh ar
ĠE ar
m e
Ġh alf
ic es
O n
Ġan t
amp ions
Ġh aving
b o
ĠN o
ĠC ity
ĠP ark
Ġm ag
Ġro ad
Ġe ast
Ġmov ed
s p
Ġd ra
er ing
ĠEng lish
r ig
Ġc or
Ġever y
Ġw est
Ġwith out
ĠE l
Ġt ro
Ġc r
ĠThe re
ĠR ec
Ġapp e
Ġpl an
in ing
ĠD av
Ġplay er
Ġpos ition
Ġbec ome
Ġar r
Ġhist ory
ron t
ĠC o
Ġvers ion
ver s
ĠC ent
f ord
ond on
on es
Ġ201 2
Ġc ast
Ġ el
Ġinf lu
iz e
Ġar m
ĠC ount
al d
Ġh ouse
y le
Ġ2 3
Ġs ound
Ġf ore
ir c
Ġcomm un
res ent
ap p
ĠL ondon
Ġg r
ĠAn g
Ġcl ub
ro y
Ġsu gg
a ul
at ter
Ġk e
Ġstr ong
Ġinv ol
ĠB att
a i
Ġwrit ten
ain ing
Ġ19 0
Ġb as
Ġst at
Ġl ess
oun g
ut es
Ġann oun
re st
Ġf oot
i qu
Ġor der
ĠR iver
Ġre fer
iet y
im ent
g es
Ġpro f
c raft
ĠC al
Ġa ff
Ġpoin t
y n
se qu
Ġt em
Ġg iven
Ġr ad
Ġl ow
Ġtr ad
Ġh ig
ĠCan ad
Ġw ant
il le
Ġg ave
ĠUn iversity
Ġp at
u ck
is c
Ġim port
Ġne ver
a ff
Ġch ang
Ġdef e
or ies
Ġs oc
Ġreturn ed
r ation
a e
ĠO ne
Ġv ict
Ġto tal
Ġf act
Ġg ood
ent ion
Ġcontro l
Ġcomp any
Ġf ire
ail ed
Ġcount ry
Ġw ent
is on
Ġcom b
c ess
Ġf riend
ĠG ener
our s
ric k
Ġcap t
Ġpubl ished
ĠP ol
a un
Ġprodu ced
ĠH igh
lev ision
c on
Ġf ind
ay ing
Ġreport ed
Ġorig in
a ign
Ġl ost
Ġst ated
Ġcomm on
Ġprog ram
Ġ200 6
Ġl ight
ing ton
Ġpartic ular
ap e
Ġor d
ec hn
Ġad m
Ġinclud e
ĠT r
est s
cc ording
b s
Ġlar g
ab ly
ur ric
Ġcomp et
Ġ er
us ed
Ġrecord ed
ie f
Ġbuild ing
Ġp ress
Ġne ed
Ġb us
Ġpro ject
h ing
Ġfor ces
ĠE x
um ent
Ġn ort
Ġship s
ĠS m
Ġsh ould
Ġ2 7
Ġus ing
Ġe ight
Ġ5 0
Ġ2 8
Ġperform ance
in ess
Ġserv ice
Ġpop ular
Ġ ide
pl oy
Ġt imes
os p
Ġm aking
Ġt en
Ġair craft
Ġhim self
oy al
Ġf un
Ġaut hor
Ġf ather
at ch
Ġmil itary
Ġan im
Ġ201 3
le ar
Ġbatt le
ampions hip
ĠS w
n ed
Ġs it
Ġl im
Ġsong s
Ġs omet
Ġre ad
e f
ou ther
ĠAustral ia
Ġcrit ic
ens ive
it her
ĠA f
ord s
Ġdevelop ment
ol l
ĠS ec
Ġs w
ĠA ss
Ġh ow
Ġg l
Ġ4 0
al th
et h
it ive
as es
ĠA b
Ġs ol
ĠN e
qu ad
ed er
Ġ2 6
outher n
ĠThe se
ĠJ ack
Ġc ross
c er
ĠC or
k s
Ġrep resent
Ġ18 9
am b
Ġg round
Ġdest roy
ac y
Ġst ar
Ġf t
Ġrem ained
ĠGener al
as tern
Ġst e
ĠSt ate
Ġcharac ters
Ġn ational
ĠAr my
Ġg et
ri es
w ork
Ġmonth s
Ġsu ff
ĠS y
Ġg en
Ġd ied
a ur
Ġt er
ubl ic
Ġdevelop ed
Ġtit le
d om
Ġs um
Ġch art
Ġcamp aign
f ic
re am
urric ane
Ġfor ce
ĠP res
Ġchild ren
Ġint rodu
land s
en cy
Ġp ra
ĠB o
ĠLe ague
Ġto ur
Ġprom ot
ĠJ ames
it ted
ist ed
a el
Ġs on
Ġsign ific
Ġre d
ĠCom p
Ġac ross
ĠG l
Ġa way
ress ion
her n
Ġrel ations
Ġob s
ĠAl though
Ġhist or
Ġf ield
Ġoffic ial
o le
Ġf av
ĠD ivision
Ġf elt
le ge
ĠAmeric a
Ġnot ed
Ġf ac
ĠW ith
Ġn ight
al t
Ġannoun ced
m ost
Ġre ached
ĠSt e
Ġinter n
Ġc he
Ġcre ated
Ġare as
c om
ĠCount y
Ġte levision
Ġc oun
ĠR uss
Ġst ation
ress ed
ĠR oad
Ġsuccess ful
Ġro ck
Ġ200 5
ĠJapan ese
im ately
Ġv al
ĠR ep
is ing
Ġvar ious
ĠâĢ Ļ
Ġb ar
Ġpolit ical
Ġse en
ĠSt reet
Ġfollow ed
Ġa ver
i ber
f ield
it ing
Ġto o
ĠM or
Ġr ank
ĠS up
et t
Ġ2 9
Ġperform ed
c ast
ĠS im
Ġc ult
iz ation
op e
Ġser ved
Ġplay ers
re g
ĠM on
Ġre v
Ġcon d
al ity
Ġpr im
Ġdec l
ĠM ad
Ġf ull
Ġ201 4
in ation
Ġbl ack
ell ing
Ġbe gin
Ġf le
Ġp ut
du ct
Ġc irc
ab or
Ġcon v
ĠRe g
Ġear l
ol ution
ĠG r
ĠE ast
Ġc ost
ĠWh ile
id ence
Ġpro cess
Ġse e
Ġn on
Ġd iv
Ġst yle
y ing
Ġl ook
Ġse ven
Ġa ud
Ġv ol
Ġkill ed
Ġc y
Ġhel p
ric t
Ġle t
pl ay
l ished
Ġthrough out
b or
Ġt aken
Ġt ropical
Ġab le
an a
ĠS er
Ġf ight
Ġdisc over
Ġag re
ec ut
ert ain
Ġlit tle
Ġw id
Ġbec om
Ġf em
Ġa ge
ur g
Ġsignific ant
ĠPh il
Ġh it
Ġme et
Ġ ident
ir l
way s
Ġt echn
ĠH en
ĠA ccording
ĠGeor ge
Ġspec ial
ĠR ober
Ġc op
ĠB ill
o ice
Ġwrit ing
Ġst ruct
Ġthough t
Ġestab lished
Ġbro ad
Ġf ront
en ced
Ġm m
Ġappe ared
Ġdo es
Ġcol l
Ġent ire
av al
c il
ep end
ĠE m
Ġy oung
Ġco ast
Ġpoin ts
Ġ !
Ġmil es
i us
Ġb ody
l ess
Ġa ward
Ġimp ro
ĠAustral ian
Ġro ute
Ġm ember
od es
ough t
g round
ri pt
Ġw omen
Ġact iv
Ġr ange
as k
iv il
he re
m s
Ġcaus ed
Ġstart ed
Ġdec ided
st er
i ers
ĠP art
Ġfeat ures
d ay
lect ed
ĠA ct
ĠS ch
Ġgener al
Ġp ain
ĠP er
Ġevent ually
at ors
ir on
i ec
ĠAf ric
m en
in t
ĠTh om
ĠM ed
um b
d en
ĠY ou
con om
op h
og n
Ġr ace
Ġar ch
u k
Ġv ot
it ar
Ġgro w
Ġman ag
Ġfe et
pp ed
us h
ris on
Ġto get
Ġtoget her
Ġadd ed
Ġt re
ĠDav id
Ġh old
Ġc ut
ĠR oyal
ber t
ĠR ich
iv id
Ġwh ite
ĠH ouse
Ġon ce
Ġn ov
amp le
am ent
Ġform ed
Ġ18 8
Ġar g
Ġloc ated
ĠQ u
ree k
o ff
Ġst ri
ĠP e
ur b
Ġcon n
Ġmod ern
Ġen c
Ġinst ead
d le
he ad
rough t
ac es
ort s
Ġro und
Ġ esc
ar a
Ġb all
em y
Ġ3 1
Ġm ix
Ġimport ant
Ġp ri
Ġcre w
c ing
Ġs aw
Ġa ction
Ġcomple ted
Ġre du
Ġplay ing
ect s
one y
id s
c ent
r ated
ell s
ĠIt al
at a
ĠBl ack
Ġins p
ĠInd ian
Ġb ase
Ġm ater
ĠIn tern
Ġ200 4
Ġpop ulation
Ġm ot
Ġsur v
ĠH ist
Ġv oc
l in
Ġas k
r ay
Ġr ather
Ġocc ur
Ġopen ed
s c
Ġst age
Ġbeh ind
Ġother s
Ġf all
Ġgun s
Ġ18 6
Ġre n
as ing
ce ed
Ġbro ther
wo od
em ents
ign ed
Ġcom ment
Ġl ik
st it
Ġf if
Ġs ite
Ġl ive
Ġwork s
nd er
Ġl oss
Ġb omb
Ġwork ed
Ġ201 5
fic ult
ĠT o
Ġhe avy
Ġm iss
Ġp red
ĠFran ce
Ã ¡
med i
ra p
Ġsub sequ
Ġl ack
Ġpart y
Ġpro ble
le ction
Ġdif ficult
Ġcl ose
Ġconst ruction
Ġkn ow
ĠS chool
Ġrelations hip
ar ch
Ġh ost
Ġweek s
ĠM y
ist ic
Ġorigin ally
Ġse par
Ġass oci
Ġup on
Ġpr act
Ġre b
Ġlead ing
Ġapp oin
l ic
Ġacc om
Ġv ill
Ġal most
ĠS an
Ġm er
Ġpe ak
c o
Ġin j
Ġdam age
ĠW ash
ĠN or
ĠMich ael
un k
Ġb orn
Ġsc ored
Ġfour th
os ition
ĠEurop e
Ġin form
ic a
Ġm or
Ġre ve
Ġprov ided
m ing
Ġc ase
Ġgo al
Ġcl os
bo ard
ap s
Ġeng ine
Ġc reat
Ġac cept
Ġm i
Ġ200 0
Ġinv est
ĠBatt le
t o
Ġsc ene
ell ow
ĠP ort
Ġhum an
ang u
u le
in o
olog ical
Ġb rought
Ġf ree
Ġ5 00
Ġind ivid
Ġfeat ured
ul a
Ġm other
Ġ18 7
ĠB est
Ġle ast
Ġk ing
am a
Ġwork ing
Ġallow ed
Ġl aun
Ġres ul
Ġaver age
Ġto wards
Ġwant ed
Ġm ult
ĠSt ar
Ġind ust
av es
Ġtrad ition
a ut
ĠR ed
Ġreg ion
ĠMus ic
Ġbus iness
A fter
ĠHen ry
ĠA le
id ing
az ine
e e
ĠV ir
Ġv e
Ġqu ick
Ġtro ops
Ġpl aced
Ġe ither
Ġresp ect
Ġc e
v ing
Ġoff ice
Ġcrit ics
k y
ĠPres ident
Ġav ail
Ġh on
ant ic
Ġre ach
Ġprof ess
Ġex ample
Ġmater ial
Ġrun s
Ġe conom
Ġrec ogn
Ġf ar
ĠQ ue
g o
ĠWash ington
en ed
Ġw ife
ĠH ol
ĠR ou
ear ch
ch ie
Ġne g
Ġest im
ent ial
Ġar my
Ġ z
Ġf oc
r ight
esp ite
Ġse x
ĠM il
Ġinter est
ĠC ap
ĠG ro
Ġs our
ĠO ther
eng th
Ġgener ally
Ġm ass
Ġ200 3
Ġjoin ed
Ġra il
Ġd ou
Ġ Ã
ill s
quad ron
ĠP aul
Ġpro per
ĠC our
ĠA g
en es
ĠB el
Ġcur rent
Ġde v
our n
ĠC ro
u ff
Ġev ents
o f
ĠC up
Ġbelie ved
it ch
Ġpartic ip
ĠRober t
re y
Ġf ig
ĠK e
ollow ing
v ille
Ġ3 5
ĠH all
o or
ĠAng el
Ġvict ory
Ġrepl aced
art ment
Ġdesign ed
Ġm ph
ict ion
Ġg rad
Ġr ul
ĠH am
ĠG ame
it te
Ġso on
Ġn omin
Ġis land
Ġf und
x ic
er ous
Ġh ours
ĠG reat
Ġem ploy
Ġpres ident
u el
Ġro om
it or
ific ation
ar n
Ġinvol ved
al ed
v al
Ġsur f
Ġfin ished
z e
mer c
in ist
Ġst ru
ĠEurop ean
r ac
ĠCh ampionship
as ion
w est
in f
in n
Ġbre ak
ap er
ĠM ary
a ren
ĠL ou
Ġh or
ra in
if f
Ġs aying
ĠF irst
em or
Ġcour t
Ġsh ot
Ġth reat
Ġsc ore
Ġopen ing
Ġreg ular
ĠR oman
B C
Ġdirect or
Ġdes p
Ġl ength
le g
c her
ĠL a
ad es
Ġind ic
Ġcon duct
Ġlarg est
Ġcont rib
Ġtra vel
Ġh om
ou l
k i
Ġposs ible
ecut ive
n ow
Ġmin utes
Ġ ill
Ġhigh way
Ġd ro
Ġs outhern
ish ing
Ġh y
ĠM al
ic le
Ġhig hest
Ġrem ov
Ġearl ier
Ġinit ially
Ġt est
ag o
Ġl y
ĠM art
ĠPl ay
Ġavail able
Ġparticular ly
Ġper cent
and er
ant ry
Ġh ard
ann ed
Ġse qu
Ġtra ining
Ġ200 1
ĠAt l
ud e
Ġm ust
Ġfor ced
p ly
Ġex ist
ip p
ĠRep ublic
h ib
ĠV al
ri an
ograph y
as y
Ġp ark
ĠD an
ĠÂ °
ĠN avy
ĠSc ott
ĠS ome
ĠM et
ĠB er
ate g
Ġresp ons
Ġend ed
Ġqu ar
ĠD on
ĠKing dom
ĠM ac
ĠRou te
Ġturn ed
Ġw all
Ġex c
Ġsoc ial
ut ure
ĠS ing
Ġstud io
em s
ĠD r
if orn
ra g
ĠM id
i os
Ġch ange
Ġl angu
ĠM ag
Ġpra ised
Ġpass ed
Ġpr iv
Ġb ill
at ural
Ġp iec
Ġincre ased
Ġob ject
ĠW il
r up
Ġsup er
Ġed uc
Ġh urricane
Ġreg ard
Ġnort hern
he ast
ĠD ep
ĠIntern ational
Ġke ep
Ġph ys
Ġcent ral
ight s
Ġnov el
Ġ200 2
Ġrel ig
ĠCh urch
Ġspe ed
Ġappear ance
Ġun its
Ġp ast
ers hip
ĠChar les
ĠO ff
ke y
Ġst op
ĠCanad a
or ing
re m
Ġch urch
end ed
Ġim medi
Ġc ou
ĠCal iforn
ĠVir gin
u ter
ĠB ut
Ġsy m
st on
oc r
Ġdis p
ĠWh ite
Ġme as
Ġord ered
augh ter
ĠThom as
Ġt reat
Ġpro b
ĠB ay
Ġt aking
fer ence
ĠP al
ĠS en
ry ing
ĠR ock
ĠBro wn
itte e
ĠMc C
s el
Ġl ove
Ġind epend
Ġsign ed
Ġmov e
iqu e
ĠR es
il ities
Ġa chie
et work
Ġbet ter
um p
Ġp ers
ĠCaliforn ia
it z
ĠS l
ak er
ĠUn ion
Ġa p
ar ily
ec ess
Ġin n
Ġwind s
Ġcom merc
Ġw at
Ġen ough
Ġpos itive
ĠIs land
ear s
n el
m a
Ġacc ording
Ġh ous
um e
ĠSm ith
Ġsp ent
ĠM o
ĠM er
ĠCour t
ell ed
Ġgo ing
Ġp ot
Ġab ove
ap t
Ġs low
ank s
Ġout side
Ġfilm s
ĠG overn
ĠG od
Ġfe el
Ġto ld
ĠS am
Ġfoot ball
ber g
qu are
Ġc lear
Ġprevious ly
u ation
Ġst ates
Ġqu est
Ġrecord ing
ĠT wo
Ġme an
and ing
ĠA ward
le b
Ġn ine
ĠAle x
he t
Ġ6 0
Ġp ur
us ion
Ġ199 0
Ġsub ject
he m
Ġf ailed
at in
ow s
on st
Ġass ist
ĠC ong
ĠRich ard
Ġcom e
ĠAss oci
Ġrequ ired
ren g
os ing
ĠComp any
v an
Ġele ments
Ġ4 5
Ġe y
id a
Ġc ru
al ion
ĠB ra
ĠV ict
Ġl ower
Ġreview s
Ġinter view
ed y
Ġph ot
Ġpart s
Ġits elf
Ġs il
Ġn ar
Ġth ink
ran ch
Ġdirect ed
ĠInd ia
Ġab s
is l
A s
Ġf low
Ġ esp
ib ility
ĠGerman y
Ġdesp ite
s hip
Ġc red
ĠA c
Ġcont ract
am er
ok e
Ġ18 5
Ġdeb ut
ĠT om
n es
ĠT imes
ĠÂ £
er ved
ĠChrist ian
Ġ ?
Ġacc ess
read y
Ġbegin ning
on na
o id
Ġb i
Ġgroup s
Ġvi ol
ĠCol lege
Ġs ection
ab ility
ĠSt ud
hest er
Ġwh ose
as ons
ĠG old
Ġclaim ed
ov iet
ĠAr t
e al
Ġintern ational
ĠU K
Ġask ed
Ġl ines
h ile
Ġtrans fer
Ġpre vent
Ġst reng
Ġsc reen
on se
Ġg ive
air s
ri ef
ĠH ill
m ar
Ġbe g
Ġaddition al
r ack
ĠC ast
Ġun c
Ġf uture
ĠM ark
ĠW estern
Ġle ague
Ġwh om
ĠP eter
Ġo p
ĠS oviet
Ġg old
Ġpo or
ĠP at
Ġfor t
ĠMe xic
ĠA wards
ĠD em
ly ing
Ġintrodu ced
Ġpre m
Ġev idence
it es
Ġd on
Ġse a
ĠD espite
Ġide a
Ġquick ly
ĠSp an
Ġem b
at ory
Ġal ready
Ġcent er
ĠN Y
Ġb ridge
ĠD o
Ġc al
Ġ3 2
en a
Ġfre qu
ec k
us p
ĠFor ce
Ġele ction
Ġprodu ct
Ġocc up
Ġp il
b ack
Ġex cept
Ġde al
ir th
ec ially
Ġ197 0
Ġp en
ĠTh at
ĠS oc
ĠG rand
e um
ar ing
Ġus ually
Ġmus ical
Ġarr ived
Ġw estern
ĠC oun
Ġbl ock
Ġrad io
un t
Ġc ivil
l iam
Ġ198 0
Ġcy cl
ul ly
er gy
Ġfem ale
Ġsomet imes
ĠBrit ain
Ġstud y
Ġf ood
Ġresp onse
Ġdec ision
ĠFran k
Ġm oney
ĠF ilm
ĠB r
Ġmag azine
Ġesp ecially
Ġiss ue
as c
liam ent
om m
h a
Ġl ab
ĠH ot
ĠP ac
ĠD ay
Ġsurf ace
Ġlit er
ra b
Ġfl ood
Ġm ight
g en
ain t
Ġen v
Ġgu itar
Ġcar ried
Ġshow s
Ġcommun ity
Ġconst ruct
Ġestim ated
it er
Ġar ran
Ġrem ain
ra w
ar ies
Ġ -
Ġrem aining
Ġe astern
Ġmin or
Ġdefe ated
Ġdet erm
ĠCh ic
ĠB en
in ent
ess ion
Ġappro x
ig an
Ġlar ger
Ġ199 9
ul f
Ġbecom ing
ĠVict or
Ġra p
Ġw ood
Ġcomple te
Ġ3 6
r or
Ġpol ice
Ġsugg ested
ĠR ob
por ary
Ġmed ia
Ġpress ure
Ġent ered
Ġsh oot
Ġteam s
Ġcommerc ial
Ġan al
Ġ8 0
Ġd oc
Ġl atter
Ġly ric
and s
t t
Ġmark et
er ve
Ġl o
Ġconsid er
Ġstud ents
is es
s y
Ġsur round
Ġinvest ig
Ġb rief
Ġk ey
Ġconc ern
ĠL os
Ġperson al
S t
in ct
Ġb ur
ĠR h
Ġpr ison
Ġc ertain
ĠM ount
Ġdisc uss
Ġac qu
ĠB ur
Ġeffect s
Ġcomple t
Ġh op
ĠM ill
Ġappoin ted
all ed
Ġd er
Ġsum mer
ĠVirgin ia
Ġepis odes
Ġpri or
eder al
inc ip
I I
N A
Ġs at
Ġt ar
ch ange
Ġe mer
Ġst aff
ly mp
Ġs ize
ent h
l o
ĠT ra
Ġchang es
ul ated
Ġcomm ission
im ate
ĠIn f
Ġwin ning
Ġlim ited
ĠF rom
Ġsc enes
Ġfle et
Ġr iver
Ġle aving
Ġdestroy ed
is er
Ġde g
ore s
Ġp ay
p ris
ĠTe x
Ġr id
Ġd en
Ġdra w
ĠO lymp
ĠSec ond
ĠF le
ĠCl ub
ĠFl or
Ġs elf
ar i
r d
g a
Ġright s
ourn al
Ġprov ide
Ġwrit er
i res
rig ade
Ġpol ic
Ġ7 5
qu e
id ents
Ġf ail
ens ion
Ġd ate
Ġter rit
s u
Ġt rib
ĠI m
A F
om s
h an
Ġg irl
Ġprop osed
ĠJack son
e x
Ġinflu ence
t ies
ĠSpan ish
Ġover all
ĠPart y
ĠLou is
Ġt ax
Ġk il
Ġtrans port
Ġstruct ure
Ġequ ip
ir al
Ġ18 4
Ġ196 0
Ġsc ript
Ġb r
Ġd ivision
Ġ3 00
ines e
Ã Ń
b e
Ġagre ed
ĠAssoci ation
Ġant i
Ġin tended
Ġj ud
Ġb ow
Ġrun ning
if t
end ing
ic les
Ġtyp e
s en
Ġd aughter
Ġb ig
Ġbroad cast
Ġp urch
Ġnear ly
Ġsupport ed
at ives
Ġde ep
c he
Ġres earch
Ġd i
Ġw ide
im um
Ġestab lish
Ġhel ped
Ġmar ried
ĠChic ago
il es
Ġmov ement
Ġaward ed
Ġmult ip
n y
ĠG reen
il i
ĠD u
ĠCoun cil
ĠL ater
at ively
ĠJ ust
ĠT er
Ġ199 8
Ġfav or
Ġcre ate
ac ing
Ġint ens
ĠCh inese
Ġdis s
Ġb ird
Ġd ark
Ġs usp
om er
ĠAd m
te en
Ġst ars
Ã ¶
ĠCon t
Ġlong er
ĠR o
Ġlangu age
Ġhig her
Ġc at
Ġpl anned
m on
Ġcomp ared
Ġcapt ured
Ġincre asing
Ġf ans
Ġconc lud
u z
Ġcour se
ĠI r
ĠS ong
Ġchang ed
i en
ĠI f
ound s
Ġexper ience
b ers
Ġapprox imately
Ġrel ated
Ġ3 3
Ġd one
Ġfeat ure
Ġfif th
Ġl iving
Ġthem sel
ent y
ĠO ver
Ġthemsel ves
ab it
ĠS al
Ġprodu cer
ĠK ore
t ained
ĠE mp
a rent
Ġ7 0
Ġtem per
Ġsp ace
ĠEd ward
Ġtrack s
Ġmost ly
ĠHist ory
is ions
T h
Ġwith d
ĠEar ly
ol ic
ĠO per
ĠEn ter
ĠPac ific
ĠU p
Ġth us
c an
i j
Ġde ad
Ġw oman
um n
Ġoper ations
Ġim m
Ġrem ains
ĠBill board
Ġb ring
Ġsy n
Ġquar ter
ĠS erv
th ing
Ġo ur
Ġn atural
im in
Ġ ult
oin t
Ã ¼
v in
Ġwhe ther
Ġcon cept
Ġwe ap
Ġd ram
and ed
Ġprob ably
Ġsold iers
Ġr an
Ġcop ies
A l
r ast
ut h
b our
Ġbuild ings
Ġlead er
Ġv oice
Ġf ace
Ġb oy
Ġex tended
Ġlyric s
Ġfor ward
Ġdep art
ĠM ont
Ġcomple x
Ġbo ard
ir ing
ĠE v
Ġre act
Ġbatt les
Ġiss ued
Ġhe av
Ġch all
ri age
ve y
g ing
Ġre ally
it t
Ġcount ries
ĠAtl antic
osp ital
Ġ199 7
r ate
ĠS un
ur t
Ġsuff ered
Ġ3 7
ĠSc ot
Ġc m
Ġgo als
Ġinclud es
ĠJohn son
Ġimmedi ately
Ġat tend
h ood
ĠL ake
Ġbre ed
Ġmanag er
Ġcap ital
Ġpriv ate
Ġmix ed
i ant
Ġoffic ers
ĠCong ress
ĠIn ter
Ġlik ely
Ġcan n
ĠL ove
ĠB ack
Ġdist rib
h old
Ġm ach
ĠFlor ida
Ġmet h
ĠJ ew
b ury
Ġremov ed
Ġpl ant
Ġinit ial
Ġce leb
D uring
Ġincre ase
ĠFran c
ven ue
Ġhe alth
d e
Ġsubsequ ently
ĠA pp
Ġle ave
Ġpl ans
ri a
Ġal ways
Ġfoc us
Ġc oin
ro l
ĠM ost
Ġn etwork
ect ions
Ġserv ices
Ġm ount
Ġv ia
Ġstat us
Ġcomp an
ri al
Ġvis it
Ġloc ation
ord er
ĠF inal
am s
i ation
ĠB ig
ĠF ort
ĠT own
Ġproble ms
Ġfl ag
ĠSe a
ĠQue en
w ell
Ġoff ered
Ġinst r
ct or
ĠD ist
et ic
ous ly
ail y
Ġmod el
Ġterm s
Ġn orm
Ġm ur
Ġcol on
ĠTex as
ĠCh ina
Ġappro ach
w er
Ġvill age
Ġsomet hing
Ġadm inist
ĠO ld
Ġt ons
Ġf ell
oun ted
A t
ĠEar th
ĠF ollowing
Ġt or
iron ment
Ġs ch
Ġmajor ity
b urg
ĠT or
ĠK n
Ġprofess ional
ĠC amp
Ġcoun ter
l or
Ġ18 3
ad ium
Ã ³
ĠL aw
st ant
Ġg ot
ib r
Ġc ause
Ġcons ist
ac hes
ur ies
ĠAfric a
Ġinter s
ĠL ord
ĠR ail
Ġdam aged
ĠT rans
ĠP et
Ġmeet ing
p an
o e
ol k
Ġj ob
Ġappear s
ĠM r
Ġconf ir
Ġad op
Ġmin ute
ĠP ri
ĠJ im
ĠCanad ian
Ġrank ed
Ġl ay
o es
u f
Ġindivid ual
Ġcomp osed
ce an
Ġreve aled
ĠCent er
ĠAn t
if y
ĠT ur
Ġan g
Ġfl ight
Ġattack s
ĠS quadron
it ect
ĠB oy
re ater
Ġpl ot
Ġ9 0
Ġdiscover ed
Ġra ised
re ak
um ed
Ġfin anc
ĠW ood
Ġrespect ively
Ġm akes
g ar
ĠRuss ian
Ġnum erous
ĠH ow
ĠI ts
Ġassoci ated
st e
Ġal tern
Ġt akes
ĠAngel es
Ġd omin
ĠII I
Ġneed ed
Ġinsp ired
Ġan c
Ġl ived
Ġ199 5
a ult
Ġg rand
ĠHigh way
Ġlaun ched
Ġy et
ĠCar ol
ri ption
Ġc and
e ff
Ġn ature
ĠK ent
Ġ3 4
Ġam b
Ġp ow
ĠCent ral
Ġd ig
Ġco ach
Ġoccur red
k en
Ġcont ains
Ġve h
est ival
Ġb ene
Ġsh own
Ġattempt ed
u als
Ġattack ed
um ents
Ġmov ing
Ġcond itions
ĠO l
Ġh our
ri e
Ġup per
k a
V D
i est
d own
Ġs ales
Ġg ra
ect ive
ĠM ur
ĠM el
j oy
Ġcol lect
im b
Ġ3 8
or ce
ĠT V
augh t
ĠY ear
Ġiss ues
Ġb irth
Ġwho le
Ġ201 6
Ġs al
iz ing
ĠMart in
Ġc er
Ġex am
Ġ195 0
Ġinform ation
Ġy ards
Ġf arm
o ly
ĠB ow
Ġsl ight
Ġbo x
ver t
w in
ur ity
u ing
Ġ199 6
Ġm om
Ġrefer red
Ġcrit ical
Ġ i
ĠEmp ire
Ġinc or
re me
Ġnum bers
Ġfin ally
Ġsmall er
Ġelect ed
Ġse lected
Ġdefe at
Ġs en
Ġresul ted
ĠT our
Ġsc ient
ĠRe v
ĠGro up
Ġst ay
Ġb ad
Ġgr ant
ĠR ad
Ġqu al
Ġact ive
ĠS ir
Ġpr incip
Ġsing er
k in
Ġstand ard
Ġsec ret
Ġp it
it ation
u ated
Ġm ission
Ġindust ry
ĠM iss
en ant
Ġlarg ely
ort un
Ġen s
Ġoper ation
ĠB et
Ġs em
and on
Ġpre c
on ic
Ġl ink
ou ra
Ġass igned
Ġs af
Ġear ned
Ġ199 4
Ġth r
Ġleg isl
Ġcomment ed
ĠItal ian
y a
it ude
Ġm ale
Ġexp ected
ã ĥ
ĠSup er
ou d
il ed
ĠCor ps
ĠD es
Ġaud ience
Ġro y
ll ed
Ġlist ed
Ġsugg est
Ġcover ed
Ġpur p
ĠD VD
Ġun able
ire ction
Ġsc hed
Ġhe art
Ġtradition al
Ġeduc ation
g r
Ġtr ade
ĠB oth
Ġart ist
Ġnew sp
Ġfriend s
Ġdou ble
Ġcl osed
Ġref used
ĠD el
ag on
Ġunder st
Ġa w
Ġrec over
Ġatt ention
oun ts
us e
ĠP enn
Ġmeth od
igh ter
Ġprim ary
Ġs ister
og ue
ĠN ot
Ġk ind
Ġt alk
ĠV iet
ter ed
Ġre ason
ĠG ar
Ġoffic er
Ġpl at
Ġbel ow
o o
Ġcont em
hip s
Ġen joy
Ġab ility
Ġ194 0
Ġdep ression
Ġme ant
an ced
Ġperform ances
is her
Ġdecl ared
Ġw alk
Ġbl ood
Ġ4 9
Ġg iving
Ġlet ter
Ġcomp l
Ġw ord
und red
pl es
ĠW ales
Ġfight ing
Ġmid dle
Ġcommand er
Ġbook s
Ġrelig ious
Ġthe at
Ġm ax
Ġh ot
ĠO ut
Ġ18 0
ĠM any
Ġset t
Ġr ate
ĠC ath
on a
ĠD is
ĠJ ose
ĠMich igan
Ġrecord s
Ġmat ches
Ġconst it
ĠC r
Ġn ames
ap ed
Ġprodu ce
Ġquest ion
ĠN ort
ut ch
ĠDem ocr
ant asy
Ġcompet ition
ir t
Ġcent re
Ġser ious
Ġun it
ro ad
ĠM ass
ĠT est
od ies
Ġdis app
Ġto uch
Ġvoc als
im s
ĠMin ister
i ences
2 0
Ġm ention
ound ed
Ġ ri
ĠZ eal
ect or
ĠAc ad
Ġacc ount
Ġdoc ument
Ġab andon
ic ted
Ġrap id
Ġen ergy
Ġn ecess
Ġ4 1
u x
il s
qu ar
Ġ199 2
Ġkil omet
ic ient
erv ation
a res
ech an
Ġd ut
Ġtra ff
Ġconstruct ed
ĠTe am
ĠC le
en ing
y r
Ġthem e
Ġr is
os es
ĠC are
ri er
et te
Ġroy al
Ġp ick
ish op
Ġst ra
Ġnear by
Ġhigh ly
Ġsepar ate
ĠZeal and
Ġcontin ue
ed ic
vent ion
ĠL ong
Ġpre p
Ġch ief
ĠO x
ail s
Ġdr um
Ġeff ort
os h
ru g
Ġc as
ĠF er
Ġpresent ed
Ġt ur
ĠP re
Ġcomb at
op er
Ġpos itions
ĠU nder
Ġann ual
Ġredu ced
et her
ib ly
Ġcontro vers
u it
Ġ4 00
Ġdirect ly
ĠMexic o
ie ut
ĠAr ch
c el
h y
Ġlevel s
ĠAfric an
Ġme ans
ĠF ore
Ġc le
Ġne igh
Ġnot es
Ġ193 0
Ġat tended
Ġse vent
Ġpract ice
Ġt ried
sh ire
Ġcomp os
Ġfore st
emor ial
ĠT ime
ĠSt ep
Ġh ar
Ġf ast
Ġn uc
Ġed ition
Ġtra in
Ġg e
ad o
ac her
Ġ5 5
ĠH aw
it a
ĠF ox
aren ts
ĠS um
v ement
Ġtw enty
Ġmet al
Ġaccept ed
os en
Ġw atch
ĠCh art
ĠW al
Ġst ating
ĠC ons
Ġmov ie
Ġarch itect
Ġte xt
r ical
Ġrep e
Ġcand id
is ation
p e
t rack
l ight
Ġconc ert
r as
Ġ199 3
Ġadv ance
stit ute
Ġ199 1
Ġp air
Ġport ray
Ġd irection
h ouse
Ġ17 9
Ġf r
Ä ĩ
Ġse em
Ġdis m
Ġschool s
Ġleg al
ĠS o
ĠM a
Ġre ject
ew ay
l ict
in em
ĠW all
ĠAn other
M S
w ide
Ġas p
ic ip
Ġhor se
f all
ĠT re
Ġth ick
Ġmar riage
ill ery
ag ing
Ġrec omm
ĠM ajor
ĠM ore
Ġeff orts
Ġman aged
Ġcol lege
ĠDep artment
Ġ +
Ġp urs
ĠScot land
l ike
Ġw ing
ut ions
Ġend ing
Ġ3 9
Ġresult ing
ir it
ĠS ar
ieut enant
ro s
ĠG reek
b and
Ġshow ed
Ġdro pped
a wn
Ġrespons ible
ill ed
Ġn ation
Ġdis play
Ġins ide
ĠB u
Ġc ases
Ġke pt
Ġc ust
ĠJ ones
Ġenv ironment
ĠInf antry
Ġcult ure
Ġra re
Ġmean ing
Ġr at
Ġcycl one
ol f
ĠK h
Ġ4 8
Ġd om
ĠMad onna
ĠD ar
Ġincor por
ĠB rad
Ġbeg ins
p ass
ĠC ross
Ġvar iety
ceed ed
Ġmor ning
Ġcer em
Ġhous es
Ġform s
Ġch ampionship
ĠCh ris
ĠB ob
Ġw ords
an i
in i
Ġar rest
Ġsch ol
Ġy ard
ĠC reek
per or
ĠM att
Ġo il
ĠB ost
ĠM anc
Ġinc hes
Ġmark ed
ce nd
A n
g l
ĠH el
Ġcontin ues
ĠK enn
Ġsp l
Ġsc ience
Ġper m
ĠAn n
Ġsym b
ĠC rit
ĠB C
ĠH ung
Ġ18 1
gy pt
ect ing
it tle
Å į
ĠRec ords
Ġb ank
ol s
Ġus es
Ġeconom ic
w rit
c le
ĠP ost
Ġsour ce
ĠLe g
t hel
b ed
ĠSec ret
ĠSt one
ĠE r
Ġqu ality
Ġdef end
ul ations
ĠThe ir
Ġle ar
ĠWilliam s
ĠServ ice
Ġh undred
ĠV er
Ġset tle
ĠPar liament
ĠL ad
ĠG ames
Ġimp act
Ġstart ing
Ġconduct ed
ĠC he
th ur
Ġspec ific
Ġstru gg
Ġallow ing
ĠSe ver
ĠD ou
ĠG o
ĠP an
Ġbe at
e en
Ġpres ence
Ġ194 2
ĠSoc iety
Ġam ount
Ġs ides
Ġd u
ĠM ic
Ġview ers
Ġcap tain
sy ch
Ġd ance
Ġmet res
Ġch ap
ing u
ĠF our
ĠNew s
ro wn
Ġun ivers
ir m
Ġex hib
Ġsup pl
Ġr ule
ĠE gypt
ĠF oot
Ġdist inct
ĠT ro
ĠT ri
Ġmultip le
d ing
ar ian
Ġtransfer red
Ġpot ential
Ġfore ign
ers ey
Ġcont rast
in et
Ġpeak ed
Ġ4 7
ĠB ook
ĠSt an
it iz
Ġ6 5
Ġen emy
Ġy our
Ġbecom es
Ġtraff ic
Ġm ess
ĠComm ittee
p ing
Ġown ed
Ġth ings
Ġfound ed
Ġg reater
ĠL atin
ĠS ur
ĠAr m
Ġvoc al
Ġconclud ed
Ġo pt
Ġport ion
ver y
ĠS outhern
y m
Ġcast le
Ġsc oring
Ġresp ond
Ġst ories
Ġproper ty
ian ce
Ġattempt s
r ong
Ġenc oun
ĠS ince
k n
ĠO h
Ġrel atively
ĠG re
Ġprim arily
ĠJ er
Ġdem onst
ĠPr ince
Ġp le
ec ause
Ġf ederal
Ġfinanc ial
ĠL u
og rap
ress ive
ain e
ell ig
Ġact ually
ĠGeor g
Ġanim als
id er
ĠS at
Ġobs erved
Ġto urn
ĠBost on
Ġl if
Ġcol lection
Ġopp ortun
ĠS ol
al le
Ġtit led
an es
f ect
Ġfeat uring
ist ics
Ġwrit ers
Ġwrit e
Ġ4 6
ĠCh ief
Ġj ournal
ed s
Ġ194 4
ĠAdm iral
Ġw a
Ġstreng th
Ġw or
um ber
Ġin ch
ĠViet n
Ġm echan
Ġwe aken
Ġsit uation
Ġsp ot
ĠB ridge
Ġp aid
Ġdist ance
ĠSw ed
Ġprem i
Ġp arents
Ġindepend ent
ĠOx ford
Ġfig ure
m as
Ġsh are
ĠBatt alion
ste in
Ġm el
Ġact or
Ġact ing
Ġcompan ies
ĠC amb
Ġdiv ided
ĠS il
Ġm ind
Ġ6 4
ĠComm ission
Ġon to
ĠD en
ast ic
ad a
ĠO tt
ĠCl ass
l am
i h
ĠF in
Ġcoll abor
Ġ4 3
ĠManc hester
Ġtar get
ann a
Ġslight ly
ĠH or
Ġpiec e
Ġfun ction
ĠPar is
re l
Ġs elling
Ġre form
per ial
Ġ4 2
rick et
Ġpower ful
Ġtor ped
Ġconc ent
c hest
Ġinn ings
Ġr ating
Ġ4 4
th let
or ation
ĠW in
Ġplay s
Ġl ot
Ġro ugh
Ġto day
Ġbro ke
u ge
Ġch o
Ġer a
os aur
ann el
ĠSp ec
l a
Ġact ions
Ġwat ers
Ġult imately
it an
ist ry
ĠStep hen
Ġtri al
Ġs quare
ĠDe f
Ġmax imum
ĠCol umb
ĠJ eff
ĠB at
ĠJose ph
Ġdis e
Ġte nd
ĠL ife
ill a
ĠCap tain
ĠB BC
l oad
Ġpil ot
Ġb ound
Ġinter p
rup t
Ġbl ue
Ġcomplet ely
Ġs ought
ot i
Ġg ar
ĠAcad emy
Ġl og
Ġsc ale
ĠHar rison
Ġ192 0
ĠT w
Ġ194 5
ĠEnter tain
m ond
m ark
Ġsoc iety
und er
Ġbeh av
Ġ ess
Ġh us
Ġmain ly
ĠF red
ot a
Ġdesign ated
z a
om y
ĠCro at
Ġ194 1
Ġofficial s
Ġstru ck
Ġcon ver
ĠMus eum
Ġtrans l
c ers
on n
yl van
Ġactiv ity
Ġpolic y
ĠT im
Ġ15 0
Ġcomb ined
Ġs ay
Ġinflu enced
Ġw ear
ĠL ine
ol ved
ĠSer ies
Ġse arch
Ġv ess
ent ed
Ġth ous
Ġcall ing
ĠL uc
rac ted
ian o
Ġalong side
A S
Ġnort heast
Ġsecond s
Ġb atter
w hile
Ġs out
ĠB rigade
T V
ors es
ĠA rab
al a
Ġwin ter
Ġsour ces
ĠAmeric ans
ĠP op
ĠW ay
Ġse g
ud d
Ġback ground
ph y
ĠO s
Ġwe bs
Ġ ice
ĠItal y
Ġnew s
Ġth ir
Ġthe ory
r ative
Ġrec ent
Ġsu c
ĠS aint
Ġc row
Ġm em
Ġg ained
ot e
Ġnomin ated
Ġplat form
H L
ad el
Ġproble m
Ġelect ric
ĠG ra
Ġart ists
er o
ĠEntertain ment
Ġn aval
Ġwid ely
quar ters
ĠI re
ĠTh ree
ĠReg iment
ĠF orm
Ġsystem s
Ġpromot ed
Ġconfir med
ub e
p son
Ġreach ing
ĠH al
Ġpro ved
ĠA venue
Ġresul ts
Ġ5 2
Ġpass ing
ĠL ittle
ibr ary
Ġalbum s
Ġexpl ained
Ġsubsequ ent
Ġgreat est
Ġconf lict
ĠFle et
Ġw ick
ĠIre land
al ing
Ġc orn
Ġcont ent
Ġinv asion
ĠCon f
Ġ ir
Ġs n
Ġcom ing
Ġchar ge
Ġhe ro
Ġres ist
Ġpe ace
Ġsix th
ĠAl b
ĠV an
i ro
Ġnorth west
Ġwe ather
Ġ18 2
ou red
ĠS k
Ġcount y
ag a
Ġad j
g rad
Ġshort ly
t own
Ġvers ions
Ġ194 3
Ġp ath
Ġser ve
ĠLe e
Ġcaus ing
Ġ198 9
Ġs ays
Ġsu st
ĠM od
y ond
Ġexp ressed
ic ed
Ġrece ption
ĠW ind
Ġse ek
Ġb urn
it ness
Ġ5 1
Ġres idents
b on
Ġb order
Ġsound track
ans ion
Ġche m
ĠG ood
Ġem ot
ĠCath olic
Ġc ities
ĠCar l
Ġse asons
ip s
Ġg reen
ĠVal ley
ateg ory
Ġappear ances
ĠM ax
Ġs ense
y on
Ġsex ual
Ġh ospital
A A
Ġrequ ire
inf all
Ġp un
Ġphys ical
Ġident ified
Ġold er
igh th
Ġhand s
ĠE ll
ĠH urricane
ard en
Ġ iron
ol t
ĠVictor ia
Ġt ells
Ġoff er
Ġtr ue
Ġd edic
ĠS ant
un ction
Ġk g
ys is
ĠL o
anc y
Ġart illery
Ġrepresent ed
Ġweap ons
Ġext ra
Ġa head
Ġg as
Ġl a
ad ed
ĠL iber
e ption
ĠR ay
Ġp al
ĠN orm
ron ic
ylvan ia
Ġe as
ĠN in
Ġheav ily
ĠL ight
ĠA ut
ĠSh ow
ĠMid dle
Ġsup p
ab eth
it able
Ġav oid
ĠB us
l ers
ĠComm un
Ġchall en
Ġdef ense
Ġstud ent
Ġag g
Ġal one
Ġim age
Ġsp read
Ġapp arent
Ġstud ies
Ġoffic ially
Ġhus band
kn own
ĠT op
Ġdist rict
Ġex ecutive
b ur
Ġb it
Ġinst it
ĠWe ek
ĠChar l
ĠD utch
ess ions
Ġdeb uted
Ġw ild
Ġfl oor
Ġprom inent
ĠPro du
Ġcapt ure
Ġp ack
Ġcons isted
Ġinstr ument
Ġse nd
Ġinj ury
ĠL ive
Ġf ired
Ġorgan ization
Ġequip ment
port s
Ġres c
Ġst one
p ool
Ġpat tern
Ġpre par
Ġarg ued
i as
Ġa ired
Ġfig ures
B y
Ġsur pris
Ġexp ed
urb an
ĠR am
Ġgrow th
Ġe th
ĠHist or
ac ity
ĠD un
Ġb ud
Ġp ict
Ġh un
Ġcou ple
ĠI ll
ĠM at
Ġdo ing
Ġreturn ing
Ġmag n
Ġg raph
Ġr ing
Ġcontem porary
us hed
Ġpo et
Ġc ert
l ines
ĠS a
Ġp an
ĠR y
Ġwe ight
r at
ro g
e es
Ġo x
ĠW ork
he w
Ġl aid
Ġdou b
Ġh abit
Ġear th
Ġlead ers
Ġst ep
ĠT ay
Ġmat ter
Ġaff ected
ĠT od
Ġpiec es
Ġt un
ap pen
ĠAl bert
Ġ6 00
ĠC ivil
Ġprop os
ĠK ar
Ġmain tained
in son
Ġr ang
W hen
ĠF re
Ġshe ll
Ġocc asion
if ying
Ġvis ited
Ġhe re
ent al
Ġmain tain
Ġcommun ic
ĠM en
Ġcom es
Ġspe ech
ĠY oung
Ġterm in
Ġcritic ized
em ic
ĠD i
Ġhy d
Ġactiv ities
ĠEl iz
st one
Ġra in
ĠJ ul
oc key
ĠNort hern
Ġex ec
Ġatt ract
ĠFoot ball
ĠCarol ina
ol a
ac ement
Ġh all
e ed
Ġc itiz
Ġtourn ament
ĠF ar
Ġre ign
ĠSt orm
Ġem ph
Ġto ward
ock ed
ĠD am
Ġsing les
ĠB ond
ul s
Ġd rug
Ġtre es
ĠD irect
Ġrefer ence
n ers
Ġcrow d
Ġsen ior
Ġform ation
el ve
Ġad apt
Ġsur re
Ġset ting
Ġmed ical
iv ity
Ġworld wide
ag n
ĠH omer
Ġterrit ory
am ber
y er
est ic
Ġ5 3
Ġt rying
Ġst ations
ru it
g ian
Ġd og
Ġb ul
ĠSever al
Ġneg oti
Ġbird s
ĠB re
Ġ198 7
u ct
Ġd oll
ĠSy stem
Ġmach ine
Ġf ellow
Ġmur der
emb ly
Ġclaim s
ĠG al
ĠS ub
Ġg od
ĠF antasy
Ġc ell
Ġdis pl
Ġhistor ian
om ers
Ġ8 5
ĠDist rict
Ġra infall
Ġris k
g u
Ġacc ident
ĠGovern ment
Ġf ully
ĠHol ly
Ġl oad
ul ed
Ġ198 8
Ġval ue
Ġthere fore
res h
Ġspl it
b it
ĠT ropical
Ġch osen
Ġtreat ment
Ġun iversity
ĠGu ard
Ġgu est
ĠOr ig
ay er
ĠO cean
ĠScott ish
ĠBack ground
ĠH a
velop ment
ra el
ran ce
Ġs ens
Ġtw ice
ell er
Ġfrequ ently
Ġsup ply
ĠStud ios
ĠR og
Ġreport s
il ly
ord in
stit ution
Ġle aves
Ġgovern or
Ġp aper
ĠH ard
Ġrem ark
Ġ ut
amp ion
ĠGovern or
Ġd yn
Ġlab el
al y
ĠT em
iz es
led ge
ĠPol ish
ĠH ome
Ġf aced
az z
ĠSen ate
Ġop in
m in
Ġwall s
Ġfollow s
ĠF ield
ĠG irl
Ġbill ion
ĠPenn s
ĠDu ke
Ġoper ated
Ġg rew
ĠAd d
uf act
Ġsurround ing
ĠR om
Ġplan et
re ct
Ġs we
Ġcont ained
on ents
or ter
res p
ge nd
ĠMar sh
Ġcond ition
ĠDe v
ĠDan iel
Ġdeg ree
Ġher self
Ġb al
Ġh orses
ĠE astern
Ġman ufact
et y
ĠBe at
isc o
Ġcol or
ĠR os
Ġaccom pan
Ġs le
Ġw ounded
Ġtyp ically
Ġesc ape
ĠCol on
ĠJ ud
ant ly
Ġpass es
m it
Ġm aster
Ġun f
Ġsim ply
ĠChrist mas
Ġbro wn
Ã ¨
Ġf uel
is ters
Ġre inf
ĠB ecause
ut ation
Ġ5 4
Ġrail way
Ġele ment
Ġd raft
ĠL ike
Ġd ang
ĠN ight
Ġed itor
Ġl ives
Ġord ers
am ing
ĠL ew
Ġarm s
Ġph il
ful ly
ĠAll ied
ĠR od
m ore
Ġserv ing
Ġnot hing
ograp her
Ġc amer
r ich
u ous
Ġauthor ity
Ġch ose
ĠP en
Ġopp osed
Ġwork ers
Ġvot e
Ġmom ent
Ġcons ecutive
Ġcann ot
ric ult
ĠJ on
Ġnew ly
Ġn ative
Ġf an
Ġexper iment
Ġun known
uck y
is f
Ġ9 5
Ġparticip ated
Ġgrow ing
Ġwebs ite
Ġ5 6
Ġ198 6
Ġ9 7
Ġcas ual
Ġemph as
Ġatt rib
anc ing
Ġp sych
el d
ag er
ĠC orn
ã Ĥ
F A
Ġprodu cers
Ġb ass
Ġf air
ĠOper ation
Ġbene f
Ġl osing
Ã ¤
Ġadop ted
ĠB art
Ġadv anced
il ies
Ġfilm ing
im ens
and a
Ġhe ard
ĠF estival
Ġsp irit
Ġfe ed
Ġsever e
pt on
Ġoff ensive
ĠCast le
Ġopp osition
Ġf iction
yp e
Ġex tend
Ġgu ard
Ġcap acity
Ġ rom
ors hip
Ġbas is
Ġcoun cil
Ġsequ ence
Ġact ors
ĠIs lands
ĠP ers
av en
T C
z y
us es
Ġend s
Ġnewsp aper
Ġ Î
Ġa st
Ġwe ak
Ġs quadron
Ġpr in
Ġadv ant
ĠWil son
Ġre ar
ur a
Ġabandon ed
um an
Ġcomp ar
Ġ17 7
ĠS ound
ĠTay lor
Ġr ival
is ers
le ment
ab les
i ated
Ġprom pt
Ġk ick
t ar
ĠPenns ylvania
Ġhon or
ĠEliz abeth
B A
Ġf lying
ĠJ ac
Ġele v
Ġent er
Ġco al
ĠB or
oc ated
Ġcreat ing
ĠIr ish
ĠEx p
Ġlaun ch
Ġfilm ed
Ġpol l
ĠAnd rew
Ġregard ed
Ġh appen
ĠRec eption
Ġexp ansion
Ġnorm al
ĠJo e
Ġcritic ism
Ġindivid uals
ĠJ ersey
ĠAlex ander
Ġhom es
Ġbe yond
Ġagre ement
ĠG all
oun ger
Ġinc ident
ĠL and
ĠT ech
ĠC ard
Ġsp ect
Ġ17 8
Ġdel ay
Ġsp ring
Ġfail ure
in er
ap ers
Ġl iber
Ġev ac
Ġde ploy
Ġ7 6
Ġey e
Ġch air
Ġsp orts
Ġdism iss
Ġfam ous
Ġin te
ĠBl ue
Ġs ail
Ġv o
Ġmeas ure
ĠSp ain
Al though
ĠB ab
ĠC a
im et
Ġposs ibly
ĠM ike
Ġbo at
ĠCo ast
Ġhistor ical
Ġneg ative
Ġ193 9
ĠC at
im a
ĠD et
Ġb odies
ian a
ĠS S
Ġachie ved
Ġm ob
Ġcont act
ĠS quare
Ġprog ress
ic o
Ġstri ke
ific ations
Ġsil ver
Ġbelie ve
ĠM D
Ġro les
ĠA re
Ġnar row
Ġ ur
ĠW at
Ġkill ing
Ġret ired
Ġide as
ĠHe ad
i enced
Ġdr ive
on ent
Ġdise ase
m osp
ĠIn stitute
Ġp et
o ch
ĠIn st
Ġtorped o
w ar
ĠBro ad
k ins
Ġim ag
Ġbrief ly
er c
im al
Ġd iam
and y
Ġt ask
in y
Ġeffect ive
ĠW W
Ġt ree
Ġarran g
Ġar med
Ġapp lic
ock s
ed om
Ġto wer
Ġbud get
Ġper man
Ġrece ive
Ġ196 8
Ġrepe ated
Ġadminist ration
Ġgrant ed
Ġnecess ary
Ġ6 6
Ġ6 1
Ġperson nel
ĠRev olution
Ġroad s
ĠB ul
Ġreject ed
en ger
ol es
Ġt able
ĠV en
Ġtw elve
ĠIs rael
Ġkilomet res
Ġin h
k es
Ġgro ss
Ġimpro ved
ĠS und
Ġlead ership
Ġ198 5
Ġcol umn
ĠC D
ĠRepublic an
w orth
Ġinter change
Ġy ellow
aval ry
Ġext ensive
av ed
Ġd ata
im ents
ĠF am
ĠL ind
ĠE nd
Ġstra ight
om a
Ġland s
Ġturn s
Ġpl ants
Ġinf antry
Ġpurp ose
z il
Ġpar alle
ĠF e
Ġmanag ement
c Ã©
Ġexp ress
ĠHar ry
ĠDo ctor
ol n
Ġapp l
Ġdef in
i Äĩ
Ġse at
ĠW ild
Ġland ing
Ġdescrib es
Ġexp anded
ĠH y
ĠC ub
Ġsol o
ĠBo ard
Ġf ranch
Ġsuccessful ly
Ġch oice
l usion
Ġm ile
Ġbro ken
adel ph
r in
ĠM ul
Ġle arn
s et
Ġt ru
Ġcross ing
Ġdid n
ĠWh at
Ġint ellig
ĠAl bum
Ġanim al
u ate
Ġdel iver
Ġexpl os
Ġf ought
Ġch or
g ers
Ġex cl
Ġorgan ized
Ġc aught
F ollowing
Ġ8 00
Ġveh icles
ĠSecret ary
Ġcommission ed
ĠU l
Ġsugg ests
A r
Ġro of
h aps
ĠP ublic
ĠTh ough
Ġgl ob
Ġacqu ired
st ream
ĠPhil adelph
et ball
ĠR et
Ġpl aces
ell a
Ġcomm ittee
ri f
Ġanc ient
Ġdram a
ĠR A
Ġcre ation
Ġ198 4
ĠOh io
Ġtyp es
ĠE lect
Ġf at
att le
app y
ĠC y
ĠCl ark
u an
ĠI S
Ġg ives
ĠAr thur
Ġart icle
Ġcom edy
Ġsevent h
Ġpre fer
Ġnuc lear
ak ers
Ġso ft
Ġun su
Ġ5 7
Ġw ave
i i
Ġ12 0
ĠM ir
art s
a ith
et ts
ĠBe fore
ĠAs h
um es
z er
ĠPhiladelph ia
ĠU s
Ġauthor ities
Ġcont ain
ot ed
Ġhead quarters
ĠW rit
Ġcent uries
Ġcommon ly
Ġdeterm ined
Ġis lands
Ġgen us
g n
ĠL iver
Ġro ll
Ġmention ed
Ġb ott
Ġrec ently
Ġst reet
Ġtra v
Ġbe aut
ĠL es
Ġenc oura
Ġlook ing
Ġcontro lled
Ġ196 7
Ġfav our
am in
ip l
rest ling
e v
ĠW ars
ĠPro t
Ġset s
Ġfam ilies
ĠGeorg ia
Ġhouse hold
Ġsec urity
Ġa im
Ġfind s
Ġad vert
Ġd rop
Ġdec re
Ġsup por
Ġac ad
The re
Ġstand ing
is hes
ĠM ov
Ġill ust
tend o
ĠF urther
Ġun p
ut ing
out s
ĠRuss ia
Ġwithd raw
Ġsing ing
ĠH it
Ġf ish
Ġd ial
Ġbatt alion
ĠB ru
Ġv en
Ġref lect
ĠS her
Ġun ique
Ġs ac
it led
ĠB urn
Ġdec k
Ġhe ight
Ġcult ural
Ġcont aining
Ġentire ly
w ater
Ġor chest
Ġprot ect
ĠCamb ridge
o h
ill ing
ĠO f
Ġfin ish
ĠT y
inc oln
Ġtouch down
Ġm ist
Ġcontrib uted
ĠE ach
Ġthem es
Ġt ry
Ġy ounger
Ġprov ides
Ġdef ence
ĠAs ia
ĠM ah
Ġflood ing
ĠPr ime
ĠE p
ap ore
pp ing
ro om
Ġat mosp
ĠKore an
ĠNin tendo
ĠColumb ia
ĠAr g
Ġa wards
Ġtit les
St ation
ul ate
Ġpurch ased
Ġm is
Ġ7 4
v a
Ġpow ers
Ġ5 8
Ġarr ival
Ġcon vers
Ġsched uled
Ġdef ensive
ic ial
resp ond
w all
Ġres emb
Ġth ing
ĠProdu ction
Ġaccompan ied
Ġ198 3
Ġcerem ony
in ity
ĠJew ish
Ġun us
Ġqu ite
Ġper fect
Ġexped ition
Ġw orth
ĠEar l
ĠFranc isco
at ures
r ons
Ġloc ations
Ġexist ing
hen s
Ġinter act
Ġadvant age
Ġperform ing
w ick
ĠComm on
l aim
Ġphil os
ĠL ar
Ġdedic ated
Ġcomp uter
Ġ196 9
ĠB ad
h ol
Ġb at
ac ted
W hile
Ġ196 4
ĠP erson
ĠL incoln
ĠOff ice
ĠBra zil
d y
Ġext rem
Ġrequ est
ĠN ever
Ġintens ity
e g
Ġst ore
Ġoccup ied
ag an
Ġwh y
us c
Ġs quad
Ġ191 4
Ġf resh
ĠSing apore
Ġcar ry
Ġm ounted
ĠG il
il ing
ash ion
Ġn ob
Ġ191 8
ĠLiver pool
ĠR el
y les
ĠCh ild
il ton
Ġf ix
ĠS R
Ġt ail
Ġm outh
ĠPlay Station
Ġc ricket
Ġm ic
Ġclos ely
k er
r ations
Ġf irm
Ġcons ists
Ġcurrent ly
Ġl ic
Ġs ession
ĠD ark
z ant
f ort
Ġ197 1
Ġt im
av a
Ġe gg
ĠH ay
Ġsim ple
Ġindust rial
n s
Ġâ Ī
ĠDis ney
ĠJ enn
Ġel imin
Ġp iano
Ġ198 2
Ġfac ilities
Ġvar i
Ġc old
Ġ196 6
m outh
pp er
Ġsupport ing
Ġdra wn
ĠB alt
ĠH un
ĠR ol
Ġt y
Ġ5 9
Ġ197 2
w are
Ġtra ins
Ġbel ong
ĠJ ean
Ġro w
Ġbo ats
Ġprot ection
Ġr ated
Ġro t
b a
Ġr ise
ĠT am
Ġdef ined
Ġse lection
ĠL is
Ġ197 9
Ġste am
Ġh arm
ĠCare y
ĠD ie
ot ic
ver se
aw a
Ġreg ions
Ġsub mar
ĠG i
Ġprot ected
Ġcall s
ĠCon ference
Ġpro s
ĠSh ort
ĠOlymp ic
Ġh air
ĠBy zant
ĠRail way
r ant
ĠH on
Ġcom ic
Ġmot ion
g est
Ġstruct ures
Ġth row
Ġl ap
Ġa id
Ġsh ark
Ġl abor
W ith
u a
ĠBro ok
Ġfoc used
ing ly
Ġopportun ity
Ġrece iving
ir ation
Ġeng aged
ĠM ot
Ġcor respond
Ġshoot ing
Ġanal ysis
Ġ #
ĠN HL
Ġsp ort
Ġcitiz ens
C h
ĠP ot
os a
our ney
Ġmot or
ĠPe ople
Ġ9 9
Ġ196 5
Ġstreng t
Ġobs erv
ĠV ol
Ġnot able
Ã ¸
Ġad ap
Ġ197 5
ir a
se y
ing er
ĠJ r
uz z
Ġexper ienced
ĠAnd erson
ĠT urn
ul ts
ol id
ĠGerman s
ĠP u
ĠB as
ĠG ulf
Ġcon ference
Ġhold ing
Ġprov iding
ĠTh rough
ĠLew is
ĠEm peror
ĠDe velopment
Ġvis ual
Ġmount ain
ĠOr der
Ġey es
Ġres ident
Ġsout heast
in th
Ġh ired
Ġchart s
Ġm ut
un ior
Ġview ed
ĠRad io
ĠHolly wood
el ly
Ġmer ch
Ġb ranch
he im
if ically
F L
ĠCon n
Ġrapid ly
bur gh
Ġ197 4
Ġrecogn ized
Ġro b
il er
Ġvol ume
ĠP ress
Ġv ac
op her
Ġtrans form
Ġal le
Ġ6 2
ĠSer b
ĠSh ak
Ġpro te
ĠCh ap
ĠMill er
Ġschol ars
Ġsit es
3 0
Ġg ain
ĠSum mer
ess ed
Ġcasual ties
Ġte ach
Ġsh ared
Ġh yp
Ġ197 3
Ġconc er
ĠDemocr atic
Ġmod er
Ġparalle l
Ġpublic ation
Ġ7 7
Ġc art
ĠGr ant
Ġtemper ature
Ġdig ital
ro ll
ĠM u
Ġeconom y
Ġdevelop ing
ĠL ab
ĠK a
Ġste el
Ġreact ion
ĠH an
Ġed ge
b ox
f riend
st anding
Ġc ool
Ġinters ection
Ġsymb ol
ĠBar b
ĠB ank
Ġ197 6
z en
ĠE ven
Ġappro ved
Ġch ance
ĠL ieutenant
Ġsecond ary
Ġhyd ro
ĠA v
ĠSte ve
ĠS ix
ad ing
Ġv on
om ew
ĠF all
Ġloss es
al i
Ġmy th
Ġcont est
Ġr ac
ren ce
Ġprep ared
Ġsub stant
it ors
Ġbelie f
ĠR ome
Ġen l
if ul
Ġlet ters
olog ist
ĠCon st
ograph ic
Ġsignificant ly
Ġw itness
ĠS u
Ġband s
Ġs ort
ĠAl so
ĠDav is
Ã¡ n
Ġc ard
Ġs ave
ond er
or a
ĠB rian
ĠH MS
Ġdom estic
ĠW ater
ĠMus l
ĠU N
ĠD aily
Ġ25 0
Ġfranch ise
Ġkn ew
ĠAdd ition
ry st
Ġgo es
Ġliter ature
er al
Ġunsu ccess
Ġinst ruct
Ġhead s
ach us
Ġsouth west
Ġact ress
Ġtechn ology
ĠG ib
Ġsem i
ĠSpec ial
Ġad vent
b reak
Ġdes cend
Ġrough ly
ĠD own
Ġ6 7
ran ge
Ġ urban
ĠG er
ĠPro v
Ġc ab
ĠN az
ast y
ĠSy d
ĠAt t
ĠBe yon
en c
ĠWal ter
un te
ak a
thel ess
Ġpain ting
Ġad ult
at i
Ġc ars
Ġany thing
Ġp itch
Ġproject s
ĠM as
Ġl b
ĠL y
Ġass ault
Ġex act
Ġbrother s
o z
Ġresist ance
Ġgame play
Ġb or
Ġc ore
ĠPr inc
Ġneigh bor
Ġs and
Ġsh ape
Ġstory line
Ġre asons
Ġrul es
im inal
Ġ ign
Ġemploy ed
Ġt ank
rop ri
ĠS and
ĠSup reme
ĠK en
Ġd aily
ĠP oint
Ġinj ured
om ic
Ġwat ched
Ġsh all
ĠMe an
Ġag ent
i ents
am m
ĠN ap
ony m
Ġ194 6
Ġpopular ity
ĠI V
ĠLad y
Ġcomp osition
ĠIn c
ĠB ell
ĠT en
ĠG ord
ĠKent ucky
Ġper haps
Ġf it
Ġis ol
Ġadd ing
Ġenjoy ed
Ġren amed
Ġopin ion
Ġget ting
Ġdecl ined
ĠComm and
Ġcal c
ag ement
Ġcomp ris
Ġrep utation
Ġ9 6
Ġ6 8
Ġn or
os l
ink ing
Ġ198 1
at re
Ġsh aped
Ġest ate
Ġconn ected
Ġl ov
Ġunder t
Ġre nd
Ġ7 2
Ġret ire
Ġd rew
ĠF air
Ġmus eum
o ir
ĠInd ust
Ġpo em
Ġregard ing
ĠOlymp ics
Ġview s
Ġst ages
ul pt
Ġconver ted
b ound
Ġd ry
Ġ191 7
ce ived
ĠBeyon cÃ©
if orm
ig g
ĠSt ation
Ġag ricult
ĠâĪ Ĵ
ret t
Ġallow s
Ġs un
Ġdist ingu
Ġn ick
Ġaltern ative
ĠColon el
achus etts
ĠO b
v est
ul es
ĠNor way
ĠUp on
at o
ad s
A ccording
re ts
Ġb ed
Ġhead ed
ath an
Ġdep th
Ġ8 7
Ġmiss ing
Ġc ited
ĠInd epend
Ġincreasing ly
k o
ĠMass achusetts
os is
ĠSp ring
Ġst adium
Ġappro ached
e per
Ġturn ing
g al
ĠAir port
ĠM os
Ġrespond ed
Ġplan ning
ĠB ase
Ġex erc
Ġknow ledge
Ġeas ily
Ġ16 0
ĠPhil ipp
h at
Ġwe alth
Ġover l
ĠK ir
Ġc ells
ild ing
Ġf ashion
ĠM ain
Ġesc ort
Ġequ al
ĠB ern
ĠD ream
ĠPl an
Ġcol lected
Ġ194 8
Ġsuc ceeded
Ġ7 00
ps ons
Ġconstit ution
m od
em an
l an
ĠW omen
ĠAb b
Ġsaf ety
Ġfl u
Ġreb u
Ġexist ence
ĠP rem
un icip
Ġtri p
Ġp ul
w ise
ign ment
Ġintrodu ction
Ġocc as
Ġaut h
ĠSim psons
Ġmod els
Ġlear ned
Ġcol le
Ġsust ained
ĠOn ly
ĠR oss
Ġt all
Ġpromot ion
Ġoper ating
m itted
ur ation
ĠB all
Ġ6 9
Ġbase ball
Ġcar rying
Ġex change
Ġlim it
Ġy outh
Ġshow ing
ĠW alk
on ia
ig er
Ġbur ied
eng ers
c ome
Ġ197 8
Ġhum ans
ĠS us
Ġcred ited
Ġdep end
le ton
Ġ6 3
Ġarran ged
Ġ9 1
Ġimpro ve
Ġse ems
Ġim pl
ĠGold en
ĠH art
Ġweaken ed
ĠIm perial
ol i
ĠS el
Ġ7 8
Ġdesign s
Ġ7 3
in ary
Ġjoin t
Ġpain t
st ate
ĠR on
ĠOtt oman
Ġa thlet
ist an
Ġr hy
Ġ191 5
Ġpro ceed
Ġprodu cing
p ut
el er
ac ts
Ġv an
Ġfre eway
ĠWh it
Ġearl iest
ĠVietn am
Ġfl at
Ġlast ed
ĠSong s
Ġland fall
Ġsettle ment
Ġnot e
Ġdesc ription
Ġret ained
ĠAm ong
Ġac res
ĠC ape
Ġb rand
Ġt on
ĠI mp
Ġlaw s
ival ent
Ġappoin t
ĠV i
Ġgen re
Ġ9 4
ĠSyd ney
ĠPol and
ĠP ict
Ġprogram s
Ġcons c
p et
our ces
Ġassist ant
Ä ģ
Ġplay off
Ġ197 7
ĠB al
iv ered
Ġrepl ace
Ġinst all
ĠN aval
Ġres erve
iss ance
Ġstat ement
b ell
Ġv irt
Ġappl ied
Ġc atch
Ġtr ust
Ġviol ence
Ġne ut
ĠA D
ins ula
Ġscient ific
Ġent rance
Ġcoast al
e or
ot hes
ĠN ick
Ġt ick
F or
ie ge
Ġh its
h i
re ets
ad er
Ġcon sequ
t ical
re ll
av ig
ĠAr ts
Ġexcl us
Ġ8 1
Ġsyn t
Ġsc ulpt
Ġbatter y
m ath
Ġ196 3
Ġit ems
ĠWh o
Ġcandid ate
Ġtown s
Ġindic ated
le e
Ġ9 8
d d
o ard
ĠL et
Ġun s
t ime
Ġgrad ually
Ġdistrib ution
Ġpolit ics
ĠM TV
Ġdel ivered
Ġ191 6
Ġstop ped
Ġf illed
ĠJ es
Ġindepend ence
Ġb an
Ġt act
iz ations
ĠBow l
e ke
Ġs ections
ĠSt ew
Ġdet ails
ĠMc G
el ess
ĠD ue
ĠR oy
re c
Ġc inem
Ġse lect
Å ¡
Ġcomb ination
m un
u ro
H e
Ġem p
el a
Ġsuppl ies
ĠC ur
ĠConf eder
Ġway s
Ġgl ass
ĠMary land
Ġpart ies
Ġ7 1
Å Ĥ
end er
A T
Ġst ream
Ġeng ines
G N
us hing
Ġprison ers
Ġcamer a
Ġappe al
ĠJ ay
ĠSt adium
ĠC ra
Ġreg ister
Ġcamp us
Ġbas k
em ies
Ġ191 9
Ġact s
Ġm ig
Ġextrem ely
Ġent itled
Ġ196 2
Ġsec ure
Ġ8 9
ĠOn ce
Ġfind ing
Ġon line
Ġdec ade
ĠMo ore
ĠR id
ĠE du
ino is
Ġt al
por ation
iqu es
ĠF ire
e z
ac ter
Ġwin ner
ivers ary
ĠMean while
rop ol
Ġar c
Ġeven ing
ĠA ri
Ġreg iment
ĠP ass
ĠR em
Ġinvestig ation
ĠThe atre
ĠRe view
Ġb ought
Ġ8 8
Ġthreat ened
Ġmess age
Ġadap ted
ill er
Ġs omew
Ġsurv ived
Ġkn ots
Ġcons um
Ġ193 8
Ġ8 2
Ġstud ied
ĠRh odes
ad or
ĠA C
Ġpropos al
Ġwrit es
ĠB and
Ġdeath s
j a
Ġadd ress
ar p
Ġro utes
i at
Ġw ars
as hed
Ġdown load
Ġrul ed
m et
Ġf ear
B S
Ġrel ief
Ġrelig ion
Ġm ales
Ġredu ce
Ġvot ed
igh ters
ie val
ĠMul der
Ġrev olution
b ro
Ġspec ifically
Ġsp ons
Ġc rown
ĠSt aff
Ġph ase
man n
Ġdut y
Ġf ict
an o
ph oon
Ġking dom
ĠR un
Ġrec alled
bour ne
Ġe c
ct ions
Ġportray ed
ĠJ an
Ġs oul
c a
ĠUn ivers
Ġimp lement
ĠG reg
Ġcontrovers y
Ġemer g
ĠGord on
a ug
ĠB on
B N
Ġcaus es
ic ian
ap es
erv ative
Ġb le
Ġe t
Ġevery thing
Ġbreed ing
ĠV ar
cher s
Ġs ell
ad ow
Ġrefer ences
Ġst ret
Ġ13 0
Ġag o
Ġbott om
ĠL oc
Ġcap able
ĠV ill
Ġconv in
Ġte acher
Ġimport ance
ĠM emorial
Ġ195 6
Ġent ry
Ġmet ers
ĠA ge
Ġoff ers
Ġ17 5
Ġt anks
sen al
Ġsuff icient
ent ially
Ġown er
Ġintern al
Ġoper a
Ġarrest ed
rid ges
Ġadm itted
ĠW ell
Ġnomin ation
oy s
b ar
Ġcop y
ĠK ong
Ġcross ed
Ġcl imb
Ġproduct s
Ġ7 9
Ġ193 6
I t
w ich
Ġcorn er
ĠSing les
Ġequip ped
h r
Ġinst alled
ĠC irc
ĠCon stant
Ġpre ced
Ġconcern s
ak i
Ġm ort
Ġover se
Ġaut om
Ġinv ited
ĠB ir
ĠB a
Ġon es
Ġcon qu
Ġinter ested
ĠPro f
Ġstart s
Ġcr ime
Ġprincip al
Ġf ly
ĠK im
Ġshe l
ran ean
ĠBe ach
Ġt ell
Ġal t
ruct ure
Ġrecomm ended
Ġun l
Ġac id
Ġremain der
Ġmed al
t a
Ġsh ut
ans as
Ġact ual
Ġs now
ĠPl ot
Ġret reat
Ġj ourney
ĠU TC
Ġst ock
Ġv ent
Ġup grad
esp read
Ġchar ged
ĠAb out
Ġsol id
Ġap art
ord an
Ġpr ice
Ġfund s
Ġobject s
ĠInst ead
ĠJust ice
Ġdo or
osaur us
il ation
ĠAn th
Ġcompos er
ĠY our
Ġfem ales
Ġg all
ak ed
Ġconsist ing
ĠR a
Ġpromot e
ĠV II
Ġmil it
v is
Ġp age
ĠG ram
ĠM oon
Ġ8 4
ĠC op
Ġ196 1
Ġconsider able
Ġd ates
Ġpo ly
ĠCol l
h us
ĠN ic
Ġtyp ical
ĠFore st
Ġground s
Ġ195 3
Ġcor rect
i y
er ted
Ġdut ies
ĠO k
Ġext ension
Ġb low
ĠH ere
ck s
re te
ĠJ ane
Ġev olution
Ġsome one
B I
Ġcon g
Ġr ural
Ġpen al
ad d
ĠI d
ĠN ether
ĠN BA
ĠB os
Ġe ighth
v ements
Ġsp in
Ġso le
Ġhot el
ĠDou gl
k ing
ĠU r
os ite
Ġdec ades
ĠV ideo
Ġim ages
m b
ĠA st
ĠF ound
Ġdr iving
Ġread ing
Ġident ity
ĠP o
Ġz one
el son
ĠMc K
ĠAd ams
Ġocc urs
het ic
Ġman ner
Ġsub s
Ġsk in
Ġchallen ge
ĠInd ones
ĠDe ath
Ġl ane
Ġrem ix
ĠAl f
Ġasp ects
Ġto w
Ġperman ent
Ġa er
Ġb rigade
Ġf rag
1 9
ĠSund ay
Ġvol can
ĠT ony
Ġd ated
Ġh am
ĠNor we
Ġ194 7
ĠMar ia
ĠEng ine
Ġv ir
ĠTrans port
Ġnot ing
Ġrest aur
a fter
Ġcol our
ub b
ion e
Ġsuppor ters
ĠHam ilton
Ġslow ly
ĠDirect or
Ġcle an
n ic
Ġpost ed
ens us
iv als
ĠP it
ile y
Ġ195 8
ĠPro ject
vel and
ck now
Ġdescrib ing
Ġ8 6
Ġinvol ving
ĠIndian a
Ġspe ak
Ġvess els
Ġent ering
ĠC art
ĠPro g
ĠPort ug
Ġen emies
Ġ191 0
Ġ11 0
Ġd ress
ĠKenn edy
aw are
Ġequ ivalent
ĠSim on
Ġclass es
Ġb ra
ĠP ower
ĠAss embly
o oth
Ġ195 7
Ġdeb ate
Ġsett led
Ġd in
Ġdep artment
Ġob tained
Ġ193 7
reg on
ĠI GN
ĠH ou
ĠF A
Ġacc ur
Ġarm or
ĠMil itary
ĠAl an
Ġpar liament
ert o
Ġte le
Ġsong writ
Ġbas ic
ĠTur k
ris is
ĠMag azine
Ġpurch ase
ag ues
ĠAd am
Ġp up
Ġpat rol
Ġf olk
Ġn est
Ġold est
Ġf aith
Ġdepart ure
f l
Ġwid espread
Ġconcern ed
Ġdec line
Ġform al
ĠSc ully
Ġconn ection
c ation
oph y
Ġinc ome
Ġatt ached
he red
r im
Ġrecogn ition
Ġinte g
Ġm emorial
ĠCon stitution
ĠR ose
Ġcert ified
he astern
Ġo uter
ĠC ult
Ġde leg
ib b
Ġacc used
Ġsequ el
ĠMount ain
Ġder ived
Ġdec or
r ates
w an
ĠSc ience
Ġm ode
ĠHow ard
ĠWeek ly
Ġh a
ĠHit ler
are t
Ġwear ing
Ġh ip
Ġdist urb
ic it
ĠK at
Ġass umed
w estern
Ġw ed
R A
ĠG un
Ġsw im
Ġa cknow
Ġt orn
Ġacc laim
ĠIll inois
ĠâĢ Ŀ
Ġsur vey
or gan
Ġcomm itted
ĠArg ent
Ġf oss
ĠP ear
i ot
Ġhost ed
a ver
Ġreturn s
Ġval ley
Ġseg ment
Ġs essions
Ġpop ulations
agon ist
Ġden ied
eke nd
Ġf ine
ĠB rist
Ġ195 9
Ġtem ple
ĠT ar
ĠI ra
Ġh ang
iter ranean
e ing
Ġch ampion
ĠB ry
ĠIn t
Ġchar ges
Ġliter ary
iv a
ĠLe on
ĠMar c
Ġcan c
Ġreg ional
Ġthous ands
Ġtermin us
Ġtrans ition
ĠE ric
Ġcirc um
Ġsupp osed
ĠBeat les
ĠSp ace
Ġwar m
ĠMed iterranean
ĠO regon
Ġwick ets
Ġdem and
ĠD rag
ĠRol ling
ĠWW E
Ġan s
ĠA k
ĠG ill
ĠSt and
Ġ195 4
Ġ195 5
Ġsh ots
hed ral
ĠIS BN
ud den
Ġstrong ly
ĠNorwe gian
bor ne
ac hel
he me
Ġcirc ulation
I A
Ġintellig ence
ĠRes earch
Ġs ailed
Ġposs ibility
ĠH ug
Ġpass engers
Ġgener ation
em ed
ĠRy an
Ġh ope
Ġfict ional
Ġanim ated
ĠK ey
ĠCle veland
ĠDougl as
ĠS av
Ġcomm it
ĠP ier
Ġfre edom
Ġthir ty
Ġdown town
ĠTr ack
ĠStan ley
ĠJ ordan
it o
ĠL enn
Ġh ill
am i
ĠMed ia
Ġr ich
Ġmin ister
om p
Ġbehav ior
Ġcl oud
ra ge
ĠTh ird
ĠCh annel
Ġassist ance
Ġrepl acement
Ġbeg un
Ġf ruit
Ġcommand ed
ĠT reat
ĠÃ Ĺ
Ġdest ruction
atin um
l ig
Ġmov es
d on
m es
C A
or al
ch ar
Ġcr iminal
Ġmiss ions
Ġcost s
Ġmiss ed
ĠIn it
Ġexcept ion
ĠFred er
or ced
Ġcr ash
up t
Ġhigh light
Ġbring ing
ĠA z
ĠF eder
Ġt ied
ism s
ĠG en
Ġint ention
Ġfeel ing
ont o
Ġspe aking
ĠKore a
ĠCrit ical
Ġunus ual
els h
Ġinter cept
Ġfin ishing
Ġalle ged
h ar
ĠMexic an
Ġdem ol
Ġproper ties
Ġincorpor ated
le ts
ĠF ederal
Ġopp osite
ĠAnd y
Ġstay ed
Ġfl o
Ġattrib uted
Ġsh op
Ġvol unte
Ġrecover ed
ĠF ame
Ġs ons
Ġbre aking
Ġemer ged
Ġserv es
ĠPhil ip
Ġatmosp here
ĠT enn
ĠH o
ĠBrist ol
Ġd ipl
Ġ195 2
Ġchor us
Ġtheat re
r ating
Ġdr iven
ĠBet ween
Ġoccasion ally
ĠP ur
oth ing
ole c
ens es
Ġstr ateg
um in
ri ers
Ġclass ic
Ġsp ok
Ġread y
Ġregular ly
ĠL ow
og en
az a
Ġeffect ively
Ġc avalry
oy d
ĠE s
ĠCol or
Ġestablish ment
a ire
Ġpre y
Ġcour ts
Ġmethod s
ĠFam ily
Ġsound s
th m
Ġv ary
ĠâĢ ľ
osl av
Ġd ivers
S p
Ġsup erv
ec e
Ġd ream
Ġcomplet ion
Ġstrengt hen
Ġsh ore
Ġ9 2
Ġ9 3
Ġ193 3
Ġmaterial s
ĠB ol
ĠBru ce
ut y
Ġ17 6
ĠHaw ai
ĠR ain
ĠRe le
Ġrespons ibility
Ġdiss ip
w en
ĠB ush
ĠD isc
Ġmic ro
Ġwar ning
Ġaccom mod
ĠD er
ĠPh ill
Ġhe at
Ġatt racted
Ġfield s
Ġsurv iving
ĠC E
Ġprov ince
b an
ĠB ah
Ġent ertain
Ġpers u
B e
ic i
Ġglob al
ĠS ab
ran e
ick s
Ġqu ant
Ġclass ified
Ġk id
so le
Ġdiffer ences
Ġdiv isions
Ġtechn ical
Ġinterp ret
v ens
Ġb rain
ĠMor gan
ĠKe vin
r um
Ġcru iser
em eter
ip e
re ck
ab led
Ġpass age
Ġab oard
Ġn one
Ġ193 5
Ġs am
we ight
Ġclub s
Ġst ood
Ġassoci ation
Ġrat ings
ĠNorm an
ĠW eb
Ġne ither
Ġele ven
ĠS ky
n ight
ĠC ab
Ġmusic ians
ĠUS A
n ce
Ġroom s
ĠLis a
ĠL anc
ag le
id den
Ġmed ic
ĠSwed en
Ġreinf orce
ĠC as
om ot
ĠN ow
Ġdes ire
ĠN ar
Ġh al
Ġ194 9
Ġsepar ated
Ã³ n
Ġcl imate
ĠRog er
Ġs qu
Ġ195 1
Ġsh if
Ġout break
Ġclass ification
Ġanc est
Ġveh icle
Ġreal ity
Ġpred ecess
Ġseem ed
n ings
ĠN ations
Ġchem ical
ĠTod ay
Ġvot es
Ġpict ure
te enth
ĠM aster
ĠF inn
Ġbattles hips
Ġro se
ĠR ow
ĠB udd
Ġmem ory
ĠAr senal
ĠMor ris
Ġhop ed
j i
Ġm ent
ĠR aj
ĠF ive
Ġrequ ested
ĠByzant ine
Ġmov ements
in ton
ĠTe levision
og y
Ġra ise
Ġ ille
ĠE ver
Ġhistor ians
ars h
b urn
Ġm ap
ĠW elsh
ind er
Ġdifficult y
Ġm o
ĠSc ient
Ġbask etball
ĠTem ple
ig e
ew here
ĠNether lands
ĠH ell
Ġv ide
Ġexp ect
ab il
Ġcommun ities
ĠPrem ier
Ġrest ored
ĠRob inson
Ġra id
Ġc a
Ġte en
ĠCon c
Ġrem ember
Ġprogram me
ĠW he
ĠTor onto
Ġpremi ere
Ġp ure
Ġdelay ed
S h
Ġf al
Ġrel ative
Ġinsp iration
Ġdiscover y
Ġg al
Ġf er
Ġother wise
Ġgreat ly
ĠJew s
ĠF ord
Ġann iversary
Ġinj uries
ĠAn ton
ĠCh ron
ĠN elson
ĠN ich
Ġacc ounts
Ġsat isf
ĠS ax
ĠD og
Ġfund ing
Ġsurround ed
Ġfl ank
ĠFranc is
Ġdep ict
Ġpra ise
Ġpenal ty
Ġsp oke
h ire
il ers
Ġbatt ing
Ġneed s
ĠBel g
i ate
Ġd ens
Ġpart ner
Ġstr ate
Ġd ie
ĠK r
Ġc rop
Ġmass ive
Ġweap on
Ġ19 00
an th
Ġphot ograph
Ġrec ru
Ġclaim ing
Ġsu it
ĠIra q
ĠB ang
ĠD E
ĠJ ournal
Ġass emb
Ġast ron
Ġl at
Ġtri es
Ġform ing
Ġstrate gy
Ġw rong
ĠI ron
ĠT echn
ĠP A
re al
Ġc ra
ĠS ports
ĠP ow
Ġle gend
ĠM it
ĠAddition ally
Ġaccom pl
Ġdocument ary
ĠPat rick
Ġfl ed
Ġcross es
Ġwor st
ĠE le
ĠG h
ond s
Ġstand s
g ets
w ing
Ġarchitect ure
Ġas h
ut her
ĠD ig
ĠAll en
ĠS n
Ġtem porary
ub le
Ġgirl s
Ġchair man
Ġdeterm ine
Ġdismiss ed
a ired
ĠMar g
Ġinvol vement
ĠDe an
Ġbomb ard
Ġs ale
Ġc ategory
ĠAn ne
ĠRec ording
form ula
ĠAr men
Ġpl ane
Ġin ner
Ġrem n
Ġadapt ation
ĠJac ob
Ġhe ar
ay a
ĠMar ine
go ing
Ġconvin ced
us ic
ĠO ak
Ġens ure
Ġen f
Ġs ight
ĠO pen
Ġc ul
ĠD or
Ġwe ekend
ĠCent re
P A
Ġ0 6
ĠCroat ian
Ġres ources
Ġsomew hat
ĠD omin
ĠN FL
Ġres erv
ĠProf ess
Ġinter ests
ĠHe art
ĠB ishop
Ġsc heme
Ġmed ieval
Ġimmedi ate
Ġst reets
ag re
Ġpresident ial
Ġl ibrary
Ġabs or
ĠDes ign
Ġr ay
Ġcar bon
b ody
Ġcons p
ĠAr n
p o
itz er
Ġ ic
ĠT rib
ĠH oly
ĠGl ob
Ġfall ing
Ġcolon ial
ĠIs lam
ĠD a
ĠW right
ap h
Ġtechn iques
Ġo ri
es ter
Ġclass ical
Ġs ed
Ġf ighter
Ġn inth
ĠPu erto
Ġapp ropri
Ġthr one
Ġstar red
Ġegg s
Ġacad emic
Ġr aces
Th is
Ġb right
ost er
Ã ±
ic ide
Ġad ults
ĠN C
ĠAg ain
Ġcon vent
Ġcomm emor
Ġpass enger
Ġsurv iv
Ġl oyal
Ġme ets
Ġl ake
b ec
ĠN etwork
ĠWin ter
ĠH op
ĠSt ra
Ġreview er
r ine
Ġal ien
Ġpremi ered
Ġsubmar ine
ĠHung arian
ĠJ am
we alth
Ġabs ence
Ġsee ing
Ġren ew
á »
Ġf itted
ĠBro ther
Ġsuper ior
os ure
ĠL ast
ĠMar s
Ġel se
Ġinter ior
ĠCar ter
ĠR ang
Ġfavor ite
or ney
Ġengine er
ĠMatt hew
ĠRuss ell
Ġd ub
ron ze
Ġ191 3
Ġair port
Ġpart n
Ġde emed
Ġattack ing
ĠShort ly
Ġconc lusion
Ġappear ing
o en
ac ent
Ġvis ible
Ġd ating
iv an
us ing
Ġsynt hes
Ġcharacter istics
Ġrom antic
Ġlead s
Ġelect ions
ĠG ard
ĠN iel
Ġ192 6
Ġoper ate
Ġfac ility
Ġencoura ged
ĠF ront
Ġr um
Ġm unicip
Ġafter wards
Ġretire ment
d a
Ġland ed
b ook
Ġcol ony
Ġconv ection
ĠP ak
Ġtemper atures
Ġbu y
ch ang
ĠL abor
Ġevery one
ĠHe nd
ĠD ick
Ġdo ct
Ġsuff ering
Ġ192 7
Ġcred it
el le
ĠL ibrary
ar ia
om ing
Ġlegisl ation
Ġmod ified
Ġl ies
Ġ192 1
Ġhold s
Ġchall eng
ĠUl t
ĠT a
ĠN ob
Ġpain ted
Ġcontrovers ial
Ġw ings
ĠK elly
Ġg one
ro it
Ġâ Ĥ
Ġ193 4
l i
Ġs an
oss ible
ĠSim ilar
ĠB ou
Ġbelie ves
ix on
Ġc ode
ur ches
Ġdistrib uted
Ġattempt ing
ĠW y
ĠA I
ust er
Ġstand ards
Ġ0 8
Ġlook ed
Ġresc ue
t ic
ĠThom pson
Ġauth ors
an ia
Ġsec ured
Ġ9 00
p on
Ġmon arch
Ġdep icted
Ġcan cer
Ġdomin ated
Ġ x
D espite
ĠT ok
aw s
Ġbattles hip
ĠE st
Ġgr ass
ĠPal ace
Ġhabit at
as ure
ĠD ra
Ġany one
com ing
sc ape
ap se
Ġcontin uing
ly n
ot es
ĠBer lin
ĠG ri
Ġjud ge
Ġlong est
Ġimm ig
Ġw el
Ġ8 3
Ġ191 2
ĠHar ris
Ġarch ae
ĠD NA
ĠCo oper
Ġbig gest
Ġunsuccess ful
ĠF ree
Ġun ion
Ġgraph ics
Ġp ound
ac he
enc ies
ĠEdu cation
el ine
Ġn eck
Ġob tain
ug oslav
inal s
Ġtra ined
ĠCommon wealth
tern al
ĠUS S
Ġs udden
Ġw ins
ĠE very
ult ane
Ġj ump
Ġarrang ement
Ġcar rier
ask a
Ġrail road
ow a
ĠSt ory
Ġ193 2
ĠR ick
op es
Ġacknow led
ĠHou ston
Ġnick n
ĠT s
ĠH ospital
ĠY an
ĠInd ians
Ġinform ed
Ġmeas ures
e enth
ĠK er
al o
ĠAd vent
Ġbel t
Ġrepresent ing
emeter y
ĠComm ander
Ġrele ases
Ġachie ve
ĠSant a
ĠCor poration
ĠPol ice
ch ing
Ġse es
ĠBat man
Ġgar rison
Ġcon vention
un a
Ġformer ly
ĠRA AF
Ġ0 9
Ġgr ade
Ġb ab
ĠU t
Ġgener ated
ĠSwed ish
1 0
Ġst yles
Ġclos er
Ġdeploy ed
Ġemerg ency
ĠSp e
ĠPark er
Ġb ats
l ie
ro t
t ure
Ġal leg
ten ance
Ġquest ions
ol ph
Ġhistor ic
Ġmoder ate
f are
Ġg ets
Ġv eter
Ġtri als
ĠSim pson
Ġf estival
Ġcy cle
Ġm olec
hem at
Ġs ter
Ġs iege
Ġinflu ential
ĠG et
ĠY ugoslav
Ġemot ional
ot ype
ut s
ĠB rand
ag u
Ġown ers
Ġnov els
ĠN BC
ĠE y
Ġsuccess or
Ġinflu ences
ĠTh us
Ġnar rative
Ġ Å
Ġth in
m ate
ĠB i
ain ts
Ġst ead
Ġr u
ĠDet roit
Ġex cess
Ġjournal ist
ĠA cc
Ġ192 9
Ġchild hood
Ġe at
Ġconst ant
Ġexper iences
ĠH in
Ġpre gn
Ġdef ended
Ġve get
Ġdiscuss ed
Ġleg s
Ġapparent ly
Ġal co
Ġ191 1
ark ed
Ġinstr uments
Ġass ass
E S
Ġvict ims
Ġtre ated
ĠMur ray
ĠL yn
Ġenvironment al
Ġg iant
Ġdipl om
f ire
Ġexec uted
im ore
Ġdet ail
ĠT al
Ġ14 0
Ġcoin s
ĠR AF
Ġdep os
ant a
ann y
Ġoffic es
i ens
Ġfact ors
ĠO t
Ġ193 1
ĠSil ver
y ard
Ġm ine
ĠC ook
ob i
Ġ192 2
ust ed
Ġbe ar
Ġconc ur
ĠB ure
D S
ĠL i
ram s
ach ment
Ġent ers
Ġhun ting
Ġwood en
n oon
ĠSoc ial
ĠWar ner
ĠP C
ĠAs ian
ĠRober ts
ĠM ort
ast e
ĠMer c
Ġch annel
Ġhundred s
Ġr ide
Ġres igned
ĠCroat ia
Ġo cean
ili ar
ĠO bs
Ġun iform
re es
it ter
Ġg ay
Ġsk ills
Ġreve als
Ġn avig
ĠC ru
O ne
Ġsp end
Ġchap ter
F rom
Ġpoin ted
te xt
ĠX box
Ġrid ge
Ġcl im
or ous
st ances
ĠC ategory
Ġwatch ing
Ġb on
Ġprevent ed
ĠG aga
ĠConst ruction
Ġprefer red
ĠKn ight
Ġ0 5
ĠMel bourne
Ġp ushed
Ġp ull
ĠF I
Ġform at
ĠSp ears
ĠJes us
ic ians
Ġloc omot
Ġfoot age
Ġfle w
Ġlangu ages
Ġdiffer ence
Ġhappen ed
Ġform ally
Ġthere after
Ġopp onents
Ġdrum s
Ġint ent
Ġreported ly
Ġfac ing
ĠNiel sen
o is
ĠV ice
Ġres ign
Ġche ck
Ġrelationship s
ĠMusl im
ot o
Ġch ain
Ġint ense
Ġaccom p
Ġthous and
t ty
Ġhand ed
Ġdev ice
Ġnot ably
Ġanim ation
og ether
y o
Ġf iring
ĠM un
Ġv ision
Ġinh abit
ĠAnth ony
Ġex isted
Ġvisit ors
ĠExp ress
ĠT ower
Ġsurre nder
ĠS omers
Ġg ather
ĠMod ern
id i
Ġemploy ees
on ies
ĠEv ans
Ġb es
ĠPrinc ess
ĠCh amber
m ad
sp ec
ĠTurk ish
Ġaccomp any
Ġ17 0
ol is
ĠJ ason
Ġdepart ed
Ġlink ed
Ġhe aring
Ġexp osed
Ġparticip ate
Ġpoet ry
Ġdial ogue
st ic
h att
ĠAlbum s
ĠCl inton
Ġext ent
ĠStew art
Ġf il
Ġdet ailed
Ġannoun ce
j o
ĠO d
Ġsubstant ial
ic an
ĠQue ens
Ġlear ning
ĠGre ece
Ġbe ach
Ġaud io
ĠBul gar
Ġinst ance
Ġunivers e
ropol itan
l ock
Ġreb ell
Ġconv oy
Ġcru isers
un es
pris e
ĠGil bert
Ġresident ial
ĠAust ria
ĠBalt imore
ĠP ope
Ġimp ressed
or age
Ġv ul
or ial
Ġperiod s
Ġav o
ĠSam uel
M A
end ment
ĠColor ado
Ġs ke
Ġm art
Ġh uge
ĠB ed
ĠR aw
Ġpl ate
ĠL ate
Ġpubl isher
ull ivan
Ġut il
ĠA round
Ġh at
Ġt aught
ig en
Ġe asy
ĠL ane
Ġafter noon
Ġent hus
ĠFound ation
olog ists
Ġtem por
Ġst em
Ġterrit ories
um ph
Ġdr iver
Ġimp rison
Ġreview ers
Ġtest ing
rib ed
Ġvide os
op ter
ĠAut hor
Ġh appy
og an
Ġup d
ĠAr k
ĠOr gan
Ġt ests
vi ation
iam i
Ġst able
Ġl iqu
ĠSt ock
Ġfe ud
Ġ192 8
Ġte eth
Ġrep rodu
Ġsym pt
Ġunderst and
Ġisol ated
ĠGu y
Ġnegoti ations
ĠLenn on
ch o
Ġvess el
Ġdiam eter
Ġin her
Ġag ents
Ġpick ed
m ission
ep ing
ĠWith in
at ically
Ġb ridges
ut t
Ġgood s
Ġencoun tered
Ġdang erous
ĠL im
Ġj unior
ĠRe al
Ġ192 5
ro ke
Ġdi agn
Ġl ob
Ġwithd rew
Ġsim ultane
Ġag ed
Ġfound er
ĠH orn
Ġre un
Ġbehav i
se a
Ġfact or
bor ough
Ġnorm ally
Ġupgrad ed
ro c
ĠRele ase
ĠB enn
Ġkeep ing
ĠGi ants
Ġf ur
Ġspec imens
Ġwind ow
Ġt ie
Ġp ounds
ĠHor se
ĠHe avy
ud a
Ġdet er
l s
Ġmed ium
Ġsat ell
et ime
ol as
Ġrel ie
Ġfrequ ent
ĠC am
ĠD esc
Ġsu re
Ġeth nic
b ridge
Ġto ll
Ġm ir
Ġd iet
id ae
Ġpart ly
Ġ189 0
Ġcoll aps
ĠChampionship s
Ġlow est
Ġc risis
Ġres ear
ĠMal ays
Ġengine ering
ĠW restling
Ġapp rec
ĠAng lo
Ġout f
Ġ192 4
Ġtravel ed
ĠTre k
Ġv ic
i able
Ġpro hib
Ġorgan izations
Ġpro ced
hel m
ĠC z
aw ay
Ġwhere as
Ġdesign er
ĠSar ah
Ġp ed
ĠM iami
Ġrare ly
Ġl ose
ĠB ird
Ġref ers
Ġt one
ames e
n est
ĠA ud
ĠW ing
Ġdoes n
Ġtur rets
c hen
us al
ĠTh or
Ġtechn ique
iec e
b rid
Ġins c
enn is
ĠPlay er
ger y
Ġv ice
Ġor b
ig s
Ġsp ending
Ġfinal e
s ki
Ġcritic ised
ĠSomers et
Ġ0 7
Ġadv ice
ĠFreder ick
Ġperm ission
Ġmain tenance
il a
Ġl ad
Ġpl atinum
c ol
Ġa x
ĠB uck
Ġpers p
Ġunc ertain
Ġdifficult ies
Ġp hen
F C
y gen
ab ama
Ġcomp lic
Ġpart ially
Ġrest ric
Ġpolic ies
Ġby pass
Ġperson ality
Ġag ree
ĠUn like
Ġver se
Ġmain stream
Ġcompet e
Ġrank ing
Ġindic ate
ĠTreat y
Ġexc ell
ibb ean
Ġpro port
ĠH ans
il st
Ġrecord ings
ĠMarsh all
in ction
usc ript
ok ed
Ġcom ments
Ġun n
Ġrem ove
Ġant icip
Ġfinal s
ĠCar ibbean
ĠFor ces
Ġm amm
ĠK now
Ġref uge
ĠNever theless
Ġsaf e
ur ance
ĠMar io
ri or
atter ed
Ġconcer ts
Ġwind ows
Ġstri p
Ġse ats
Ġrest rict
Ġmor al
Ġsy mp
che ll
ĠSe attle
ĠCan al
Ġover s
Ġmon ument
Ġr ates
Ġj ur
Ġrep air
Ġext reme
Ġfall s
Ġf ighters
Ġrec ur
Ġ192 3
Ġrecomm end
A ll
Ġpit ched
Ġrepresent ative
x ual
Ġcover s
ĠYan ke
Ġal ter
Ġto t
Ġtr uth
s k
Ġt enth
Ġdif f
p ower
Ġprompt ed
is d
Ġfor cing
ran g
Ġdescrib e
Ġprot est
Ġh ockey
Ġph r
ĠI owa
ĠCro wn
Ġt ub
Ġrec onst
Ġshe ar
Ġdestroy ers
Ġp in
ĠMiss iss
m ates
ĠJ ess
Ġmin imum
Ġunder w
ĠBro s
if er
en h
Ġp ric
Ġh ull
Ġch urches
Ġneighbor hood
Ġfriend ly
Ġbas es
Ġexam ples
ĠUS D
Ġboy s
ĠTown ship
ĠC re
ĠAn na
Ġdraw ing
ĠC all
ĠM L
ĠC R
ĠB uff
ĠG arden
Ġtrav elled
Ġbomb ers
Ġin aug
ĠAl abama
Ġdo ctor
Ġdyn asty
Ġadj acent
Ġm and
Ġappro val
m ers
ĠM P
ĠMin istry
Ġhous ing
Ġdisplay ed
b ra
ant e
ĠHung ary
od s
ĠM ach
Ġcreat or
ĠSen ator
Ġcred its
Ġj u
e u
i ac
ĠMin nes
ĠH and
Ġgro wn
ĠAustral ians
Ġjoin ing
Ġlist ing
Ġcoll apse
Ġtrib ute
ĠLaw rence
Ġaw are
ĠGram my
Ġpartn ership
Ġprot agonist
Ġt urb
Ġf ung
ĠH uman
od ore
Ġexpl o
ĠDie go
ĠNaz i
Ä į
ĠO p
Ġmom ents
Ġact ed
Ġchang ing
Ġcreat ive
ã ģ
al ions
ĠH amp
Ġdesign ation
ĠCount ry
Ġpow ered
ug by
Ġinstrument al
ĠDe ad
it ud
Ġref ere
Ġtre nd
Ġas ks
ĠNap ole
ĠD ance
ph one
onna issance
vel t
Ġcan al
Ġrad ar
Ġstorm s
ĠD ave
Ġar ts
ĠHe alth
Ġvill ages
ĠD ur
Ġposs ession
Ġappoint ment
w a
Ġadv is
Ġdoll ars
ĠBelg ium
im eter
ĠR oc
Ġ190 5
Ġtreat y
Ġscient ists
j amin
ĠA h
ĠE xt
oun ced
Ġround s
ot ten
Ġvict ories
Ġsurv ive
ĠMc D
Ġ190 9
Ã §
Ġelimin ated
Ġpaint ings
Ġcover ing
Ġwhe el
Ġmin imal
Ġ190 8
ĠGuard ian
Ġprec ip
ĠCharl ie
Ġ els
g on
Ġels ewhere
Ġt elling
ic ts
Ġnewsp apers
R e
Ġinn ov
Ġsurpris e
Ġbenef it
ĠLeg acy
id d
iv ated
act ive
ĠBl ood
ec raft
ĠH u
ĠMed al
Ġseek ing
ĠH ockey
Ġarr iving
Ġanal y
ĠD C
Ġhelp ing
Ġoccup ation
Ġrhy thm
st ers
Ġsu icide
ĠVietn amese
ic y
ou ri
ĠN at
Ġpurp oses
ĠH ud
Ġval ues
Ġdisp ute
Ġun like
Ġoccas ions
Ġb rick
Ġg ard
Ġsm ooth
Ġlo an
s ky
Ġp ool
ĠB an
ĠH ills
Ġtw in
v y
Ġw et
rup ted
hatt an
Ġo ption
ro id
or ious
ĠShak esp
ĠAl ong
Ġman uscript
ograph ical
ĠC old
Ġso il
Ġf ishing
Ġg at
ĠRep resent
Ġstrugg le
Ġc ryst
es h
ĠA R
over s
Ġmur d
ĠB anks
m ith
ose velt
Ġbal ance
or ph
Ġ10 5
Ġhel ic
Ġdeg rees
Ġpres erved
Ġsched ule
Ġ12 5
ĠB rig
Ġ0 4
ri x
Ġfl ash
J o
ĠChild ren
Ġc ateg
ack s
ĠL l
ĠG ab
Ġco oper
ĠPen insula
Ġpublic ly
Ġ190 7
ac le
ĠK han
ĠTr ust
ather ine
Ġviol ent
Ġcandid ates
n o
Ġres umed
in ally
Ġem peror
ĠMan hattan
Ġhon our
n ik
Ġcompet ed
Ġpil ots
Ġwed ding
ĠThe n
Ġsurviv ors
ish ment
ĠMinnes ota
rom e
Ġ16 4
inc ial
ĠAdm inist
mun ition
Ġd ies
Ġab ilities
m ph
r m
Ġpro cl
ĠÃ Ĩ
Ġneut ral
act ion
T A
ul ating
Ġsp an
Ġc ook
ok ing
Ġbeaut iful
Ġimp ossible
ĠR and
Ġco ordin
Ġintens ified
ĠI an
Ġal ignment
Ġarg ument
ĠT un
Ġmult i
Ġteach ing
f ted
is p
Ġcust om
Ġadv oc
ĠPol it
a ud
Ġass isted
Ġpo ison
Ġw rest
Ġle m
Ġdefe ating
Ġcons ult
ob ile
Ġconc rete
Ġelect ronic
Ġl ists
Ġpro sp
ĠLa ure
ĠC amer
ĠD iv
ĠK al
Ġover t
Ġn ations
ĠIndust ry
ĠH ind
ĠK ansas
Ġser ial
Ġsim pl
Ġr ivers
ens ions
Ġdisc ip
Ġabs ol
ĠRo osevelt
ĠA ff
Ġp y
ĠHot el
ĠAlf red
Ġass ists
Ġfound ation
ĠFrank lin
Ġopp onent
Ġel abor
Ġinterest ing
e are
à ¤
Ġ Ä
Ġd anc
il ty
ĠB ull
Ġagricult ural
Ġbusiness es
r Ã©
Ġsu itable
Ġback ing
T o
Ġp arent
Ġm ines
un ch
ĠF al
Ġsign ing
Ġsub mitted
Ġ16 5
Ġ188 0
Ġox ygen
Ġfif teen
Ġschol ar
Ġtun nel
ĠMississ ipp
Ġunderst anding
b l
Ġg rey
ĠBen jamin
ĠS on
Ġencoun ter
Ġsympt oms
iven ess
it ated
Ġc iting
ĠSat ur
Ġw aves
Ġbeh alf
d ie
ic er
ĠS i
Ġor bit
ĠH ong
Ġspirit ual
Ġs unk
ct ic
ĠV I
ĠChrist opher
Ġpercent age
Ġpar ish
Ġs ank
ag en
Ġforest s
ĠShe l
Ġn inet
Ġfor ty
ĠPort land
Ġsit uated
Ġsign s
ĠB h
Ġclos ing
ĠAre a
ĠI ce
Ġsubject s
ĠBl ues
ĠAn im
onym ous
al ities
Ġam munition
row s
as ters
Ġvo iced
d ale
Ġus ual
Ġill ness
Ġb id
Ġn om
ĠD al
ĠL in
ĠL ith
ĠMic hel
ĠR ap
Ġrep airs
ĠFl ight
ar on
ĠK urt
Ġres olution
ĠB eck
Ġcor por
U n
ess ee
ĠWalk er
ĠHin du
S P
ĠW ard
ĠW olf
Ġim perial
Ġask ing
ĠE vent
Ġdis aster
Ġfun ctions
ĠBu ilding
Ġcollabor ation
l ah
Ġass ess
Ġattend ance
ĠThrough out
f ather
Ġcontro ll
Ġrestaur ant
r us
Ġl ieutenant
et on
Ġaud iences
Ġfeel ings
Ġst ring
Ġev il
Ġunder ground
Ġdel iber
ĠInter state
Ä ĥ
Ġw orship
ĠHer o
Ġk ne
Ġj unction
Ġfl ights
ĠAlex and
S ince
am ic
Ġport ra
Ġaff airs
Ġsusp ended
ar th
C C
ĠN ash
Ġsk ull
u v
z z
ĠA thlet
Ġex it
se x
ĠT ag
od ge
a is
amp s
r ace
Ġpr on
Ġwill ing
Ġtar gets
Ë Ī
ĠK ings
Ġcar go
Ġinit i
Ġearth qu
r ator
Ġrec re
or i
ĠCo le
Ġaff air
Ġfun eral
Ġpro l
Ġoper ational
Ġ190 6
ĠW ol
res ents
qu es
Ġab ol
Ġ36 0
Ġpoor ly
n g
Ġmeas ured
ĠShakesp eare
Ġle ct
r ants
Ġcomp ilation
Ġdoc uments
Ġmount ains
Ġf iled
ord ers
rac ts
ĠLouis iana
Ġaim ed
u able
ĠR ace
we et
ĠF ried
Ġcirc uit
ĠEgypt ian
Ġregister ed
Ġan ch
ĠJ os
Ġ190 4
Ġconsc ious
ĠD w
ĠBr un
and al
Ġstat ue
Ġfavor able
ĠTenn essee
ĠN ative
ine a
ĠCamp bell
Ġsub t
Ġel der
Ġaff ili
ĠPhilipp ines
Ġro ut
Ġlik ed
Ġadop t
ĠF riend
Ġ187 0
ĠHistor ic
an ium
Ġb ot
ĠC ob
Ġrecogn ised
Ġexplos ion
ĠMississipp i
Ġprofess or
Ġentertain ment
ĠB ox
Ġj azz
Ġrep resents
cept ion
Ġtempor arily
ĠCom b
ad i
ĠLab our
g ate
Ġs ector
ĠDep ression
ĠPal est
ĠMont real
ĠWrit ing
Ġb en
Ġsequ ences
Ġrepl acing
er a
ik a
Ġfif ty
ĠV inc
ate ur
un c
over e
ĠS ullivan
ĠH em
Ġoff ering
Ġshell s
id el
Ġart work
Ġc yl
Ġw ore
ĠR ab
ĠD est
Ġres idence
Ġinterp re
spec ies
ĠL am
Ġmar gin
Ġprepar ation
iss ions
f ace
Ġ0 3
Ġref lected
Ġrest oration
Ġnuc le
Ġall iance
Ġpr ime
Ġrel uct
Ġdirect ors
Ġexp ensive
Ġr ig
Ġ0 1
Ġ *
um a
Ġter ror
ĠMiss ouri
yl an
anc ell
ĠRet urn
Ġto uring
Ġover w
ĠHal o
inent al
Ġcomple ting
Ġamong st
Ġthink ing
Ġalco hol
Ġsuggest ing
at us
Ġb anks
Ġhor ror
Ġgra v
b ishop
ĠMic ro
el lect
ĠIndepend ent
Ġcanc elled
Ġrebu ilt
re p
ĠK u
Ġcover age
ĠLuc as
Ġc od
ĠSte vens
ĠPer form
u ary
ra k
qu ir
ĠD om
Ġpul led
Ġre ven
Ġdec ides
Ġesc aped
Ġd imens
Ġer upt
Ġb ay
Ġwas n
Ġam ounts
ĠSte ven
z ona
Ġc ous
ĠM ack
Ġlack ed
Ġtrib es
overe ign
ĠN ag
ĠGu ide
Ġdram atic
ĠR en
Ġr acing
ĠMarg aret
Ġclear ly
Ġcommunic ation
ĠCub a
Ġg arden
Ġpattern s
Ġfam iliar
Ġpred omin
ur ally
ĠF iles
Ġeng agement
g ro
Ġf rig
Ġr it
Ġown ership
app ing
Ġarg ues
art ney
Ġmark s
Ġs aved
ĠInd ies
Ġarm ored
Ġpersp ective
ok es
Ġmat hemat
Ġcolon ies
Ġg ang
Ġwick et
ĠWar ren
Ġdro ve
ĠM es
ĠMc L
Ġcontrib utions
Ġmerch ant
ĠM ess
ov a
Ġsol ution
st orm
ĠP le
Ġrec on
ĠJ osh
ath y
ĠPers ian
ĠC ow
Ġpr int
Ġfast est
ĠKir k
ĠApp le
Ġplayoff s
Ġart istic
Ġadminist rative
ĠF rid
Ġse ed
Ġremn ants
r ings
iet ies
ĠMit chell
ĠCz ech
Ġt ag
ĠP ed
Ġex ecut
Ġcharacter ized
ĠAri zona
Ã º
ĠTam il
b re
Ġfal se
ĠGra ham
Ġbound ary
id ency
Ġr ising
Ġmilit ia
S ome
Ġk ings
Ġsever ely
Ġcrew s
Ġinstit utions
Ġarm ament
Ġdisapp oin
og a
Ġbad ly
ĠL ov
ĠJo h
Ġret ail
Ġdep ending
Ġ11 5
Ġflag ship
E C
ri k
Ġear ning
ex p
Ġbul k
f ish
ĠM aur
ĠR ing
Ġgen etic
Ġdistinct ive
Ġbow ling
it ting
Ġexpl ains
Ġide al
ĠDrag on
s es
or er
Ġb ran
Ġnot ice
Ġrec ip
ĠY e
ĠBure au
e qu
Ġb ronze
om ber
Ġfall en
Ġexc av
Ġrestric ted
Ġrank s
Ġcon text
ĠE P
Ġfr ust
Ġcompar ison
Ġth rew
ect ic
c ru
ell i
ph a
Ġdemonst rated
S A
l ings
ĠS now
ment ed
ĠSc out
Ġexpl ain
Ġcond em
Ġrang ing
ĠInit ially
Ġqu iet
ĠPh oen
ĠMag n
ĠSatur day
u ations
Ġpo ems
ĠConfeder ate
Ġin land
Ġcontrol s
Ġinhabit ants
l ife
ĠEd ge
Ġrid ers
Ġt rick
Ġs isters
Ġg ap
Ġ17 4
Ġarr ive
ĠB illy
Ġlo op
Ġk W
Ġpract ices
Ġw ants
Ġm ental
Ġman eu
ip h
Ġcons ervative
Ġf aster
ĠT an
iv ia
Ġv el
ĠCh and
form ation
Ġelect ron
Ġwid er
itzer land
ĠS ony
ac on
Ġsh ield
Ġsy nd
Ġob vious
Ġrev ol
ock ing
Ġk it
Ġsur ge
Ġexc lud
Ġspot ted
ot ton
h u
Ġme at
Ġacc eler
ĠBroad way
Ġvul ner
Ġre aches
ĠP rom
ĠL as
Ġdistingu ished
Ġp ace
Ġpl us
Ġnorth ward
Ġev olved
ov en
ĠV is
Ġexhib ition
ast s
Ġapplic ation
lah oma
Ġg ate
Ġ190 1
ĠN on
Ġmill imet
Ġquarter back
ar o
Ġnomin ations
Ġag ency
Ġtri ple
Ġprote in
ĠG rey
Ġsub species
Jo hn
Ġfr ame
rupt ion
Ġsatell ite
ĠBus iness
Ġt ip
Ġaut obi
Ġdomin ant
Ġprep are
Ġhousehold s
Ġpred icted
ĠPri or
Ġpal ace
ĠFeder ation
v ant
in ations
ĠWil helm
Ġw reck
Ġte x
ĠA BC
Ġst orage
Ġsl aves
d in
ur er
sequ ently
gr ade
Ġint ellect
Ġ190 3
ĠProg ram
ant on
Ġab und
l us
ĠC her
ĠSw itzerland
Ġth or
Ġ15 5
el and
ĠMar ie
ĠAust rian
Ġart icles
Ġprin ted
ĠDig ital
Ġ190 2
uk i
Ġv s
Ġv ast
Ġcar riers
Ġatt ained
Ġrepeated ly
ĠL iz
Ġfix ed
Ġpredecess or
ĠL ang
Ġall ies
Ġst ores
Ġver tical
Ġsur gery
Ġ0 2
id ers
Ġout l
Ġst rict
Ġsign al
ĠLith uan
Ġpe aking
im en
Ġphilos ophy
Ġphen omen
Ġadvent ure
Ġbi ographer
Ġblock s
Ġexcell ent
Ġb oss
ĠD ylan
ĠS in
Ġy ield
Ġdis agre
Ġt ack
asc ar
ro v
Ġpre tty
ĠMr s
Ġille gal
ript ions
Ġbomb s
f e
Ġper ceived
ro se
Ġserious ly
Ġcho ose
ic ate
Ġcom fort
yl er
Ġap artment
Ġremark ed
Ġwest ward
Ġuse ful
Ġwa iting
ĠR ico
ĠN a
Ġcircum stances
Ġt ight
augh ters
Ġcur ren
ih anna
Ġsk et
Ġsurre nd
ĠE conom
Ġmeet ings
Ġcoin c
Ġdrug s
Ġbatt alions
Ġdoll ar
ĠOk lahoma
Å «
Ġs ick
it age
ard o
Ġinstit ution
ĠRid ge
Ġph one
ĠSm all
Ġb reat
em en
Ġcivil ian
Ġlay er
ĠBab y
ĠS oon
Ġarm our
Ġread ers
ĠOrig inal
az ing
N e
Ġwh ilst
ĠMur phy
Ġg ust
ĠD S
Ġch amber
ĠSe ven
Ġmat ters
m i
ĠN ik
Ã© e
Ġcast ing
Ġfriend ship
Ġt iss
in ian
ap olis
Ġstrengthen ed
r int
Ġh orn
ĠU E
Ġvis iting
Ġplan ets
ĠDen mark
Ġh olid
Ġr ub
ar ant
Ġrec onnaissance
ĠRec ord
A R
ĠA my
Ġret ain
ĠHar v
Ġsimilar ly
ĠTer rit
T W
Ġsimultane ously
ming ham
ĠB omb
est one
Ġleg acy
ĠTok yo
ess es
Ġaltern ate
ĠAbb ey
Ġ16 8
Ġdem anded
on omy
Ġty phoon
Ġem pt
ĠCamp aign
ac c
Ġpan el
Ġjust ice
L C
ĠBar ry
Ġenl isted
Ġal ive
Ġins isted
ĠAtl anta
th a
ĠSt r
ĠPer ry
Ġre vers
ĠH ur
Ġh ook
ĠS uch
est yle
Ġship ping
Ġro ots
ĠDel aware
Ġre venue
ent le
ĠF em
Ġprom ised
Ġdem ands
Ġbomb ing
ĠBase ball
ĠR at
ĠHar vey
ĠT el
ĠPri ze
ar r
Ġperson ally
ĠRail road
j an
Ġl anes
Ġprop ag
Ġathlet es
l ain
Ġcon sole
ĠPit ts
ar ation
Ġmain land
Ġdr ivers
Ġstrugg led
Ġdefin ition
Ġlook s
ĠLes lie
ĠCl ar
Ġport ions
Ġp ione
Ġback ed
Ġcontin u
Ġaud ition
Ġorchest ra
Ġbehavi our
c ott
Ġs ung
ĠT on
ĠA ld
gh an
Ġd iver
ĠMad ag
ĠIntern et
ac re
ĠR oll
ĠM other
Ġart ific
Ġguitar ist
ot yp
ĠV e
Ġjob s
A C
ĠM aj
Ġmarket ing
ĠYanke es
od ox
Ġsub st
Ġob lig
ĠR ihanna
Ġarm ies
reg ation
ind ing
Ġsur pass
Ġgu ilty
Ġdemol ished
S ever
ĠW or
1 2
Ġd ancing
it i
it is
ĠS oul
ĠM ik
Ġstar ring
ĠS et
ĠI ran
ĠIn n
Ġrul ing
Ġc up
Ġin du
Ġfe els
ater n
ic ation
ol ly
Ġcomp ens
az ines
ĠJu an
Ġincre ases
Ġprof ile
Ġfact ory
Ġ16 6
Ġcompl iment
um ps
Ġess ential
Ġp unk
Ġmin ing
Ġhead ing
Ġthe ater
Ġcount ies
ĠF if
Ġp ages
Ġob st
f olk
r un
ĠS em
Ġexp ression
Ġorgan isation
Ġpurs ue
ou ver
ap ped
Ġ10 9
Ġdisc ont
Ġbelie ving
j e
Ġaff ect
Ġdiscover s
ract ion
Ġpat ron
Ġdeliver y
Ġbon us
ĠLe x
Ġmultip l
Ġs alt
ĠJohn ny
w here
Ġcl othing
a very
Ġst ick
Ġport s
Ġsuc ceed
ĠC hel
ĠM uch
Ġmob ile
Ġs ad
ĠN ixon
os m
ĠEd wards
ĠP il
Ġcre st
ĠMc M
Ġelev ation
Ġo dd
Ġac ou
f le
Ġk iss
ĠL ost
ult an
c les
t i
ĠHud son
Ġdr ink
Ġsecret ary
Ġdoub t
Ġs q
Ġacc um
Ġfore cast
ak s
Ġor n
ell o
tar io
ter bury
Ġeng age
ectic ut
b ird
Ġhor iz
ĠH aving
Ġdem ocr
m und
Ġc hest
ĠGr ay
ir ty
ĠF at
ĠBudd h
Ġal tered
au x
ĠEnter prise
Ġoverse as
Ġmay or
Ġbab y
ann on
ĠW ag
Ġdeter ior
Ġlist en
ĠArn old
ĠR ights
Ġexp and
ow ed
Ġdef ences
ĠBos n
ack ed
Ġren ov
ĠR ub
Ġcan cel
Ġer ected
war f
o ons
in ces
ĠA y
ir ts
Ġv oy
sh ore
Ġcomp ounds
Ġsett lers
ĠMadag ascar
Ġst ress
Ġmusic ian
op p
ĠOn tario
ĠImp act
o a
ok er
ĠJim my
ĠKar l
Ġp ale
as ant
st an
ĠV ik
Ġlegisl ature
ĠB aker
O S
Ġobject ive
yr us
ĠGirl s
ĠJon athan
Ġdec isions
Ġra ising
Ġhigh ways
Ġaer ial
Ġliqu id
Ġdis l
Ġconvers ion
ĠAll ies
Ġsol ar
ro us
ĠG oth
Ġafter math
Ġsold ier
Ġconcent ration
ak h
Ġsc en
ens ively
Ġcampaign s
ĠOb ama
Ġsit ting
ĠDef ence
g s
m at
ĠPe ace
Ġindic ating
Ġconsp ir
Ġh app
ul ous
if ies
Ġexact ly
ĠN ear
ĠTr acy
Ġh idden
Ġpro ve
b oy
Ġorgan ised
Ġwealth y
Ġacknowled ged
am ents
ĠF el
Ġperm itted
Ġdang er
ĠConn ecticut
Ġw restling
ĠSp art
Ġtro uble
Ġrad ical
Ġimpro vements
ĠUnivers al
Ġdissip ated
ĠJ up
Ġreal ized
Ġsk i
Ġstri king
Ġgrad uated
Ġd ressed
ĠWay ne
ĠBir mingham
Ġappropri ate
ĠPhoen ix
1 5
ĠP ars
Ġconf ron
ĠPr uss
ĠPear l
ot te
Ġexec ution
ĠM ans
rat ropical
er g
Ġan th
Ġmet er
Ġobserv ations
Ġm ac
ĠR achel
Ġra ids
Ġl in
ues e
Ġprof it
ĠJ ar
Ġen cl
Ġremov al
Ġinterpret ation
ĠCan terbury
Ġfew er
Ġtravel s
ĠWork s
Ġsk y
Ġceleb rated
ĠFurther more
Ġven ue
in ister
ĠS ig
Ġn et
Ġpublic ations
Ġinit iated
Ġsh arp
anc ouver
Ġtur ret
Ġagg ressive
Ġtheat rical
Ġchap el
ĠFrid ay
ĠF arm
Ġpubl ishing
Ġrequ ires
Ġevac uated
Ġjur isd
iv ation
ag h
ĠK it
Ġdeb t
ĠCommun ity
itud es
Ġfound ing
Ġorig ins
Ġorigin ated
Ġcann on
Ġt ort
it als
ĠC ost
ip per
p ent
Ġstation ed
ĠOut standing
ĠL ess
Ġexpl an
Ġ15 2
Ġconn ect
ĠSh aw
Ġbr ill
ĠK l
Ġdef ending
Ġestablish ing
Ġsup ple
Ġmus h
Ġconsid ering
Ġrebell ion
Ġsh orter
Ġstep s
Ġarrang ements
Ġannounce ment
ad ier
D I
Ġcut ting
ĠKe ith
O T
Ġb ones
ĠPlay ers
Ġf antasy
ĠR al
ra pped
aj a
Ġgu arant
Ġmag ic
ĠBoy s
er k
it ively
Ã ¦
ĠP ubl
Ġmag azines
Ġer r
Ġconn ecting
aut ical
Ġasp ect
ĠR an
Ġ17 3
ĠMin t
ĠMcC artney
Ġapproach ing
Ġm emor
Ġext ratropical
Ġhost s
Ġdon ated
Ġpl acing
enn ium
ĠMount ains
Ġwalk ing
he ars
Ġin g
ĠB ath
ĠH old
Ġins ects
Ġstrateg ic
Ġl ying
ĠD all
Ġon going
ĠG ate
Ġdiscuss ion
ĠBob by
ĠV ancouver
Ġfun ny
Ġcolle agues
Ġtal ent
as a
ĠCh ampion
ĠMor rison
Ġc ub
ĠSt at
Ġmon itor
Ġyoung est
ĠDr ive
ĠPot ter
Sever al
Ġgl ac
ĠAdminist ration
h ous
Ġed ited
Ġpred ict
Ġclos est
à ¸
Ġm al
ĠSy mph
Ġqual ified
Ġhyp othes
ĠBern ard
Ġgat hered
Ġfor th
Ġbattle cru
Ġtub es
Ġdec ide
ĠTro phy
ĠPortug uese
ĠCom ple
ĠEd in
Ġ10 4
Ġvol umes
ad al
ec ution
Ġput ting
Ġland scape
Ġred e
Ġwaters hed
on ium
ĠN AS
enn a
vent h
Ġsw itch
Ġwithdraw al
b ow
f ts
ĠH ugh
ear ing
Ġstrong est
Ġ186 0
Ġindic ates
ĠPak istan
Ġang le
Ġfor g
Ġcap s
ĠTod d
on ald
Ġmark ets
Ġident ify
ĠP att
ĠD iam
Ġgr ay
Ġ189 3
ĠFore ign
Ġsuppl ied
Ġl es
ĠM anu
ĠLe gend
Ġexp osure
Ġcirc le
ĠGri ff
at ra
ĠO pp
Ġneigh bour
ĠTri ple
ĠN ine
Ġdes ert
Ġspec imen
Ġconf ront
Ġmer ely
ĠWind ows
Ġcollaps ed
Ġpart ial
Ġchallen ged
ĠT ed
ĠH ann
elt a
Ġbe am
Ġdens ity
ĠP a
Ġb rig
ĠM em
Ġc ock
Ġb are
Ġsh ift
ĠZ e
M ost
ĠS hip
ĠC ov
av el
Ġvis its
Ġlim its
Ġdub bed
Ġsp ac
ĠCh ampions
Ġfeed ing
ĠJup iter
j oin
ĠL ion
Ġhydro gen
ĠHamp shire
ĠP ap
Ġprov ision
Ġ189 6
ĠL en
so ft
h ard
ĠL at
y t
ag ger
Ġeduc ational
Ġconvent ional
Ġpl ain
ĠAb d
ĠNC AA
ĠT ol
Ġse ized
ather s
iet h
Ġdu o
ist a
Ġcl in
ĠDe b
Ġann ually
ĠRes erve
y e
er r
ĠK an
ug g
Ġcor ps
Ġconcent rated
Ġto pped
ro d
ir ates
ot al
Ġbe aring
Ġmar ry
Ġmembers hip
Ġex ha
Ġch ampions
Ġret ro
ament al
Ġattend ing
Ġass embly
Ġb acter
ip er
Ġpar ody
Ġrang es
ĠNapole on
Ġdog s
ĠM ission
Ġ189 8
Ġoff ense
ĠAf ghan
ĠChart s
Ġn avy
ĠL aur
on ica
Ġf urn
ĠMet eor
Ġemphas is
ĠEdin burgh
M any
a ft
igen ous
ter ior
Ġweek ly
Ġ17 2
Ġproduct ions
Ġexerc ise
Ġun less
Ġleg it
Ġtalk ing
ĠBrad man
Ġtick et
ĠDw ight
Ġinvestig ate
ĠCy cl
i oc
ĠMos c
Ġt rough
Ġbas in
ĠEvent ually
Ġan ime
Ġ35 0
Ġcou p
ol ve
Ġpromot ional
Ġcru c
Ã¼ r
Ġpri ze
Ġb ond
Ã °
Ġb one
Ġj ury
Ġportray al
ĠT NA
Ġce ased
Ġfort ress
Ġflood ed
uzz le
ĠP am
port ed
ĠVictor ian
Ġadvert ising
Ġf ill
ĠB eng
Ġreg ime
ĠD od
Ġun com
Ġcons ervation
Ġunc le
Ġbirth day
ay an
ĠG ary
um ble
Ġinv ent
Ġ12 7
Ġemploy ment
Ġpers ons
Ġout put
Ġqu een
Ġco ff
Ġball ad
ĠDemocr ats
u art
ro lled
ĠL ib
Ġsend ing
Ġatt itude
Ġexperiment al
Ġphotograph s
Ġb ishop
ĠCon vention
Ġsoft ware
im m
Ġev al
Ġhit ting
Ġquestion ed
am as
ov iÄĩ
Ġgu ide
am an
Ġprov incial
ĠYork shire
ĠT ig
Ġsc attered
pl ed
Ġdr inking
Ġtransl ation
Ġagg reg
ĠVill age
M I
ĠAl ice
Ġunc lear
Ġunderw ent
ĠC hes
ĠD ub
ĠO ur
Ġmat ure
ĠS ay
ra wn
ham mad
ĠChron icle
Ġoverw hel
Ġout d
Ġend ors
Ġ10 1
ann er
Ġrepl ied
Ġassemb led
ĠMar vel
Ġcous in
ĠB ach
ĠJ oy
Ġ189 9
rap y
Ġc ens
Ġp apers
Ġrepresent atives
Ġliber al
Ġcl ock
Ġco at
Ġlaw yer
as hes
Ġcomment ary
Ġswim ming
ĠÃĨ thel
Ġw ire
Ġex ternal
olog ies
Ġprocl aim
Ġthir teen
Ġimag ery
O K
ic ations
ĠBrother s
Ġster e
ĠT ob
Ġsh r
Ġtra il
Ġmon aster
ĠMe g
Ġemp ire
Ġcomp rom
ass ador
ĠPerson al
Ġlov ed
ĠC elt
ĠD ale
ĠF lying
Ġlaw su
Ġter rain
ĠChristian ity
Ġacou stic
id al
ri p
Ġsl ave
Ġwa it
Ġexclus ive
Ġd uration
ad ers
Ġelectric ity
Ġpict ures
h in
Ġst reak
Ġd aughters
Ġmov ies
ows ki
ĠCrit ics
ĠHon or
ĠG ene
Ġdev ast
Ġs ang
Ġc ad
ĠIs a
ĠArgent ina
Ġexper t
Ġaccompany ing
Ġbran ches
Ġsurrend ered
ĠP in
ers ed
ĠY ears
Ġarr ives
Ġten ure
ate ver
ens ed
ĠSe ason
Ġstrong er
Ġident ical
m n
he ll
ĠT it
ur d
pl er
Ġbur ial
ĠM and
all ing
Ġsuccess ion
ĠAn c
Ġd read
ĠM ong
Ġbe ats
ri ors
Ġre verse
Ġcomp onents
Ġchar ter
ĠFin land
ĠA x
ĠW ii
Ġ10 8
ĠMon te
Ġpric es
ar io
Ġsc ar
Ġ16 9
Ġreve al
ĠT ype
ell ation
pl ace
Ġredu cing
Ġreinforce ments
ĠN atural
ill es
Ġpre v
Ġtrad ing
Ġpen et
ĠQueens land
ĠLl oyd
ĠL t
ol en
Ġsp aces
Ġdestroy ing
ĠFle ming
ĠOl iver
Ġp ush
ĠF und
Ġfail ing
Ġmechan ical
Ġcompet ing
ĠBo at
Ġexclus ively
ĠHawai i
ur as
Ġis ot
Ġsle ep
red its
ĠHer itage
ĠCommun ist
ĠProt est
Ġcomp onent
Ġqu ad
Ġst ops
Ġat omic
I V
Ġmy st
ĠBook s
Ġcounter p
ĠColl ins
P h
ĠK ap
ĠMay a
Ġ185 0
Ġsl avery
Ġprecip itation
Ġd ict
Ġdevelop ers
ĠG or
ric ts
Ġdev ices
Ġfoss il
on ian
ab e
ib ilities
Ġgovern ments
Ġtrad ed
Ġpol ar
ĠGl en
ĠUE FA
c ase
Ġre ward
ĠJ ama
Ġmin i
Ġpo le
Ġel ig
ĠBel gian
Ġconsist ent
Ġb anned
Ġcent ers
Ġw ish
Ġvar ied
Ġobs c
ĠA S
ĠP ink
ĠK am
Ġflow ers
ĠRang ers
Ġartific ial
ĠC ad
ĠMar ge
Ġt ube
Ġp el
Ġrad iation
ĠEm my
Ġo w
Ġwas te
ĠK o
Ġconsid ers
Ġred es
Ġplatform s
Ġvir us
Ġto mb
Ġinc om
Ġb ath
ud ed
leg raph
Ġcontrib ution
et hel
Ġdis b
Ġelect rical
Ġearthqu ake
itar ian
ĠNor folk
Ġhy brid
ĠLiber al
ĠP ad
p ike
Ġburn ed
ĠJer ry
ro ph
ĠD in
ang el
Ġhum or
Ġarchitect ural
Ġsongwrit er
ĠM alt
Ġreview ed
Ġe cc
ran k
ĠPri x
Ar thur
ĠTurn er
Ġpro ceeded
Ġfour teen
Ġbo ilers
Ġprofess ion
Ġadv ised
rast ructure
Ġunderst ood
Ġfrequ ency
Ġ16 3
Ġhand led
Ġ189 7
enes is
Ġinters ects
Ġtalk s
ac les
Ġdestroy er
Ġimpro vement
Ġl ie
Ġhe ir
ĠHow e
ĠTransport ation
Ġam ateur
Ġcop per
ĠC ricket
ĠBe aut
ĠD ram
az e
ĠServ ices
Ġtex ts
Ġrequire ments
ĠHard y
Ġthe ore
et o
Ã¶ n
ĠSax on
C l
ĠS le
Ġcon ceived
Ġsam ples
u ating
ĠD ak
ĠE ug
old s
Ġconf lic
Ġphr ase
Ġin duct
ĠTh ose
Ġport r
it ely
Ġinvest ment
ĠTra ining
Ġsix teen
Ġrefer ring
Ġredu ction
b al
Ġre in
ĠL ist
Ġsh ares
ici ency
Ġus ers
ult y
ĠCra ig
ens is
Ġair field
ĠMed ical
Ġw orn
ĠR ic
Ġchar ity
Ġcertain ly
re hens
Ġwe igh
ĠGall ery
en cing
ĠB ak
Ġ10 6
ax y
Ġvot ing
ĠAp oll
Ġrespect ive
Ġcle ared
ĠHar bor
Ġpra ising
ĠNich olas
Ġs oph
ĠM ust
Ġpark s
Ġlab our
st rong
ter y
ĠBl u
Ġconstitution al
ĠMosc ow
Ġex ceed
Ġl ock
Ġun w
Ġconn ections
Ġphot ography
Ġflow s
Ġtact ics
ĠT ax
Ġn it
Ġgross ing
Ġspok en
ed ing
Ġto ured
ff ield
Ġ15 4
Ġqual ifying
Ġbl ind
Ġsurv ival
ĠOs lo
ethel ess
ĠT ak
Ġshould er
ĠRal ph
g om
ĠS omet
Ġaut umn
ĠHarv ard
Ã «
ĠA ra
av or
ĠMark et
Ġswe et
ĠH ob
Ġcontin uous
ĠBur ton
ĠBenn ett
Ġf isher
ĠY ellow
Ġ16 7
Ġrul er
Ġre organ
Ġst uff
Ġcomm enced
Ġcommand ing
c ar
r h
ĠS ak
Ġn autical
ĠP y
ĠJ un
ĠAnd re
Ġpat ients
Ġconf idence
ĠSw iss
Ġtax es
Ġton nes
Ġunl ik
ic ated
ĠâĢ ¦
Ġopportun ities
ĠProfess or
Ġenthus i
ĠVinc ent
Ġf asc
Ġex ists
Ġlegisl ative
ĠPitts burgh
Ġtransport ed
O C
ĠL ock
ĠDe ep
Ġcommun ist
ĠPet ers
ĠD yn
Ġsign ature
Ġcompet itive
b es
at ers
ing ham
ĠP ic
Ġcamp s
Ġur anium
ĠC urt
Ġrel ocated
Ġtransl ated
h aw
Ġn at
Ġmel ody
ĠBroad cast
l ad
ĠJ TW
port ing
ĠJTW C
ĠA M
Ġt ested
Ġind eed
ĠDav ies
Ġrock s
Ġminor ity
ang er
Ġreinf orced
Ġf ulf
ill o
ash i
ĠAfter math
Ġtravel ing
Ġfair ly
Ġs overeign
Ġm oon
ces ter
Ġdec e
Ġcommand ers
Ġrev olt
Ġp airs
ĠR ud
Ġrev ised
min ster
ĠM ond
ĠN i
Ġ11 1
Ġnob le
ĠHug hes
h um
Ġimp ression
ĠSw ift
Ġcart oon
ĠSy ria
ĠC atherine
Ġman ga
Ġexpl icit
ĠB ald
Ġun con
Ġwithd rawn
Ġcrop s
ĠPr im
ĠIndones ia
ro st
Ġbl ues
ĠL ook
oc a
Ġacc ord
Ġprogram ming
urric anes
e ared
ĠA P
ĠG ot
ĠTh under
Ġextend ing
exp ected
Ġf ram
Ġdis char
ĠAl aska
Ġdispl aced
Ġp ap
ĠC O
Ġexper iments
ĠAnton io
Ġh ole
ut o
ri en
Ġear n
Ġprincip les
Ġvo ices
ĠK ate
Ġprom in
Ġext inct
av ia
Ġprov inces
ĠTra il
Be fore
ĠS om
ĠS weet
ation ally
Ġch ron
Ġrepresent ation
Ġmagn itude
Ġlearn s
is ive
ĠR P
Ġcon ce
se ud
Ġcharacter istic
uss ion
Ġprison er
Ġenf orce
od a
Ġdist ant
Ġcat al
ĠDar win
or ia
as ks
ĠL iving
Ġsum m
Ġcul min
ĠMay or
Ġs ample
Ġw onder
Ġc raft
T S
ĠU pper
Ġab use
Ġmar ine
Ġlight s
Ġinterpre ted
l en
ĠM ason
Ġ189 5
it ious
Ġwar fare
Ġn erv
ut ton
ach ing
Ġrel atives
ĠHer ald
ĠDon ald
ĠSimilar ly
ro oms
Ġcomp ound
Ġpract ical
est on
Ġappro aches
Ġrival ry
Ġhe m
Ġhe rit
ĠSec urity
ĠPict ures
ĠM S
ĠO ri
ĠAl i
Ġvict im
Ġcut s
ĠIsrael i
ĠCamer on
Ġ id
ĠL em
ĠMicro soft
Ġair ing
Ġdispl ays
z ed
Ġtrad itions
Ġjud g
Ġburn ing
Ġpropos als
Ġshif ted
Ġb ull
Ġcar ries
Ġsk ill
Ġlight ing
ĠJeff erson
Ġre hears
ĠIn v
ue z
Ġwar nings
ĠS id
Ġch ore
ĠSt ars
Ġblock ed
Ġgirl friend
Ġmultipl ayer
Ã ¥
Ġs ings
Ġrest ore
Ġmy ster
Ġgrad uate
Ġmedic ine
ĠP rop
ag s
ĠO range
Ġwe b
Ġreb els
Ġparticip ation
ĠDall as
Ġth under
Ġman s
Ġabs ent
Ġtransport ation
Ġprepar ing
amb ers
Ġscore s
ĠOff icer
ĠPh ys
Ġcon ven
ah a
ĠCl ay
Ġmar ch
ĠGu inea
ĠFall s
Ã ¢
um ped
Ġval uable
Ġinterview s
ĠW oman
Ġprot ests
Ġcycl ones
Ġbrill iant
Ġw ished
Ġr iding
Ġsal ary
Ġfilm m
ĠGr ace
ĠDef ense
O ther
mer ce
Ġpass ion
ĠTer ry
Ġsal v
ĠF u
Ġ10 2
Ġunlik ely
Ġc reek
Ġp ier
le ans
ĠC ass
ĠShe ffield
Ġrecover y
ber ry
Ġinf l
gin ning
Ġcab inet
oc ity
ĠCh ile
ĠAust in
ĠFin ally
Ġmaintain ing
ĠDesc ription
Ġdist ricts
Ġreform s
ĠC raw
im p
ĠWall ace
ĠForm ation
Ġcinem a
Ġf est
ur i
Ġinter vention
Ġg arn
Ġarg uing
ĠQue bec
Ġestim ates
ĠSte el
ĠDan ish
Ġcour ses
Ġgrand father
Ġdrum mer
Ġrac ial
U pon
ĠC hen
ĠR est
Ġcon tend
Ġcl ar
Ġam ph
Ġa ft
ĠQu est
Ġbene ath
Ġrecur ring
ĠF BI
ĠE mer
ĠSt ef
ĠV el
ĠGe off
i ar
ĠE c
Ġrele g
Ġsignific ance
Ġpet ition
ĠClass ic
Ġvulner able
ĠH av
ĠR u
our ce
Ġkill s
Ġtow ers
Ġe ating
ĠO sc
Ġup set
Ġadvert is
Ġaccur ate
ĠS ug
oc al
Ġdivers e
ĠT ai
ĠW ells
Ġval id
ĠBrazil ian
le te
ch a
ĠSus an
ĠA er
Ġstat istics
Ġcommunic ations
ĠAd v
ĠLu ke
ong e
ĠGreat est
ĠCat hedral
Ġspons ored
ĠAuthor ity
ĠG reater
Ġpar as
ĠAg ency
Ġapplic ations
Ġh ind
ot ing
ĠN ord
Ġ Ð
ĠE is
ĠOrig inally
re ated
Ġc ant
ĠE ff
Ġcl othes
ĠOr leans
M E
T wo
be at
Ġsh ock
Ġans w
ĠR ena
ose xual
Ġnumber ed
ĠC yrus
ĠH az
Ġun expected
ach ute
Ġair line
Ġeff icient
ĠOver all
er ver
ĠH alf
ĠPr incip
ab ilities
Ġsur ve
ĠGu itar
Ġto ler
ĠJohn ston
Ġste ep
Ġmor ph
Ġsac rif
Ġdecor ated
ĠG a
ĠSe ga
Ġshall ow
ĠConstant in
ut or
ĠW here
ĠE ve
Ġinc lusion
Ġlast ing
ĠEx per
it ate
ĠH D
ĠSp irit
Ġfac es
Ġess entially
ĠLar ry
Ġans wer
ĠGlob e
ĠMalays ia
w right
Ġt ale
Ġp m
Ġm ate
Ġg ender
Ġcons olid
ĠNe xt
Ġsurpris ed
ĠM I
aff e
ĠFour th
ĠClar ke
ĠR io
ĠD aw
ĠO wen
ip ped
Ġchart ed
ĠF r
Ġch ronic
Ġj et
ĠNe v
Ġemot ion
Ġm ood
Ġl iner
ĠBry an
un ning
Ġ186 1
ed ia
ash a
Ġ188 9
Ġdeep ly
ĠS ign
land ers
ĠY am
Ġbeat en
d ess
r ary
Ġthe ories
anc he
Ġsquad rons
ĠUt ah
ĠPars ons
Ã© t
Ġrat io
ĠSerb ian
Ġf ate
oc ation
Ġmer ged
ĠLoc al
ĠC BS
her s
Ġman age
Ġ15 8
Ġsum mit
Ġpot entially
ĠProv ince
ĠRe ich
aid en
Ġ189 4
Ġdra fted
ĠS ac
ke eper
Ġsusp ic
ĠPan zer
lev ard
ĠCult ural
Ġto urs
le x
ik o
cast le
Ġprocess es
ĠS alt
v et
Ġh o
ĠHe y
Ġ16 2
Ġgra ve
ĠJ unior
Ġsw it
Ġproport ion
re ens
Ġcr imes
T ube
ĠF isher
Ġdesc ent
ĠL ink
ĠO m
Ġ11 3
Ġsent ence
Ġ189 1
Ġdanc ers
Ġd ual
ĠK ane
Ġsc r
Ġdem o
N C
ĠI l
Ġbe ating
Ġcivil ians
Ġseg ments
ĠMcK in
Ġpersu aded
ens on
ĠRich mond
Ġmer c
Ġbeaut y
ĠArm strong
Ġd im
Ġd ense
Ġfund ed
Ġimplement ed
Ġherit age
Ġh ills
ĠA T
ĠNe il
ĠRepublic ans
AT O
ĠScient ology
Ġb oot
Ġaccommod ate
Ġb ell
Ġ100 0
Ġreact ions
ĠKa iser
Ġalt itude
as m
ĠG ay
ĠPr iv
ĠChel sea
ĠF ighter
ĠSt ill
Ġman ip
Ġcol ors
ĠV ers
Ġpresent ation
ĠAm b
Ġagricult ure
Ġp ip
ĠSe e
ĠAm endment
Ġstruct ural
Ġcompl ained
Ġ rib
Ġw ine
ist ent
Ġpro of
ap ing
Ġfe ared
ĠEn t
ĠPl ant
Ġadm inister
Ġdev oted
1 3
Ġcolumn s
b orn
ĠL iter
Ġev ident
Ġadd ressed
ĠX II
Ġsout heastern
Ġ <
Ġn urs
ock et
ĠSc ar
Ġrequ iring
Ġsail ing
ĠPict ure
Ġd warf
Ġre join
st s
ark s
bo ards
Ġ189 2
Ġori ented
ons in
Ġ15 6
Ġtri ang
ĠM end
Ġbreak s
g ie
t he
Ã© s
n i
s burg
Ġf ame
her ic
ys elf
ĠMu hammad
ĠA A
ĠC S
ol ar
Ġ13 5
Ġer ror
Ġobs ervation
ĠAct or
Ġj ack
ĠOr chest
Ġgold en
Ġtrib e
Ġtru ck
Ġvoy age
ĠT ogether
ĠIndones ian
Ġ18 00
Ġfollow ers
Ġrece pt
Ġmyth ology
Ġkid n
Ġc ards
is ons
Ġinteract ion
Ġpregn ant
ĠT ang
ĠS ox
ĠOff icial
Ġjud ges
Ġp ink
Ġg ene
ĠYou Tube
Ġresear chers
Ġre ct
ĠP S
Ġconf usion
Ġ24 0
Ġquar ters
usal em
Ġholid ay
Ġjurisd iction
b u
ul us
Ġâ ģ
ĠReg ister
M usic
ur st
ĠI van
ri fic
ĠS out
ant ed
Ġinter medi
oth y
Ġoper ates
Ġkne e
Ġrep ris
osp el
Ġsudden ly
Ġcateg ories
n t
at ched
Ġdiplom atic
ĠBuff alo
Ġsu gar
Ġwrit ings
ĠHar old
Ġcomment ing
Ġsuper st
Ġop ens
iz er
ph an
ious ly
osa urs
ĠSymph ony
n els
ĠPro duct
Ġemb arked
L e
l on
Ġt ension
Ġ15 3
Ġphys ics
Ġadv ancing
ĠMin or
ĠStud io
Ġsculpt ure
Ġhighlight ed
Ġâģ Ħ
ĠC avalry
Ġext ensively
Ġs ized
ĠE th
all s
qu est
omet ric
m aster
Ġf ert
Ġth rown
Ġbe ars
ĠN ature
od ed
Ġass um
Ġsimilar ities
isc onsin
Ġprincip le
ĠâĤ ¹
am ount
Ġg aining
Ġag es
Ġstud ying
ling ton
ĠAir lines
Ġchalleng es
Ġm ud
Ġto oth
ĠFer r
en os
Ġman if
ĠCons ervation
ĠB ible
Ġdro wn
Ġgard ens
ĠEd ition
Ġlif etime
ĠBurn s
Ġequ ally
Ġsent enced
Ġstat ements
Ġkn ocked
ĠP oly
Ġinf rastructure
Ġor ange
Ġfe e
Ġconstit u
ĠJer usalem
1 8
Ġg ift
Ġr ivals
Ġloc ally
Ġeduc ated
ĠCard iff
as er
ĠP ant
ĠW onder
ĠMet ropolitan
Ġunivers al
Ġdisturb ance
ĠPerform ance
ĠP ok
Ġdiv orce
ĠIslam ic
p ine
ĠS ultan
th odox
ĠSt uart
uck er
ĠGame Sp
m o
ĠH ope
ch i
Ġpred ators
ÃŃ n
Ġtradition ally
Ġbound aries
os ph
ĠE ight
ĠAl t
Ġdeal ing
Ġt ies
ĠP ast
ĠW a
ĠF itz
Ġvar iation
Ġpri est
k h
s or
ĠP rest
ĠConstant ine
ĠT yler
Ġg h
Ġsw ord
Ġoverl ook
ancell or
ĠNew ton
Ġdocument ed
a o
ĠB orn
Ġexpl aining
Ġempt y
Ġres olved
gom ery
Ġne p
ĠD ays
ĠCr us
Ġstret ch
Ġrece ives
Ġr ings
Ġsp awn
ĠGr ade
Ġ188 8
Ġvill ain
Ġen abled
Ġsettle ments
uls ion
Ġrecru ited
Ġdiscont in
Ġgarn ered
Ġt ape
Ġfor b
ĠG round
Ġsup ern
Ġconsider ably
Ġtrav elling
Ġ urg
ĠA ber
Ġn aming
Ġexpl ore
Ġcommerc ially
Ġbenef its
Ġf old
ĠC emetery
ĠG ang
Ġhel ps
Ġtick ets
Ġst rand
ĠW alt
Ġhost ile
back s
Ġresc ued
ĠApoll o
Ġc ry
Ġse as
ap le
Ġ188 5
Ġopt ions
ĠHe b
Ġcr ashed
Ġl ift
Ġsub stitute
ĠSc ots
Ġsm oke
Ġash ore
ov ak
Ġinvol ves
Ġweaken ing
Ġcl iff
Ġfle x
ĠAct ress
ĠQu ar
ĠPat ri
ĠHun ter
ĠH ad
Ġdis order
Ġbat ted
c ut
Ġd imin
ĠK id
Ġgu y
Ġtask ed
Ġprote ins
ĠCent ury
ĠBo eing
Ġconcer ning
ĠIndepend ence
w ald
Ġd ying
ren e
ĠTr ade
Ġhous ed
cel and
Ġescort ed
l ights
ĠW isconsin
ri ft
Ġdo ors
Ġdet ect
Ġsp ar
Ġass ert
Ġst yl
ag ers
ell ar
Ġdep icts
ĠLeg isl
ĠMov ie
ĠFI FA
ĠJoh ann
ĠD anny
ĠRe y
Ġep ic
u ters
z ing
Ġin ning
Ġv ig
ĠJo an
Ġcirc ular
ĠK yle
Ġinn oc
Ġpurs uit
Ġbor row
Ġvolunte ers
Ġconcur rent
Ġelabor ate
ĠA ges
ĠSch um
Ġgod s
ĠBalt ic
d s
gg ed
ĠBar on
Ġdin ner
Ġimprison ed
Ġin hib
É Ļ
Ġre ass
ĠC P
Ġn ut
ĠM ind
Ġauthor ized
Ġcollect ions
Ġwars hips
H S
ĠS ud
ĠEn v
Ġed itions
Ġcompet itions
ĠBrook s
Ġconflic ts
p iece
ĠF ull
Ġteam mate
Ã© n
ĠChrist ians
An other
b i
ĠC er
Ġ11 2
Ġpurs ued
l ane
ĠTh ames
ĠLe af
Ġ14 5
Ġtem po
ÃŃ a
ĠSat urn
h ill
Ġp ill
ĠB ud
ĠF act
Ġrev ival
Ġ186 5
ĠMont gomery
Ġf ra
Ġl iver
ĠN as
Ġr amp
Ġevent ual
Ġfavour ite
Ġpolit icians
Ġ97 8
u ction
v ar
ou rag
Ġhar bour
Ġf ron
Ġvirt ually
t ains
ĠR uth
ĠHe arts
Ġopp osing
Ġdra in
ĠElect ric
Ġbelief s
Ġcon j
rit ic
Ġscreen play
ĠJust in
Ġchem istry
s a
ĠM eth
Ġmanufact uring
Ġur ged
Ġrenew ed
Ġc am
ĠA ren
Ġab road
ĠEv il
ĠRog ers
Ġveter an
Ġ Ï
Ġch ase
ĠZ one
Ġhand ling
Ġc ensus
ĠM all
Ġmix ture
Ġc able
ĠAt hens
Ġportra it
Ġvel ocity
Ġst ones
ĠW es
Ġle af
Ġun ve
cl iff
ĠBar nes
ĠAb u
Ġexam ination
Ġsusp ected
Ġunivers ities
ĠIn s
el ing
Ġmed als
ĠB ask
ĠB ranch
Ġst olen
and o
ĠCom edy
Ġparticip ants
Ġcong ress
is ition
Ġr ushing
ubl in
Ġver te
Ġprom ise
ĠFl ore
ĠWith out
g ow
Ġl aps
Ġsp ur
ĠMid d
on ation
le m
ot ion
Ġtra iler
Ġ11 7
ĠTrib une
f or
Ġc ow
it ic
ĠU C
iz z
are st
Ġcol ours
Ġ15 9
Ġposs ess
Ġpromot ing
Ġrend ered
Ġremember ed
Ġc attle
Ġorgan isms
an im
Ġthere by
rid or
ĠMil es
Ġshark s
Ġinher ited
1 4
in ery
Ġpit cher
ĠRepresent atives
Ġt aste
Ġapp ly
Ġinter ven
Ġcom ics
ĠSe an
ĠT ourn
Ġcapt uring
ĠReg ional
Ġs or
ĠB ert
ĠI celand
ĠF ace
ĠRe port
ĠTur key
ĠAtt orney
ĠN eb
Ġtra pped
Ġdecre ased
Ġt el
Ġl oud
ĠC ode
Ġpro x
Ġdec ay
Ġpos itively
Ġtrack ed
Ġcost ume
ĠPier re
Ġbombard ment
Ġtiss ue
ĠN S
ist or
Ġmet ric
ĠEx ecutive
ĠP as
Ġv ital
Ġhop es
Ġcompos itions
Ġaccident ally
Ġinh ab
p oint
ĠT u
ĠT ow
ĠMag ic
ĠP ul
ob a
Ġra nd
Ġinv aded
Ġ45 0
Ġceleb ration
z h
ĠN ATO
oc c
Ġ11 4
a uc
ĠSp ider
Ġprot otype
rack s
ĠSher man
Ġble nd
Ġs av
is an
Ġth ro
ild a
Ġ11 8
Ġconfir m
Ġju ven
ro e
Ġoccas ional
ĠConstantin ople
Ġwar ned
ĠJud ge
Ġm aps
am pton
ĠD raft
ĠMac Arthur
Ġtorn ado
Ġ ib
ĠS yn
ĠF il
qu er
Ġlink s
er ts
ĠT itan
ĠS ic
ĠJ e
ĠPortug al
Ġhop ing
ĠHeavy weight
v o
Ġra ins
ĠNov a
Ġanticip ated
id ia
Ġup coming
ick ing
ĠW ed
Ġboy friend
ĠH unt
ov ic
rib le
Ġvari ations
ĠAff airs
Ġ186 4
á º
as p
ĠT oy
Ġb omber
ĠS af
Ġl augh
ĠC e
ĠB right
Ġsc andal
ĠNew castle
Ġsepar ation
Ġbatter ies
Î ±
Ġd ust
Ġdo zen
Ġprov isions
Ġmark ing
Ġgen u
Ġlabor atory
ĠChap el
L A
Ġs inking
Ġre ver
ig ious
Ġimp ressive
Ġaccess ible
col m
y an
ep s
Ġgu ests
Ġhoriz ont
ul um
Ġf ires
ick en
Ġbi ological
Ġeas ier
Ġn ose
Ġdepend ent
Ġnickn ame
ĠRe agan
ĠLeon ard
ne ys
rest rial
ĠLabor atory
f ly
l imin
ĠC row
Ġsupport s
Ġpolit ician
E R
ĠT ru
ĠG ran
ag les
ĠLiber ty
Ġparliament ary
Ġrand om
m ont
Î ¿
ĠF ern
art ime
Ġind igenous
Ġavo ided
b ing
ugh t
ĠBe h
Ġaff ord
Ġthreat s
ĠBarb ara
Ġconsum ption
1 6
Ġl ighter
ĠY outh
ĠLe v
ĠSte in
he ld
Ġf ed
ĠMar ines
Ġhand le
Ġthe rm
ĠJ oint
Ġprog ressed
am ine
Ġform ula
Ġel d
ĠGl as
en berg
ĠS ide
Ġdep uty
ats u
Ġbi ography
Ġrestrict ions
Ġf ier
ĠF ish
pt ic
Ġhy per
or f
ĠG on
ail ing
Ġvolcan ic
Ġcorpor ate
ĠD uch
ĠK rist
ĠCont rol
ĠRom ney
A m
am ics
ĠF low
ort ed
Ġtru ly
Ġc ash
Ġimp osed
ro gen
ĠM i
ĠN ancy
Ġtr unk
ĠMan agement
Ġmix ing
ĠArmen ian
Ġto xic
Ġd a
ag g
Ġr ugby
ĠV oice
Ġpartic les
Ġoccur ring
ĠMeteor ological
Ġf les
Ġus age
ĠBou levard
Ġmurd ered
ĠB apt
ia h
ĠB ears
ĠH as
Ġnot iced
Ġprodu ces
Ġlic ense
ĠProtest ant
A d
ĠC inc
Ġen h
iel der
ett a
Ġcust omers
Ġevac uation
chang ed
Ġdread n
al g
ĠL P
g el
Ġ ãĥ
Ġw ound
Ġp or
ĠM ang
Ġcont racts
Ġdefend ers
ĠCharl otte
o om
ĠS onic
Ġac re
heim er
ĠC inem
Ġex ile
ĠEn ergy
op les
ach t
ĠK on
Ġcat hedral
ĠFriend s
Ġcho ir
Ġlawsu it
ĠD ublin
Ġrel ation
Ġ186 2
ĠCorn wall
ĠOrchest ra
os y
ĠE RA
Ġpre st
Ġw ake
en z
ĠJos Ã©
Ġspec ulation
Ġkill er
Ġord inary
ĠGu ild
Ġtim ber
ĠAgain st
Ġintellect ual
Ġnep hew
ĠEnv ironment
Ġdeb ris
Ġengine ers
j u
p in
ĠC hester
Ġhe nce
Ġpl ates
ĠAg u
Ġang ry
ĠIn vest
Ġ10 7
ĠAnt ar
Ġdepict ing
Ġdisappoin ted
h l
ĠT ree
ĠAthlet ic
Ġas ide
ĠZ h
Ġeast ward
b ach
uc he
Ġf ab
Ġdevelop ments
ĠX X
Ġthreat ening
ĠMet ro
ĠMer ced
ĠFre edom
ĠL ower
ĠRe f
Ġkil og
Ġign ored
Ġconqu est
ĠC ase
ĠM ix
ĠF ight
ĠTh an
Ġindust ries
Ġdecre ase
ĠS aw
ĠCh air
ne x
emb le
Ġly rical
ĠSl av
Ġencoun ters
S he
on ial
over ed
Ġterrit orial
Ġthrow ing
d ed
ĠC ena
ĠEr nest
Ġcomplic ated
Ġw ard
ĠA ction
Ġch rom
ĠSe x
Ġmechan ism
Ġundert aken
Ġrevolution ary
ĠÄ Ĳ
Ġthunder storm
Ġm it
Ġun e
ĠSh ah
ĠCont inental
Ġs tern
ĠC ryst
Ġbre ast
umber ed
Ġvic inity
Ġm ounts
ĠS kin
ĠP eng
ra v
ĠLe ices
Ġconv icted
let t
Ġel ite
Ġstri kes
Ġhuman ity
ĠRo om
Ġtouchdown s
Ġc u
it ol
ac o
os ion
op ic
ph al
Ġrem in
Ġconf ident
Ġchampionship s
Ġconvers ation
Ġm os
ĠT erm
ol ia
Ġexhib it
W A
ent ieth
Ġ22 0
Ġfocus es
ĠB reak
ĠAlbert a
Ġmamm als
Ġinaug ural
Ġp enn
ĠC and
ĠM V
Ġcont acted
Ġent ert
Ġ15 7
Ġlack ing
Ġg if
Ġreal istic
Ġhon est
Ġsusp ension
ĠLu ft
ĠCinc inn
ĠB eth
Ġpres erve
Ġbo ost
Ġfarm ers
u ber
it ure
it ime
Ġa rose
Ġconst antly
Ġfac il
ĠOsc ar
et ary
ĠD J
ĠV eg
Ġmet re
ĠCol lection
Ġhelic opter
Ġst im
ĠV ick
ik ed
Ġpost s
uk a
Th rough
ĠArch bishop
ĠCh ad
Ġinf ection
Ġdiam ond
ĠSerb ia
ĠSpring field
Ġto ols
ig a
Ġpat ri
ĠOther s
Ġ å
ĠZ ero
ĠPet e
ĠMusl ims
y c
ic ing
oc ol
ell ers
ĠMich a
Ġvot ers
ĠCare er
ĠTourn ament
Ġin fer
Ġfe athers
Ġ184 0
Ġcollabor ated
Ġpredomin antly
ĠC anu
om ed
Ġun t
Ġass erted
Ġphot o
Ġthor ough
ĠT ake
Ġdes per
han ced
ĠPed ro
1 1
ort ion
ral tar
ud i
get t
Ġpat ient
Ġabsor bed
ĠYugoslav ia
Ġcent ered
ĠW atch
Ġrele asing
Ġcast les
isc her
oir s
quir y
H g
Ġh oles
Ġus er
Ġt une
Ġm ad
Ġgrow s
Ġremov ing
Ġpen insula
ĠH om
ĠL S
ub ble
H owever
ew ork
Ġillust rated
ĠMalt a
ĠR I
ĠU k
Ġap olog
Ġexplan ation
Ġp ig
Ġknow s
Ġspeed s
onn ie
Ġsust ain
ass y
ss on
au ge
ĠMarsh al
Ġcomp iled
Ġres id
Ġant ib
Ġret rie
reg ular
Ġbreed s
ĠTy phoon
ĠGab ri
Ġcancel ed
Ġis n
ĠG lee
Ġ12 6
ah l
ĠPl ace
Ġsit uations
Ġbow l
ĠChamber lain
ĠF uture
Ġatt orney
enn ial
Ġindepend ently
ĠNorm andy
Ġrelie ved
ĠCincinn ati
in ter
ĠA L
Ġen orm
Ġen com
ĠG ates
Ġshe ep
Ġ13 2
ĠMal colm
ĠSh iva
Ġroad way
Ġ188 7
ĠVeg as
Ġl over
ĠV illa
ission ed
ĠKenn eth
as ury
ĠS ection
ĠF ly
ĠCom ics
Ġple ased
D own
o i
en cer
ĠPark s
ĠL ords
Ġoff shore
ĠAn y
en burg
ĠM aine
ut ter
Ġcl ergy
Ġmar ched
Ġlay ers
m usic
Ã ´
Ġa est
ĠGib raltar
ĠAll iance
rel s
Ġlocomot ives
g Ã©
h art
Ġout standing
Ġview ing
Ġpros per
ĠTai wan
ul ates
Ġcould n
Ġ11 9
ĠIsa ac
Ġp aying
Ġare na
Ġbl ast
Ġgen res
ĠB ark
Ġexp anding
Ġ186 3
ic ular
ĠC het
ĠK in
Ġclos ure
ĠTra ff
Ġvary ing
ĠAfghan istan
£ o
ĠK az
Ġback st
ring e
Ġm ild
Ġbut ter
over ty
ĠEd die
ĠVII I
h all
Ġm ask
Ġcol ored
ĠRe ed
Ġ188 6
ĠBrad ley
in stein
av an
ĠSh ield
Ġsent iment
Ġdisapp eared
umber land
ĠOr d
y ers
Ġb apt
iz ard
Ġl ib
Ġreg ulations
Ġreport ing
Ġsuggest ion
ĠM aced
art ing
Ġper c
z es
Ġsp ir
rib ution
Ġceleb rate
ĠRevolution ary
ĠBrook lyn
Ġg rid
Ġarm oured
ĠTechn ology
im ony
ĠJ NA
ane ous
Ġdro pping
Ġas c
Ġfung us
limin ary
f ound
ĠP el
ĠTom my
Ġconspir acy
Ġinduct ed
Ġ ËĪ
Ġf ant
ip her
Ġfac ulty
g us
ac ular
ish n
ĠMor ning
Ġattract ion
ĠT int
ĠJ ake
ĠTw itter
ĠWat ers
Ġrep orter
ĠBrown s
Ġrom ance
ĠM ann
ĠK ill
Ġfl our
Ġnever theless
Ġcompan ion
ĠCons ervative
Ġe agle
ĠD ud
Ġcon ced
ĠShe p
ĠHis pan
ĠMad ison
Ġwitness es
Ġbl amed
Ġt ent
le ted
ĠT ir
ĠT rad
Ġsub mer
Ġswe pt
f eld
Ġab b
Ġa f
in ated
Ġfund amental
Ġox id
ĠWag ner
Ġp seud
Ġrem ote
Ġpublic ity
Ġorgan ic
f low
Ġst ored
ĠP ay
Ġat op
od ium
ĠTh r
ĠOr ton
Ġposition ed
Ġsubmar ines
b ie
Ġwh atever
Ġpark ing
ĠPrinc eton
Ġa qu
Ġs ulf
ĠR ush
ĠCycl one
om on
Ġan nex
Ġret reated
ĠOrgan ization
ed a
Ġm ail
Ġvers es
N ew
g ary
el in
Ġst ability
Ġfort ifications
Ġf ract
Ġl ung
ĠC ort
ust ers
ĠRob in
Ġfocus ing
Ġshel ter
Ġcondem ned
Ġin Hg
Ġprog ressive
Ġtarget ed
ubb ard
Ġno ise
ĠTig ers
Ġg entle
ĠE ld
Ġsw ing
en ess
ĠR us
ĠR ear
ĠN ation
Ġ188 4
