{"<|endoftext|>":0,"<|pad|>":1,"<|unk|>":2,"!":3,"\"":4,"#":5,"$":6,"%":7,"&":8,"'":9,"(":10,")":11,"*":12,"+":13,",":14,"-":15,".":16,"/":17,"0":18,"1":19,"2":20,"3":21,"4":22,"5":23,"6":24,"7":25,"8":26,"9":27,":":28,";":29,"<":30,"=":31,">":32,"?":33,"@":34,"A":35,"B":36,"C":37,"D":38,"E":39,"F":40,"G":41,"H":42,"I":43,"J":44,"K":45,"L":46,"M":47,"N":48,"O":49,"P":50,"Q":51,"R":52,"S":53,"T":54,"U":55,"V":56,"W":57,"X":58,"Y":59,"Z":60,"[":61,"\\":62,"]":63,"^":64,"_":65,"`":66,"a":67,"b":68,"c":69,"d":70,"e":71,"f":72,"g":73,"h":74,"i":75,"j":76,"k":77,"l":78,"m":79,"n":80,"o":81,"p":82,"q":83,"r":84,"s":85,"t":86,"u":87,"v":88,"w":89,"x":90,"y":91,"z":92,"{":93,"|":94,"}":95,"~":96,"¡":97,"¢":98,"£":99,"¤":100,"¥":101,"¦":102,"§":103,"¨":104,"©":105,"ª":106,"«":107,"¬":108,"®":109,"¯":110,"°":111,"±":112,"²":113,"³":114,"´":115,"µ":116,"¶":117,"·":118,"¸":119,"¹":120,"º":121,"»":122,"¼":123,"½":124,"¾":125,"¿":126,"À":127,"Á":128,"Â":129,"Ã":130,"Ä":131,"Å":132,"Æ":133,"Ç":134,"È":135,"É":136,"Ê":137,"Ë":138,"Ì":139,"Í":140,"Î":141,"Ï":142,"Ð":143,"Ñ":144,"Ò":145,"Ó":146,"Ô":147,"Õ":148,"Ö":149,"×":150,"Ø":151,"Ù":152,"Ú":153,"Û":154,"Ü":155,"Ý":156,"Þ":157,"ß":158,"à":159,"á":160,"â":161,"ã":162,"ä":163,"å":164,"æ":165,"ç":166,"è":167,"é":168,"ê":169,"ë":170,"ì":171,"í":172,"î":173,"ï":174,"ð":175,"ñ":176,"ò":177,"ó":178,"ô":179,"õ":180,"ö":181,"÷":182,"ø":183,"ù":184,"ú":185,"û":186,"ü":187,"ý":188,"þ":189,"ÿ":190,"Ā":191,"ā":192,"Ă":193,"ă":194,"Ą":195,"ą":196,"Ć":197,"ć":198,"Ĉ":199,"ĉ":200,"Ċ":201,"ċ":202,"Č":203,"č":204,"Ď":205,"ď":206,"Đ":207,"đ":208,"Ē":209,"ē":210,"Ĕ":211,"ĕ":212,"Ė":213,"ė":214,"Ę":215,"ę":216,"Ě":217,"ě":218,"Ĝ":219,"ĝ":220,"Ğ":221,"ğ":222,"Ġ":223,"ġ":224,"Ģ":225,"ģ":226,"Ĥ":227,"ĥ":228,"Ħ":229,"ħ":230,"Ĩ":231,"ĩ":232,"Ī":233,"ī":234,"Ĭ":235,"ĭ":236,"Į":237,"į":238,"İ":239,"ı":240,"Ĳ":241,"ĳ":242,"Ĵ":243,"ĵ":244,"Ķ":245,"ķ":246,"ĸ":247,"Ĺ":248,"ĺ":249,"Ļ":250,"ļ":251,"Ľ":252,"ľ":253,"Ŀ":254,"ŀ":255,"Ł":256,"ł":257,"Ń":258,"Ġt":259,"he":260,"Ġa":261,"in":262,"Ġthe":263,"er":264,"on":265,"Ġ,":266,"re":267,"Ġs":268,"ed":269,"Ġw":270,"Ġo":271,"nd":272,"at":273,"Ġ.":274,"or":275,"en":276,"Ġc":277,"it":278,"Ġf":279,"is":280,"es":281,"ar":282,"Ġb":283,"Ġof":284,"an":285,"Ġin":286,"al":287,"ing":288,"Ġp":289,"as":290,"Ġand":291,"Ġto":292,"ic":293,"ro":294,"Ġm":295,"Ġd":296,"Ġh":297,"ion":298,"le":299,"ou":300,"ĠT":301,"Ġre":302,"il":303,"ĠS":304,"ent":305,"Ġ\"":306,"Ġ1":307,"ĠA":308,"Ġth":309,"st":310,"el":311,"Ġl":312,"Ġ@":313,"ĠC":314,"om":315,"Ġe":316,"čĊ":317,"Ġ=":318,"am":319,"Ġn":320,"ad":321,"ac":322,"Ġwas":323,"ĠM":324,"ec":325,"Ġon":326,"ĠB":327,"ly":328,"ur":329,"Ġ'":330,"et":331,"id":332,"ol":333,"Ġg":334,"im":335,"-@":336,"Ġ@-@":337,"Ġfor":338,"ir":339,"ig":340,"iv":341,"ot":342,"ter":343,"ut":344,"ĠThe":345,"ĠI":346,"ĠH":347,"Ġas":348,"us":349,"ow":350,"ith":351,"ay":352,"Ġst":353,"Ġ2":354,"ĠP":355,"Ġhe":356,"ver":357,"ation":358,"Ġwith":359,"Ġbe":360,"Ġthat":361,"ĠR":362,"ce":363,"un":364,"ĠD":365,"em":366,"Ġwh":367,"ch":368,"Ġby":369,"th":370,"ĠW":371,"Ġal":372,"Ġ)":373,"ĠF":374,"Ġ(":375,"ul":376,"Ġis":377,"Ġcon":378,"ers":379,"Ġat":380,"ĠL":381,"ĠG":382,"ct":383,"ra":384,"ĠN":385,"os":386,"Ġan":387,"Ġ19":388,"Ġit":389,"her":390,"rom":391,"and":392,"um":393,"est":394,"00":395,"ĠJ":396,"Ġhis":397,"ag":398,"av":399,"ain":400,"ĠE":401,"ri":402,"od":403,"Ġfrom":404,"ist":405,"Ġcom":406,"Ġv":407,"Ġpro":408,"op":409,"ill":410,"ore":411,"ĠO":412,"if":413,"ld":414,"up":415,"Ġr":416,"ew":417,"ere":418,"res":419,"igh":420,"ies":421,"Ġde":422,"ber":423,"art":424,"ard":425,"ort":426,"Ġse":427,"ich":428,"Ġwere":429,"ate":430,"all":431,"ak":432,"ant":433,"oc":434,"ud":435,"ap":436,"Ġex":437,"qu":438,"ong":439,"ab":440,"Ġch":441,"Ġor":442,"gh":443,"ear":444,"ess":445,"ated":446,"ĠK":447,"Ġpl":448,"Ġsh":449,"ity":450,"ip":451,"ive":452,"ame":453,"Ġâ":454,"Ġhad":455,"ect":456,"ĠU":457,"ack":458,"ĠIn":459,"ĠâĢ":460,"Ġsu":461,"ast":462,"se":463,"red":464,"Ġk":465,"ĠSt":466,"ge":467,"Ġwhich":468,"our":469,"ment":470,"Ġle":471,"und":472,"Ġare":473,"ov":474,"ian":475,"ial":476,"Ġnot":477,"ell":478,"Ġsp":479,"ost":480,"Ġy":481,"ight":482,"ia":483,"ord":484,"ust":485,"ary":486,"ine":487,"ther":488,"pt":489,"rit":490,"Ġ3":491,"oun":492,"pp":493,"ical":494,"ave":495,"Ġun":496,"ĠCh":497,"cc":498,"Ġ200":499,"Ġinc":500,"fter":501,"ould":502,"Ġbut":503,"irst":504,"ish":505,"te":506,"ous":507,"ĠV":508,"ff":509,"ions":510,"so":511,"Ġcomp":512,"ide":513,"Ġ20":514,"Ġro":515,"ure":516,"Ġwhe":517,"ub":518,"Ġar":519,"Ġcont":520,"ie":521,"Ġ;":522,"og":523,"ign":524,"Ġfirst":525,"Ġcl":526,"wo":527,"Ġher":528,"ry":529,"ue":530,"Ġits":531,"ass":532,"Ġtheir":533,"orm":534,"ĠâĢĵ":535,"ok":536,"ork":537,"Ġint":538,"Ġres":539,"Ġ:":540,"ater":541,"Ġalso":542,"Ġab":543,"ond":544,"Ġad":545,"ome":546,"out":547,"ran":548,"ĠHe":549,"mer":550,"ire":551,"hed":552,"ru":553,"Ġus":554,"age":555,"du":556,"Ġ4":557,"ime":558,"The":559,"low":560,"Ġper":561,"per":562,"Ġwho":563,"Ġ5":564,"Ġone":565,"Ġhave":566,"Ġsc":567,"pl":568,"ally":569,"own":570,"ile":571,"Ġrec":572,"ted":573,"Ġ18":574,".@":575,"Ġ@.@":576,"Ġtwo":577,"ition":578,"ugh":579,"ĠTh":580,"iz":581,"ree":582,"ence":583,"ts":584,"uring":585,"port":586,"Ġbeen":587,"Ġpart":588,"Ġbec":589,"ice":590,"Ġhas":591,"Ġag":592,"Ġapp":593,"ough":594,",@":595,"Ġ@,@":596,"Ġ201":597,"Ġj":598,"Ġen":599,"Ġdis":600,"lud":601,"ke":602,"Ġover":603,"Ġser":604,"Ġthis":605,"ory":606,"ely":607,"Ġyear":608,"ations":609,"ember":610,"ren":611,"ction":612,"ound":613,"ach":614,"Ġoff":615,"Ġafter":616,"ric":617,"Ġup":618,"land":619,"ĠAl":620,"Ġplay":621,"Ġdes":622,"ace":623,"ark":624,"over":625,"ance":626,"Ġout":627,"Ġthey":628,"Ġman":629,"ade":630,"Ġte":631,"ĠIt":632,"act":633,"Ġother":634,"ib":635,"man":636,"ult":637,"Ġim":638,"ph":639,"ress":640,"Ġinclud":641,"ced":642,"ens":643,"urn":644,"ĠY":645,"wn":646,"Ġwould":647,"ind":648,"Ġtime":649,"one":650,"Ġpre":651,"Ġinto":652,"vel":653,"ward":654,"we":655,"Ġwe":656,"Ġhim":657,"ite":658,"oin":659,"ates":660,"ĠUn":661,"Ġ6":662,"Ġshe":663,"les":664,"Ġev":665,"ilm":666,"Ġatt":667,"ased":668,"Ġne":669,"ited":670,"able":671,"end":672,"ied":673,"ase":674,"amp":675,"Ġcomm":676,"ors":677,"ne":678,"Ġinter":679,"are":680,"rough":681,"oy":682,"ons":683,"ount":684,"ep":685,"form":686,"Ġall":687,"ose":688,"ood":689,"ang":690,"Ġmore":691,"ces":692,"Ġwork":693,"Ġ7":694,"ail":695,"old":696,"aw":697,"ered":698,"ings":699,"ve":700,"ild":701,"Ġnew":702,"Ġsec":703,"Ġbet":704,"inal":705,"Ġfe":706,"Ġfilm":707,"ick":708,"Ġwhen":709,"vi":710,"ents":711,"way":712,"att":713,"ft":714,"iss":715,"aus":716,"fer":717,"gan":718,"Ġ8":719,"reat":720,"rib":721,"Ġcons":722,"ĠAn":723,"round":724,"ake":725,"Ġrem":726,"ved":727,"ĠMar":728,"Ġtr":729,"ĠSe":730,"Ġdec":731,"ason":732,"ĠAr":733,"ans":734,"Ġduring":735,"Ġund":736,"orth":737,"ubl":738,"hip":739,"Ġ9":740,"Ġagain":741,"Ġmost":742,"Ġgame":743,"oth":744,"Ġthem":745,"Ġonly":746,"Ġpr":747,"ath":748,"ween":749,"ix":750,"Ġ199":751,"Ġear":752,"ollow":753,"Ġthan":754,"ob":755,"rop":756,"Ġsup":757,"ss":758,"ational":759,"fore":760,"Ġabout":761,"Ġprodu":762,"ug":763,"Ġcent":764,"tern":765,"Ġret":766,"Ġchar":767,"Ġsong":768,"Ġcan":769,"ĠNew":770,"outh":771,"Ġbetween":772,"Ġlater":773,"Ġrele":774,"Ġunder":775,"ict":776,"Ġkn":777,"Ġthree":778,"ton":779,"ron":780,"Ġcol":781,"Ġact":782,"Ġ00":783,"hn":784,"als":785,"Ġqu":786,"Ġthrough":787,"orld":788,"ook":789,"Ġnum":790,"Ġso":791,"Ġme":792,"Ġacc":793,"Ġrel":794,"Ġwhile":795,"ĠEn":796,"Ġra":797,"Ġend":798,"meric":799,"In":800,"lect":801,"Ġfl":802,"ever":803,"ters":804,"ĠAmeric":805,"ock":806,"Ġpos":807,"ral":808,"ĠLe":809,"Ġsub":810,"ning":811,"ular":812,"Ġass":813,"ating":814,"Ġver":815,"Ġwhere":816,"Ġday":817,"ck":818,"Ġreg":819,"Ġsecond":820,"ener":821,"aid":822,"Ġbu":823,"Ġmade":824,"ames":825,"ision":826,"ived":827,"ĠRe":828,"Ġpe":829,"Ġrecord":830,"ĠCom":831,"Ġdef":832,"bum":833,"Ġfour":834,"Ġgro":835,"Ġfollow":836,"Ġseason":837,"son":838,"Ġ000":839,"Ġep":840,"Ġform":841,"Ġsome":842,"Ġsuch":843,"Ġam":844,"ool":845,"ished":846,"Ġmov":847,"Ġbefore":848,"Ġtra":849,"hes":850,"Ġmus":851,"Ġwrit":852,"Ġthere":853,"ics":854,"io":855,"Ġspec":856,"iel":857,"ike":858,"Ġ10":859,"ĠSp":860,"Ġyears":861,"Ġsy":862,"ode":863,"Ġteam":864,"ual":865,"ident":866,"Ġ/":867,"Ġlar":868,"ĠOn":869,"Ġalbum":870,"Ġind":871,"hen":872,"ily":873,"owever":874,"ĠJo":875,"Ġent":876,"Ġused":877,"Ġcall":878,"ank":879,"Ġsur":880,"ific":881,"ll":882,"Ġac":883,"ury":884,"Ġhigh":885,"Ġpubl":886,"Ġbeing":887,"orn":888,"ĠThis":889,"Ġepis":890,"ĠSh":891,"ained":892,"Ġthen":893,"ten":894,"velop":895,"aj":896,"Ġdo":897,"Ġloc":898,"Ġexp":899,"ife":900,"ris":901,"Ġagainst":902,"Ġ17":903,"Ġinv":904,"Ġbl":905,"Ġ0":906,"Ġpres":907,"Ġshow":908,"other":909,"Ġnumber":910,"Ġcharac":911,"ious":912,"Ġsever":913,"Ġadd":914,"ale":915,"Ġco":916,"Ġset":917,"ince":918,"ject":919,"ars":920,"Ġbecame":921,"Ġrece":922,"ause":923,"ek":924,"Ġlead":925,"Ġperform":926,"ĠBrit":927,"Ġno":928,"Ġincluding":929,"Ġsing":930,"ather":931,"ins":932,"ines":933,"ĠâĢĶ":934,"Ġfound":935,"ĠAt":936,"air":937,"rans":938,"Ġwell":939,"Ġmon":940,"Ġrep":941,"ĠUnited":942,"Ġpol":943,"ĠAs":944,"Ġback":945,"Ġboth":946,"ier":947,"Ġcap":948,"Ġseries":949,"Ġ15":950,"Ġ12":951,"ober":952,"Ġ198":953,"ram":954,"ĠSc":955,"ik":956,"ower":957,"Ġship":958,"ement":959,"its":960,"ert":961,"ired":962,"ures":963,"ley":964,"ivers":965,"pen":966,"Ġmain":967,"Ġmin":968,"Ġ194":969,"iet":970,"der":971,"overn":972,"Ġdid":973,"ven":974,"Ġgo":975,"led":976,"Ġcre":977,"elf":978,"olog":979,"Ġimp":980,"Ġdevelop":981,"Ġmet":982,"az":983,"ĠShe":984,"ities":985,"ane":986,"ĠCon":987,"Ġlong":988,"iver":989,"any":990,"ised":991,"erm":992,"ĠEng":993,"ting":994,"uch":995,"ared":996,"ird":997,"Ġem":998,"Ġmill":999,"ful":1000,"Ġair":1001,"Ġmat":1002,"Ġepisode":1003,"tend":1004,"irect":1005,"Ġsaid":1006,"Ġstud":1007,"Ġmany":1008,"ute":1009,"Ġbro":1010,"ash":1011,"ative":1012,"Ġdep":1013,"Ġcar":1014,"Ġcould":1015,"Ġorig":1016,"Ġ16":1017,"Ġwar":1018,"Ġcontin":1019,"ann":1020,"Ġseveral":1021,"ah":1022,"though":1023,"Ġdif":1024,"ield":1025,"ĠJohn":1026,"Ġinst":1027,"Ġpop":1028,"ouse":1029,"ĠAmerican":1030,"ise":1031,"emb":1032,"Ġknown":1033,"ty":1034,"ĠInd":1035,"ĠCl":1036,"Ġ197":1037,"ĠWh":1038,"ually":1039,"til":1040,"Ġconc":1041,"Ġ11":1042,"Ġ196":1043,"iam":1044,"view":1045,"ĠAust":1046,"erson":1047,"Ġob":1048,"ued":1049,"Ġsm":1050,"Ġreturn":1051,"erman":1052,"Ġbegan":1053,"Ġany":1054,"ĠWar":1055,"Ġcomple":1056,"Ġdesign":1057,"Ġdesc":1058,"Ġsign":1059,"ople":1060,"chool":1061,"ross":1062,"my":1063,"ism":1064,"oot":1065,"Ġest":1066,"ccess":1067,"Ġtrans":1068,"ern":1069,"ĠZ":1070,"Ġprov":1071,"aking":1072,"Ġfeat":1073,"ided":1074,"Ġinf":1075,"anc":1076,"Ġrun":1077,"Ġearly":1078,"ĠDe":1079,"Ġart":1080,"ized":1081,"Ġdist":1082,"Ġmusic":1083,"Ġown":1084,"Ġnear":1085,"Ġreleased":1086,"Ġuntil":1087,"Ġcalled":1088,"Ġeff":1089,"ĠAfter":1090,"imes":1091,"ĠBl":1092,"rid":1093,"ists":1094,"une":1095,"Ġresp":1096,"Ġbel":1097,"Ġpass":1098,"stem":1099,"ured":1100,"Ġfin":1101,"ĠCol":1102,"ially":1103,"Ġph":1104,"ĠUS":1105,"ĠBe":1106,"ution":1107,"Ġdown":1108,"ĠMay":1109,"Ġdisc":1110,"ments":1111,"Ġcrit":1112,"osed":1113,"xt":1114,"Ġdirect":1115,"Ġgener":1116,"ys":1117,"Ġalong":1118,"ium":1119,"Ġins":1120,"Ġmillion":1121,"ger":1122,"enn":1123,"ull":1124,"ax":1125,"Ġgroup":1126,"Ġoffic":1127,"vent":1128,"Ġfam":1129,"ĠBritish":1130,"Ġ13":1131,"ĠGerman":1132,"Ġthese":1133,"ajor":1134,"Ġmod":1135,"eb":1136,"Ġmay":1137,"cept":1138,"Ġ$":1139,"Ġopen":1140,"ange":1141,"Ġmil":1142,"Ġpoin":1143,"uc":1144,"gg":1145,"Ġland":1146,"Ġsim":1147,"Ġhist":1148,"Ġgovern":1149,"ĠAug":1150,"Ã©":1151,"ĠSept":1152,"Ġsuccess":1153,"erv":1154,"ĠSeptember":1155,"ets":1156,"ĠAugust":1157,"ĠStates":1158,"ible":1159,"ink":1160,"Ġgu":1161,"Ġoper":1162,"Ġcount":1163,"Ġattack":1164,"ĠAd":1165,"Ġsame":1166,"Ġuse":1167,"wards":1168,"Ġdescrib":1169,"Ġpeople":1170,"ĠWorld":1171,"ĠAp":1172,"yp":1173,"aced":1174,"Ġcharacter":1175,"amed":1176,"Ġbecause":1177,"els":1178,"Ġvi":1179,"Ġlike":1180,"Ġ14":1181,"Ġserv":1182,"ged":1183,"ĠJu":1184,"Ġaround":1185,"Ġstart":1186,"Ġthough":1187,"Ġed":1188,"ner":1189,"Ġwin":1190,"Ġkm":1191,"Ġ195":1192,"ĠIs":1193,"Ġconst":1194,"ues":1195,"ring":1196,"Ġtook":1197,"Ġocc":1198,"ruct":1199,"aving":1200,"Ġbatt":1201,"ĠFran":1202,"ove":1203,"ĠOct":1204,"Ġsupport":1205,"ĠQ":1206,"ĠAustral":1207,"Ġfollowing":1208,"Ġsix":1209,"Ġnorth":1210,"Ġele":1211,"ĠNov":1212,"Ġ193":1213,"ĠPl":1214,"Ġsystem":1215,"Ġappear":1216,"uss":1217,"ene":1218,"ĠAll":1219,"Ġfinal":1220,"Ġreceived":1221,"Ġclass":1222,"ined":1223,"ĠOctober":1224,"ives":1225,"Ġhead":1226,"Ġprom":1227,"Ġconsid":1228,"rad":1229,"ants":1230,"ĠCar":1231,"ling":1232,"Ġann":1233,"ility":1234,"ically":1235,"Ġever":1236,"Ġstate":1237,"Ġ191":1238,"Ġbuild":1239,"ĠDec":1240,"ĠPro":1241,"ret":1242,"ĠHowever":1243,"Ġeach":1244,"ĠFor":1245,"anu":1246,"Ġext":1247,"Ġfive":1248,"rist":1249,"Ġaut":1250,"Ġcentury":1251,"ina":1252,"Ġvar":1253,"Ġbo":1254,"Ġwill":1255,"Ġarea":1256,"ĠYork":1257,"ately":1258,"Ġsmall":1259,"get":1260,"oss":1261,"Ġpartic":1262,"Ġlife":1263,"iving":1264,"ril":1265,"Ġreport":1266,"Ġ]":1267,"ĠMe":1268,"tle":1269,"ĠThey":1270,"ored":1271,"ĠNorth":1272,"ians":1273,"ording":1274,"ĠJune":1275,"Ġcity":1276,"Ġ[":1277,"Ġcontro":1278,"gin":1279,"Ġmar":1280,"ped":1281,"Ġmajor":1282,"Ġweek":1283,"Ġpublic":1284,"Ġ%":1285,"ission":1286,"Ġconf":1287,"ĠJuly":1288,"Ġband":1289,"ection":1290,"Ġref":1291,"med":1292,"inc":1293,"ĠKing":1294,"ĠNovember":1295,"urch":1296,"Ġrest":1297,"Ġworld":1298,"Ġmed":1299,"Ġsince":1300,"esp":1301,"Ġsingle":1302,"raft":1303,"raph":1304,"por":1305,"ble":1306,"ĠApril":1307,"ĠComm":1308,"ey":1309,"ains":1310,"ried":1311,"lish":1312,"Ġdet":1313,"omet":1314,"Ġjust":1315,"ĠHar":1316,"ĠMarch":1317,"Ġlast":1318,"ected":1319,"ural":1320,"ional":1321,"hest":1322,"aim":1323,"Ġturn":1324,"ively":1325,"ĠPh":1326,"Ġhel":1327,"ilt":1328,"Ġallow":1329,"Ġpo":1330,"ĠWill":1331,"cl":1332,"Ġ30":1333,"ient":1334,"vious":1335,"ĠCan":1336,"Ġleft":1337,"Ġlarge":1338,"Ġline":1339,"ats":1340,"Ġdiffer":1341,"ĠMc":1342,"ales":1343,"Ġcare":1344,"Ġsouth":1345,"ĠEd":1346,"Ġadv":1347,"ified":1348,"Ġdr":1349,"Ġstr":1350,"Ġbook":1351,"Ġvers":1352,"empt":1353,"Ġschool":1354,"Ġsl":1355,"ĠSouth":1356,"..":1357,"ĠBro":1358,"ague":1359,"Ġthird":1360,"ĠDecember":1361,"avy":1362,"Ġincre":1363,"Ġmonth":1364,"Ġ25":1365,"Ġdue":1366,"Ġappro":1367,"ĠGe":1368,"Ġplayed":1369,"Ġmuch":1370,"rote":1371,"Ġevent":1372,"Ġif":1373,"Ġanother":1374,"anuary":1375,"row":1376,"Ġincluded":1377,"Ġwhat":1378,"ĠJanuary":1379,"Ġ192":1380,"Ġplace":1381,"Ġbased":1382,"Ġshort":1383,"ony":1384,"ĠII":1385,"by":1386,"Ġexpl":1387,"Ġgovernment":1388,"Ġperson":1389,"ball":1390,"Ġwrote":1391,"Ġtrack":1392,"apan":1393,"Ġcamp":1394,"Ġtit":1395,"Ġold":1396,"Ġbre":1397,"alf":1398,"Ġname":1399,"Ġdeath":1400,"Ġport":1401,"ently":1402,"Ġelect":1403,"ĠPr":1404,"ĠEu":1405,"ple":1406,"rent":1407,"ience":1408,"Ġeng":1409,"Ġwon":1410,"Ġchild":1411,"Ġprot":1412,"Ġlit":1413,"ĠJapan":1414,"Ġkill":1415,"Ġprog":1416,"oad":1417,"Ġ...":1418,"Ġstory":1419,"ideo":1420,"ages":1421,"Ġpower":1422,"ĠBy":1423,"Ġreview":1424,"ody":1425,"Ġvis":1426,"ital":1427,"Ġhome":1428,"ott":1429,"Ġled":1430,"ps":1431,"eng":1432,"ont":1433,"Ġdescribed":1434,"Ġrequ":1435,"oman":1436,"Ġprevious":1437,"Ġfamily":1438,"ney":1439,"Ġgun":1440,"rand":1441,"ĠTe":1442,"ĠOr":1443,"yl":1444,"Ġway":1445,"Ġnamed":1446,"Ġright":1447,"Ġnow":1448,"tain":1449,"Ġdem":1450,"urther":1451,"iod":1452,"iven":1453,"ilar":1454,"Ġmen":1455,"Ġeven":1456,"Ġmake":1457,"embers":1458,"Ġorgan":1459,"reen":1460,"ister":1461,"cy":1462,"iversity":1463,"omin":1464,"Ġattempt":1465,"Ġbest":1466,"itions":1467,"sh":1468,"ĠMus":1469,"Ġcour":1470,"Ġ100":1471,"Ġrepl":1472,"ivision":1473,"Ġopp":1474,"Ġleg":1475,"ĠÂ":1476,"rench":1477,"Ġgames":1478,"ior":1479,"ĠGu":1480,"ached":1481,"Ġterm":1482,"Ġcommand":1483,"ival":1484,"Ġhand":1485,"Ġposs":1486,"mp":1487,"Ġbelie":1488,"Ġdam":1489,"Ġvery":1490,"ean":1491,"ox":1492,"Ġthose":1493,"ebru":1494,"Ġpar":1495,"lu":1496,"ebruary":1497,"Ġiss":1498,"Ġstill":1499,"ĠFebruary":1500,"ĠEurop":1501,"Ġtop":1502,"Ġnext":1503,"Ġspecies":1504,"Ġeffect":1505,"riend":1506,"Ġview":1507,"ched":1508,"oci":1509,"Ġoriginal":1510,"ature":1511,"ences":1512,"Ġspe":1513,"aken":1514,"ĠNational":1515,"Ġwater":1516,"ness":1517,"Ġaddition":1518,"Ġjoin":1519,"ĠChrist":1520,"ĠFl":1521,"ĠAnd":1522,"Ġlist":1523,"au":1524,"hor":1525,"Ġperiod":1526,"Ġwithin":1527,"alk":1528,"Ġmembers":1529,"Ġmark":1530,"Ġdeb":1531,"eter":1532,"Ġheld":1533,"Ġbuilt":1534,"ĠHis":1535,"Ġexper":1536,"af":1537,"Ġrelease":1538,"Ġlate":1539,"Ġalthough":1540,"Ġformer":1541,"rew":1542,"ĠFrench":1543,"Ġmatch":1544,"Ġgreat":1545,"Ġ2010":1546,"augh":1547,"ridge":1548,"ĠWe":1549,"Ġcur":1550,"Ġdest":1551,"Ġsold":1552,"uted":1553,"tended":1554,"Ġvideo":1555,"ĠBar":1556,"ards":1557,"Ġcaus":1558,"Ġ21":1559,"line":1560,"ĠPar":1561,"Ġstorm":1562,"Ġcover":1563,"ech":1564,"ves":1565,"Ġinit":1566,"Ġrole":1567,"ropical":1568,"Ġtri":1569,"self":1570,"hel":1571,"Ġcame":1572,"Ġestab":1573,"Ġdays":1574,"ances":1575,"Ġresult":1576,"Ġmid":1577,"Ġpresent":1578,"ĠWest":1579,"na":1580,"lev":1581,"aged":1582,"ption":1583,"oon":1584,"ĠX":1585,"ulation":1586,"Ġstand":1587,"Ġreal":1588,"Ġpolit":1589,"ham":1590,"Ġhowever":1591,"itary":1592,"aster":1593,"ĠAm":1594,"ĠWhen":1595,"Ġprop":1596,"let":1597,"omb":1598,"Ġ2008":1599,"ense":1600,"atic":1601,"ides":1602,"Ġfew":1603,"Ġtown":1604,"Ġwind":1605,"ead":1606,"ĠWilliam":1607,"Ġ2009":1608,"Ġyou":1609,"Ġ24":1610,"ograph":1611,"Ġtw":1612,"Ġside":1613,"Ġsk":1614,"ĠMin":1615,"Ġcontinued":1616,"Ġoften":1617,"Ġequ":1618,"Ġpost":1619,"ays":1620,"Ġlocal":1621,"elt":1622,"ĠMan":1623,"ator":1624,"Ġamong":1625,"Ġsimilar":1626,"ruction":1627,"Ġ2011":1628,"ract":1629,"Ġhum":1630,"Ġav":1631,"Ġclaim":1632,"estern":1633,"omen":1634,"ches":1635,"ung":1636,"ĠAir":1637,"Ġ&":1638,"side":1639,"reet":1640,"read":1641,"akes":1642,"ĠGeor":1643,"Ġdifferent":1644,"ĠEngland":1645,"ese":1646,"ops":1647,"Ġmy":1648,"Ġdel":1649,"ler":1650,"Ġbeh":1651,"ology":1652,"ĠHer":1653,"arm":1654,"par":1655,"Ġtyp":1656,"Ġfurther":1657,"Ġsent":1658,"tal":1659,"Ġ22":1660,"esc":1661,"ots":1662,"ested":1663,"Ġlevel":1664,"urs":1665,"Ġfre":1666,"Ġconsidered":1667,"Ġtake":1668,"Ġlaw":1669,"ĠDuring":1670,"ery":1671,"gy":1672,"Ġcareer":1673,"ĠMich":1674,"rodu":1675,"Ġ2007":1676,"Ġproduction":1677,"ĠChar":1678,"ĠEar":1679,"me":1680,"Ġhalf":1681,"ices":1682,"On":1683,"Ġant":1684,"ampions":1685,"Ġhaving":1686,"bo":1687,"ĠNo":1688,"ĠCity":1689,"ĠPark":1690,"Ġmag":1691,"Ġroad":1692,"Ġeast":1693,"Ġmoved":1694,"sp":1695,"Ġdra":1696,"ering":1697,"ĠEnglish":1698,"rig":1699,"Ġcor":1700,"Ġevery":1701,"Ġwest":1702,"Ġwithout":1703,"ĠEl":1704,"Ġtro":1705,"Ġcr":1706,"ĠThere":1707,"ĠRec":1708,"Ġappe":1709,"Ġplan":1710,"ining":1711,"ĠDav":1712,"Ġplayer":1713,"Ġposition":1714,"Ġbecome":1715,"Ġarr":1716,"Ġhistory":1717,"ront":1718,"ĠCo":1719,"Ġversion":1720,"vers":1721,"ĠCent":1722,"ford":1723,"ondon":1724,"ones":1725,"Ġ2012":1726,"Ġcast":1727,"Ġel":1728,"Ġinflu":1729,"ize":1730,"Ġarm":1731,"ĠCount":1732,"ald":1733,"Ġhouse":1734,"yle":1735,"Ġ23":1736,"Ġsound":1737,"Ġfore":1738,"irc":1739,"Ġcommun":1740,"resent":1741,"app":1742,"ĠLondon":1743,"Ġgr":1744,"ĠAng":1745,"Ġclub":1746,"roy":1747,"Ġsugg":1748,"aul":1749,"atter":1750,"Ġke":1751,"Ġstrong":1752,"Ġinvol":1753,"ĠBatt":1754,"ai":1755,"Ġwritten":1756,"aining":1757,"Ġ190":1758,"Ġbas":1759,"Ġstat":1760,"Ġless":1761,"oung":1762,"utes":1763,"Ġannoun":1764,"rest":1765,"Ġfoot":1766,"iqu":1767,"Ġorder":1768,"ĠRiver":1769,"Ġrefer":1770,"iety":1771,"iment":1772,"ges":1773,"Ġprof":1774,"craft":1775,"ĠCal":1776,"Ġaff":1777,"Ġpoint":1778,"yn":1779,"sequ":1780,"Ġtem":1781,"Ġgiven":1782,"Ġrad":1783,"Ġlow":1784,"Ġtrad":1785,"Ġhig":1786,"ĠCanad":1787,"Ġwant":1788,"ille":1789,"Ġgave":1790,"ĠUniversity":1791,"Ġpat":1792,"uck":1793,"isc":1794,"Ġimport":1795,"Ġnever":1796,"aff":1797,"Ġchang":1798,"Ġdefe":1799,"ories":1800,"Ġsoc":1801,"Ġreturned":1802,"ration":1803,"ae":1804,"ĠOne":1805,"Ġvict":1806,"Ġtotal":1807,"Ġfact":1808,"Ġgood":1809,"ention":1810,"Ġcontrol":1811,"Ġcompany":1812,"Ġfire":1813,"ailed":1814,"Ġcountry":1815,"Ġwent":1816,"ison":1817,"Ġcomb":1818,"cess":1819,"Ġfriend":1820,"ĠGener":1821,"ours":1822,"rick":1823,"Ġcapt":1824,"Ġpublished":1825,"ĠPol":1826,"aun":1827,"Ġproduced":1828,"ĠHigh":1829,"levision":1830,"con":1831,"Ġfind":1832,"aying":1833,"Ġreported":1834,"Ġorigin":1835,"aign":1836,"Ġlost":1837,"Ġstated":1838,"Ġcommon":1839,"Ġprogram":1840,"Ġ2006":1841,"Ġlight":1842,"ington":1843,"Ġparticular":1844,"ape":1845,"Ġord":1846,"echn":1847,"Ġadm":1848,"Ġinclude":1849,"ĠTr":1850,"ests":1851,"ccording":1852,"bs":1853,"Ġlarg":1854,"ably":1855,"urric":1856,"Ġcompet":1857,"Ġer":1858,"used":1859,"Ġrecorded":1860,"ief":1861,"Ġbuilding":1862,"Ġpress":1863,"Ġneed":1864,"Ġbus":1865,"Ġproject":1866,"hing":1867,"Ġforces":1868,"ĠEx":1869,"ument":1870,"Ġnort":1871,"Ġships":1872,"ĠSm":1873,"Ġshould":1874,"Ġ27":1875,"Ġusing":1876,"Ġeight":1877,"Ġ50":1878,"Ġ28":1879,"Ġperformance":1880,"iness":1881,"Ġservice":1882,"Ġpopular":1883,"Ġide":1884,"ploy":1885,"Ġtimes":1886,"osp":1887,"Ġmaking":1888,"Ġten":1889,"Ġaircraft":1890,"Ġhimself":1891,"oyal":1892,"Ġfun":1893,"Ġauthor":1894,"Ġfather":1895,"atch":1896,"Ġmilitary":1897,"Ġanim":1898,"Ġ2013":1899,"lear":1900,"Ġbattle":1901,"ampionship":1902,"ĠSw":1903,"ned":1904,"Ġsit":1905,"Ġlim":1906,"Ġsongs":1907,"Ġsomet":1908,"Ġread":1909,"ef":1910,"outher":1911,"ĠAustralia":1912,"Ġcritic":1913,"ensive":1914,"ither":1915,"ĠAf":1916,"ords":1917,"Ġdevelopment":1918,"oll":1919,"ĠSec":1920,"Ġsw":1921,"ĠAss":1922,"Ġhow":1923,"Ġgl":1924,"Ġ40":1925,"alth":1926,"eth":1927,"itive":1928,"ases":1929,"ĠAb":1930,"Ġsol":1931,"ĠNe":1932,"quad":1933,"eder":1934,"Ġ26":1935,"outhern":1936,"ĠThese":1937,"ĠJack":1938,"Ġcross":1939,"cer":1940,"ĠCor":1941,"ks":1942,"Ġrepresent":1943,"Ġ189":1944,"amb":1945,"Ġground":1946,"Ġdestroy":1947,"acy":1948,"Ġstar":1949,"Ġft":1950,"Ġremained":1951,"ĠGeneral":1952,"astern":1953,"Ġste":1954,"ĠState":1955,"Ġcharacters":1956,"Ġnational":1957,"ĠArmy":1958,"Ġget":1959,"ries":1960,"work":1961,"Ġmonths":1962,"Ġsuff":1963,"ĠSy":1964,"Ġgen":1965,"Ġdied":1966,"aur":1967,"Ġter":1968,"ublic":1969,"Ġdeveloped":1970,"Ġtitle":1971,"dom":1972,"Ġsum":1973,"Ġchart":1974,"Ġcampaign":1975,"fic":1976,"ream":1977,"urricane":1978,"Ġforce":1979,"ĠPres":1980,"Ġchildren":1981,"Ġintrodu":1982,"lands":1983,"ency":1984,"Ġpra":1985,"ĠBo":1986,"ĠLeague":1987,"Ġtour":1988,"Ġpromot":1989,"ĠJames":1990,"itted":1991,"isted":1992,"ael":1993,"Ġson":1994,"Ġsignific":1995,"Ġred":1996,"ĠComp":1997,"Ġacross":1998,"ĠGl":1999,"Ġaway":2000,"ression":2001,"hern":2002,"Ġrelations":2003,"Ġobs":2004,"ĠAlthough":2005,"Ġhistor":2006,"Ġfield":2007,"Ġofficial":2008,"ole":2009,"Ġfav":2010,"ĠDivision":2011,"Ġfelt":2012,"lege":2013,"ĠAmerica":2014,"Ġnoted":2015,"Ġfac":2016,"ĠWith":2017,"Ġnight":2018,"alt":2019,"Ġannounced":2020,"most":2021,"Ġreached":2022,"ĠSte":2023,"Ġintern":2024,"Ġche":2025,"Ġcreated":2026,"Ġareas":2027,"com":2028,"ĠCounty":2029,"Ġtelevision":2030,"Ġcoun":2031,"ĠRuss":2032,"Ġstation":2033,"ressed":2034,"ĠRoad":2035,"Ġsuccessful":2036,"Ġrock":2037,"Ġ2005":2038,"ĠJapanese":2039,"imately":2040,"Ġval":2041,"ĠRep":2042,"ising":2043,"Ġvarious":2044,"ĠâĢĻ":2045,"Ġbar":2046,"Ġpolitical":2047,"Ġseen":2048,"ĠStreet":2049,"Ġfollowed":2050,"Ġaver":2051,"iber":2052,"field":2053,"iting":2054,"Ġtoo":2055,"ĠMor":2056,"Ġrank":2057,"ĠSup":2058,"ett":2059,"Ġ29":2060,"Ġperformed":2061,"cast":2062,"ĠSim":2063,"Ġcult":2064,"ization":2065,"ope":2066,"Ġserved":2067,"Ġplayers":2068,"reg":2069,"ĠMon":2070,"Ġrev":2071,"Ġcond":2072,"ality":2073,"Ġprim":2074,"Ġdecl":2075,"ĠMad":2076,"Ġfull":2077,"Ġ2014":2078,"ination":2079,"Ġblack":2080,"elling":2081,"Ġbegin":2082,"Ġfle":2083,"Ġput":2084,"duct":2085,"Ġcirc":2086,"abor":2087,"Ġconv":2088,"ĠReg":2089,"Ġearl":2090,"olution":2091,"ĠGr":2092,"ĠEast":2093,"Ġcost":2094,"ĠWhile":2095,"idence":2096,"Ġprocess":2097,"Ġsee":2098,"Ġnon":2099,"Ġdiv":2100,"Ġstyle":2101,"ying":2102,"Ġlook":2103,"Ġseven":2104,"Ġaud":2105,"Ġvol":2106,"Ġkilled":2107,"Ġcy":2108,"Ġhelp":2109,"rict":2110,"Ġlet":2111,"play":2112,"lished":2113,"Ġthroughout":2114,"bor":2115,"Ġtaken":2116,"Ġtropical":2117,"Ġable":2118,"ana":2119,"ĠSer":2120,"Ġfight":2121,"Ġdiscover":2122,"Ġagre":2123,"ecut":2124,"ertain":2125,"Ġlittle":2126,"Ġwid":2127,"Ġbecom":2128,"Ġfem":2129,"Ġage":2130,"urg":2131,"Ġsignificant":2132,"ĠPhil":2133,"Ġhit":2134,"Ġmeet":2135,"Ġident":2136,"irl":2137,"ways":2138,"Ġtechn":2139,"ĠHen":2140,"ĠAccording":2141,"ĠGeorge":2142,"Ġspecial":2143,"ĠRober":2144,"Ġcop":2145,"ĠBill":2146,"oice":2147,"Ġwriting":2148,"Ġstruct":2149,"Ġthought":2150,"Ġestablished":2151,"Ġbroad":2152,"Ġfront":2153,"enced":2154,"Ġmm":2155,"Ġappeared":2156,"Ġdoes":2157,"Ġcoll":2158,"Ġentire":2159,"aval":2160,"cil":2161,"epend":2162,"ĠEm":2163,"Ġyoung":2164,"Ġcoast":2165,"Ġpoints":2166,"Ġ!":2167,"Ġmiles":2168,"ius":2169,"Ġbody":2170,"less":2171,"Ġaward":2172,"Ġimpro":2173,"ĠAustralian":2174,"Ġroute":2175,"Ġmember":2176,"odes":2177,"ought":2178,"ground":2179,"ript":2180,"Ġwomen":2181,"Ġactiv":2182,"Ġrange":2183,"ask":2184,"ivil":2185,"here":2186,"ms":2187,"Ġcaused":2188,"Ġstarted":2189,"Ġdecided":2190,"ster":2191,"iers":2192,"ĠPart":2193,"Ġfeatures":2194,"day":2195,"lected":2196,"ĠAct":2197,"ĠSch":2198,"Ġgeneral":2199,"Ġpain":2200,"ĠPer":2201,"Ġeventually":2202,"ators":2203,"iron":2204,"iec":2205,"ĠAfric":2206,"men":2207,"int":2208,"ĠThom":2209,"ĠMed":2210,"umb":2211,"den":2212,"ĠYou":2213,"conom":2214,"oph":2215,"ogn":2216,"Ġrace":2217,"Ġarch":2218,"uk":2219,"Ġvot":2220,"itar":2221,"Ġgrow":2222,"Ġmanag":2223,"Ġfeet":2224,"pped":2225,"ush":2226,"rison":2227,"Ġtoget":2228,"Ġtogether":2229,"Ġadded":2230,"Ġtre":2231,"ĠDavid":2232,"Ġhold":2233,"Ġcut":2234,"ĠRoyal":2235,"bert":2236,"ĠRich":2237,"ivid":2238,"Ġwhite":2239,"ĠHouse":2240,"Ġonce":2241,"Ġnov":2242,"ample":2243,"ament":2244,"Ġformed":2245,"Ġ188":2246,"Ġarg":2247,"Ġlocated":2248,"ĠQu":2249,"reek":2250,"off":2251,"Ġstri":2252,"ĠPe":2253,"urb":2254,"Ġconn":2255,"Ġmodern":2256,"Ġenc":2257,"Ġinstead":2258,"dle":2259,"head":2260,"rought":2261,"aces":2262,"orts":2263,"Ġround":2264,"Ġesc":2265,"ara":2266,"Ġball":2267,"emy":2268,"Ġ31":2269,"Ġmix":2270,"Ġimportant":2271,"Ġpri":2272,"Ġcrew":2273,"cing":2274,"Ġsaw":2275,"Ġaction":2276,"Ġcompleted":2277,"Ġredu":2278,"Ġplaying":2279,"ects":2280,"oney":2281,"ids":2282,"cent":2283,"rated":2284,"ells":2285,"ĠItal":2286,"ata":2287,"ĠBlack":2288,"Ġinsp":2289,"ĠIndian":2290,"Ġbase":2291,"Ġmater":2292,"ĠIntern":2293,"Ġ2004":2294,"Ġpopulation":2295,"Ġmot":2296,"Ġsurv":2297,"ĠHist":2298,"Ġvoc":2299,"lin":2300,"Ġask":2301,"ray":2302,"Ġrather":2303,"Ġoccur":2304,"Ġopened":2305,"sc":2306,"Ġstage":2307,"Ġbehind":2308,"Ġothers":2309,"Ġfall":2310,"Ġguns":2311,"Ġ186":2312,"Ġren":2313,"asing":2314,"ceed":2315,"Ġbrother":2316,"wood":2317,"ements":2318,"igned":2319,"Ġcomment":2320,"Ġlik":2321,"stit":2322,"Ġfif":2323,"Ġsite":2324,"Ġlive":2325,"Ġworks":2326,"nder":2327,"Ġloss":2328,"Ġbomb":2329,"Ġworked":2330,"Ġ2015":2331,"ficult":2332,"ĠTo":2333,"Ġheavy":2334,"Ġmiss":2335,"Ġpred":2336,"ĠFrance":2337,"Ã¡":2338,"medi":2339,"rap":2340,"Ġsubsequ":2341,"Ġlack":2342,"Ġparty":2343,"Ġproble":2344,"lection":2345,"Ġdifficult":2346,"Ġclose":2347,"Ġconstruction":2348,"Ġknow":2349,"ĠSchool":2350,"Ġrelationship":2351,"arch":2352,"Ġhost":2353,"Ġweeks":2354,"ĠMy":2355,"istic":2356,"Ġoriginally":2357,"Ġsepar":2358,"Ġassoci":2359,"Ġupon":2360,"Ġpract":2361,"Ġreb":2362,"Ġleading":2363,"Ġappoin":2364,"lic":2365,"Ġaccom":2366,"Ġvill":2367,"Ġalmost":2368,"ĠSan":2369,"Ġmer":2370,"Ġpeak":2371,"co":2372,"Ġinj":2373,"Ġdamage":2374,"ĠWash":2375,"ĠNor":2376,"ĠMichael":2377,"unk":2378,"Ġborn":2379,"Ġscored":2380,"Ġfourth":2381,"osition":2382,"ĠEurope":2383,"Ġinform":2384,"ica":2385,"Ġmor":2386,"Ġreve":2387,"Ġprovided":2388,"ming":2389,"Ġcase":2390,"Ġgoal":2391,"Ġclos":2392,"board":2393,"aps":2394,"Ġengine":2395,"Ġcreat":2396,"Ġaccept":2397,"Ġmi":2398,"Ġ2000":2399,"Ġinvest":2400,"ĠBattle":2401,"to":2402,"Ġscene":2403,"ellow":2404,"ĠPort":2405,"Ġhuman":2406,"angu":2407,"ule":2408,"ino":2409,"ological":2410,"Ġbrought":2411,"Ġfree":2412,"Ġ500":2413,"Ġindivid":2414,"Ġfeatured":2415,"ula":2416,"Ġmother":2417,"Ġ187":2418,"ĠBest":2419,"Ġleast":2420,"Ġking":2421,"ama":2422,"Ġworking":2423,"Ġallowed":2424,"Ġlaun":2425,"Ġresul":2426,"Ġaverage":2427,"Ġtowards":2428,"Ġwanted":2429,"Ġmult":2430,"ĠStar":2431,"Ġindust":2432,"aves":2433,"Ġtradition":2434,"aut":2435,"ĠRed":2436,"Ġregion":2437,"ĠMusic":2438,"Ġbusiness":2439,"After":2440,"ĠHenry":2441,"ĠAle":2442,"iding":2443,"azine":2444,"ee":2445,"ĠVir":2446,"Ġve":2447,"Ġquick":2448,"Ġtroops":2449,"Ġplaced":2450,"Ġeither":2451,"Ġrespect":2452,"Ġce":2453,"ving":2454,"Ġoffice":2455,"Ġcritics":2456,"ky":2457,"ĠPresident":2458,"Ġavail":2459,"Ġhon":2460,"antic":2461,"Ġreach":2462,"Ġprofess":2463,"Ġexample":2464,"Ġmaterial":2465,"Ġruns":2466,"Ġeconom":2467,"Ġrecogn":2468,"Ġfar":2469,"ĠQue":2470,"go":2471,"ĠWashington":2472,"ened":2473,"Ġwife":2474,"ĠHol":2475,"ĠRou":2476,"earch":2477,"chie":2478,"Ġneg":2479,"Ġestim":2480,"ential":2481,"Ġarmy":2482,"Ġz":2483,"Ġfoc":2484,"right":2485,"espite":2486,"Ġsex":2487,"ĠMil":2488,"Ġinterest":2489,"ĠCap":2490,"ĠGro":2491,"Ġsour":2492,"ĠOther":2493,"ength":2494,"Ġgenerally":2495,"Ġmass":2496,"Ġ2003":2497,"Ġjoined":2498,"Ġrail":2499,"Ġdou":2500,"ĠÃ":2501,"ills":2502,"quadron":2503,"ĠPaul":2504,"Ġproper":2505,"ĠCour":2506,"ĠAg":2507,"enes":2508,"ĠBel":2509,"Ġcurrent":2510,"Ġdev":2511,"ourn":2512,"ĠCro":2513,"uff":2514,"Ġevents":2515,"of":2516,"ĠCup":2517,"Ġbelieved":2518,"itch":2519,"Ġparticip":2520,"ĠRobert":2521,"rey":2522,"Ġfig":2523,"ĠKe":2524,"ollowing":2525,"ville":2526,"Ġ35":2527,"ĠHall":2528,"oor":2529,"ĠAngel":2530,"Ġvictory":2531,"Ġreplaced":2532,"artment":2533,"Ġdesigned":2534,"Ġmph":2535,"iction":2536,"Ġgrad":2537,"Ġrul":2538,"ĠHam":2539,"ĠGame":2540,"itte":2541,"Ġsoon":2542,"Ġnomin":2543,"Ġisland":2544,"Ġfund":2545,"xic":2546,"erous":2547,"Ġhours":2548,"ĠGreat":2549,"Ġemploy":2550,"Ġpresident":2551,"uel":2552,"Ġroom":2553,"itor":2554,"ification":2555,"arn":2556,"Ġinvolved":2557,"aled":2558,"val":2559,"Ġsurf":2560,"Ġfinished":2561,"ze":2562,"merc":2563,"inist":2564,"Ġstru":2565,"ĠEuropean":2566,"rac":2567,"ĠChampionship":2568,"asion":2569,"west":2570,"inf":2571,"inn":2572,"Ġbreak":2573,"aper":2574,"ĠMary":2575,"aren":2576,"ĠLou":2577,"Ġhor":2578,"rain":2579,"iff":2580,"Ġsaying":2581,"ĠFirst":2582,"emor":2583,"Ġcourt":2584,"Ġshot":2585,"Ġthreat":2586,"Ġscore":2587,"Ġopening":2588,"Ġregular":2589,"ĠRoman":2590,"BC":2591,"Ġdirector":2592,"Ġdesp":2593,"Ġlength":2594,"leg":2595,"cher":2596,"ĠLa":2597,"ades":2598,"Ġindic":2599,"Ġconduct":2600,"Ġlargest":2601,"Ġcontrib":2602,"Ġtravel":2603,"Ġhom":2604,"oul":2605,"ki":2606,"Ġpossible":2607,"ecutive":2608,"now":2609,"Ġminutes":2610,"Ġill":2611,"Ġhighway":2612,"Ġdro":2613,"Ġsouthern":2614,"ishing":2615,"Ġhy":2616,"ĠMal":2617,"icle":2618,"Ġhighest":2619,"Ġremov":2620,"Ġearlier":2621,"Ġinitially":2622,"Ġtest":2623,"ago":2624,"Ġly":2625,"ĠMart":2626,"ĠPlay":2627,"Ġavailable":2628,"Ġparticularly":2629,"Ġpercent":2630,"ander":2631,"antry":2632,"Ġhard":2633,"anned":2634,"Ġsequ":2635,"Ġtraining":2636,"Ġ2001":2637,"ĠAtl":2638,"ude":2639,"Ġmust":2640,"Ġforced":2641,"ply":2642,"Ġexist":2643,"ipp":2644,"ĠRepublic":2645,"hib":2646,"ĠVal":2647,"rian":2648,"ography":2649,"asy":2650,"Ġpark":2651,"ĠDan":2652,"ĠÂ°":2653,"ĠNavy":2654,"ĠScott":2655,"ĠSome":2656,"ĠMet":2657,"ĠBer":2658,"ateg":2659,"Ġrespons":2660,"Ġended":2661,"Ġquar":2662,"ĠDon":2663,"ĠKingdom":2664,"ĠMac":2665,"ĠRoute":2666,"Ġturned":2667,"Ġwall":2668,"Ġexc":2669,"Ġsocial":2670,"uture":2671,"ĠSing":2672,"Ġstudio":2673,"ems":2674,"ĠDr":2675,"iforn":2676,"rag":2677,"ĠMid":2678,"ios":2679,"Ġchange":2680,"Ġlangu":2681,"ĠMag":2682,"Ġpraised":2683,"Ġpassed":2684,"Ġpriv":2685,"Ġbill":2686,"atural":2687,"Ġpiec":2688,"Ġincreased":2689,"Ġobject":2690,"ĠWil":2691,"rup":2692,"Ġsuper":2693,"Ġeduc":2694,"Ġhurricane":2695,"Ġregard":2696,"Ġnorthern":2697,"heast":2698,"ĠDep":2699,"ĠInternational":2700,"Ġkeep":2701,"Ġphys":2702,"Ġcentral":2703,"ights":2704,"Ġnovel":2705,"Ġ2002":2706,"Ġrelig":2707,"ĠChurch":2708,"Ġspeed":2709,"Ġappearance":2710,"Ġunits":2711,"Ġpast":2712,"ership":2713,"ĠCharles":2714,"ĠOff":2715,"key":2716,"Ġstop":2717,"ĠCanada":2718,"oring":2719,"rem":2720,"Ġchurch":2721,"ended":2722,"Ġimmedi":2723,"Ġcou":2724,"ĠCaliforn":2725,"ĠVirgin":2726,"uter":2727,"ĠBut":2728,"Ġsym":2729,"ston":2730,"ocr":2731,"Ġdisp":2732,"ĠWhite":2733,"Ġmeas":2734,"Ġordered":2735,"aughter":2736,"ĠThomas":2737,"Ġtreat":2738,"Ġprob":2739,"ĠBay":2740,"Ġtaking":2741,"ference":2742,"ĠPal":2743,"ĠSen":2744,"rying":2745,"ĠRock":2746,"ĠBrown":2747,"ittee":2748,"ĠMcC":2749,"sel":2750,"Ġlove":2751,"Ġindepend":2752,"Ġsigned":2753,"Ġmove":2754,"ique":2755,"ĠRes":2756,"ilities":2757,"Ġachie":2758,"etwork":2759,"Ġbetter":2760,"ump":2761,"Ġpers":2762,"ĠCalifornia":2763,"itz":2764,"ĠSl":2765,"aker":2766,"ĠUnion":2767,"Ġap":2768,"arily":2769,"ecess":2770,"Ġinn":2771,"Ġwinds":2772,"Ġcommerc":2773,"Ġwat":2774,"Ġenough":2775,"Ġpositive":2776,"ĠIsland":2777,"ears":2778,"nel":2779,"ma":2780,"Ġaccording":2781,"Ġhous":2782,"ume":2783,"ĠSmith":2784,"Ġspent":2785,"ĠMo":2786,"ĠMer":2787,"ĠCourt":2788,"elled":2789,"Ġgoing":2790,"Ġpot":2791,"Ġabove":2792,"apt":2793,"Ġslow":2794,"anks":2795,"Ġoutside":2796,"Ġfilms":2797,"ĠGovern":2798,"ĠGod":2799,"Ġfeel":2800,"Ġtold":2801,"ĠSam":2802,"Ġfootball":2803,"berg":2804,"quare":2805,"Ġclear":2806,"Ġpreviously":2807,"uation":2808,"Ġstates":2809,"Ġquest":2810,"Ġrecording":2811,"ĠTwo":2812,"Ġmean":2813,"anding":2814,"ĠAward":2815,"leb":2816,"Ġnine":2817,"ĠAlex":2818,"het":2819,"Ġ60":2820,"Ġpur":2821,"usion":2822,"Ġ1990":2823,"Ġsubject":2824,"hem":2825,"Ġfailed":2826,"atin":2827,"ows":2828,"onst":2829,"Ġassist":2830,"ĠCong":2831,"ĠRichard":2832,"Ġcome":2833,"ĠAssoci":2834,"Ġrequired":2835,"reng":2836,"osing":2837,"ĠCompany":2838,"van":2839,"Ġelements":2840,"Ġ45":2841,"Ġey":2842,"ida":2843,"Ġcru":2844,"alion":2845,"ĠBra":2846,"ĠVict":2847,"Ġlower":2848,"Ġreviews":2849,"Ġinterview":2850,"edy":2851,"Ġphot":2852,"Ġparts":2853,"Ġitself":2854,"Ġsil":2855,"Ġnar":2856,"Ġthink":2857,"ranch":2858,"Ġdirected":2859,"ĠIndia":2860,"Ġabs":2861,"isl":2862,"As":2863,"Ġflow":2864,"Ġesp":2865,"ibility":2866,"ĠGermany":2867,"Ġdespite":2868,"ship":2869,"Ġcred":2870,"ĠAc":2871,"Ġcontract":2872,"amer":2873,"oke":2874,"Ġ185":2875,"Ġdebut":2876,"ĠTom":2877,"nes":2878,"ĠTimes":2879,"ĠÂ£":2880,"erved":2881,"ĠChristian":2882,"Ġ?":2883,"Ġaccess":2884,"ready":2885,"Ġbeginning":2886,"onna":2887,"oid":2888,"Ġbi":2889,"Ġgroups":2890,"Ġviol":2891,"ĠCollege":2892,"Ġsection":2893,"ability":2894,"ĠStud":2895,"hester":2896,"Ġwhose":2897,"asons":2898,"ĠGold":2899,"Ġclaimed":2900,"oviet":2901,"ĠArt":2902,"eal":2903,"Ġinternational":2904,"ĠUK":2905,"Ġasked":2906,"Ġlines":2907,"hile":2908,"Ġtransfer":2909,"Ġprevent":2910,"Ġstreng":2911,"Ġscreen":2912,"onse":2913,"Ġgive":2914,"airs":2915,"rief":2916,"ĠHill":2917,"mar":2918,"Ġbeg":2919,"Ġadditional":2920,"rack":2921,"ĠCast":2922,"Ġunc":2923,"Ġfuture":2924,"ĠMark":2925,"ĠWestern":2926,"Ġleague":2927,"Ġwhom":2928,"ĠPeter":2929,"Ġop":2930,"ĠSoviet":2931,"Ġgold":2932,"Ġpoor":2933,"ĠPat":2934,"Ġfort":2935,"ĠMexic":2936,"ĠAwards":2937,"ĠDem":2938,"lying":2939,"Ġintroduced":2940,"Ġprem":2941,"Ġevidence":2942,"ites":2943,"Ġdon":2944,"Ġsea":2945,"ĠDespite":2946,"Ġidea":2947,"Ġquickly":2948,"ĠSpan":2949,"Ġemb":2950,"atory":2951,"Ġalready":2952,"Ġcenter":2953,"ĠNY":2954,"Ġbridge":2955,"ĠDo":2956,"Ġcal":2957,"Ġ32":2958,"ena":2959,"Ġfrequ":2960,"eck":2961,"usp":2962,"ĠForce":2963,"Ġelection":2964,"Ġproduct":2965,"Ġoccup":2966,"Ġpil":2967,"back":2968,"Ġexcept":2969,"Ġdeal":2970,"irth":2971,"ecially":2972,"Ġ1970":2973,"Ġpen":2974,"ĠThat":2975,"ĠSoc":2976,"ĠGrand":2977,"eum":2978,"aring":2979,"Ġusually":2980,"Ġmusical":2981,"Ġarrived":2982,"Ġwestern":2983,"ĠCoun":2984,"Ġblock":2985,"Ġradio":2986,"unt":2987,"Ġcivil":2988,"liam":2989,"Ġ1980":2990,"Ġcycl":2991,"ully":2992,"ergy":2993,"Ġfemale":2994,"Ġsometimes":2995,"ĠBritain":2996,"Ġstudy":2997,"Ġfood":2998,"Ġresponse":2999,"Ġdecision":3000,"ĠFrank":3001,"Ġmoney":3002,"ĠFilm":3003,"ĠBr":3004,"Ġmagazine":3005,"Ġespecially":3006,"Ġissue":3007,"asc":3008,"liament":3009,"omm":3010,"ha":3011,"Ġlab":3012,"ĠHot":3013,"ĠPac":3014,"ĠDay":3015,"Ġsurface":3016,"Ġliter":3017,"rab":3018,"Ġflood":3019,"Ġmight":3020,"gen":3021,"aint":3022,"Ġenv":3023,"Ġguitar":3024,"Ġcarried":3025,"Ġshows":3026,"Ġcommunity":3027,"Ġconstruct":3028,"Ġestimated":3029,"iter":3030,"Ġarran":3031,"Ġremain":3032,"raw":3033,"aries":3034,"Ġ-":3035,"Ġremaining":3036,"Ġeastern":3037,"Ġminor":3038,"Ġdefeated":3039,"Ġdeterm":3040,"ĠChic":3041,"ĠBen":3042,"inent":3043,"ession":3044,"Ġapprox":3045,"igan":3046,"Ġlarger":3047,"Ġ1999":3048,"ulf":3049,"Ġbecoming":3050,"ĠVictor":3051,"Ġrap":3052,"Ġwood":3053,"Ġcomplete":3054,"Ġ36":3055,"ror":3056,"Ġpolice":3057,"Ġsuggested":3058,"ĠRob":3059,"porary":3060,"Ġmedia":3061,"Ġpressure":3062,"Ġentered":3063,"Ġshoot":3064,"Ġteams":3065,"Ġcommercial":3066,"Ġanal":3067,"Ġ80":3068,"Ġdoc":3069,"Ġlatter":3070,"Ġlyric":3071,"ands":3072,"tt":3073,"Ġmarket":3074,"erve":3075,"Ġlo":3076,"Ġconsider":3077,"Ġstudents":3078,"ises":3079,"sy":3080,"Ġsurround":3081,"Ġinvestig":3082,"Ġbrief":3083,"Ġkey":3084,"Ġconcern":3085,"ĠLos":3086,"Ġpersonal":3087,"St":3088,"inct":3089,"Ġbur":3090,"ĠRh":3091,"Ġprison":3092,"Ġcertain":3093,"ĠMount":3094,"Ġdiscuss":3095,"Ġacqu":3096,"ĠBur":3097,"Ġeffects":3098,"Ġcomplet":3099,"Ġhop":3100,"ĠMill":3101,"Ġappointed":3102,"alled":3103,"Ġder":3104,"Ġsummer":3105,"ĠVirginia":3106,"Ġepisodes":3107,"Ġprior":3108,"ederal":3109,"incip":3110,"II":3111,"NA":3112,"Ġsat":3113,"Ġtar":3114,"change":3115,"Ġemer":3116,"Ġstaff":3117,"lymp":3118,"Ġsize":3119,"enth":3120,"lo":3121,"ĠTra":3122,"Ġchanges":3123,"ulated":3124,"Ġcommission":3125,"imate":3126,"ĠInf":3127,"Ġwinning":3128,"Ġlimited":3129,"ĠFrom":3130,"Ġscenes":3131,"Ġfleet":3132,"Ġriver":3133,"Ġleaving":3134,"Ġdestroyed":3135,"iser":3136,"Ġdeg":3137,"ores":3138,"Ġpay":3139,"pris":3140,"ĠTex":3141,"Ġrid":3142,"Ġden":3143,"Ġdraw":3144,"ĠOlymp":3145,"ĠSecond":3146,"ĠFle":3147,"ĠClub":3148,"ĠFlor":3149,"Ġself":3150,"ari":3151,"rd":3152,"ga":3153,"Ġrights":3154,"ournal":3155,"Ġprovide":3156,"Ġwriter":3157,"ires":3158,"rigade":3159,"Ġpolic":3160,"Ġ75":3161,"que":3162,"idents":3163,"Ġfail":3164,"ension":3165,"Ġdate":3166,"Ġterrit":3167,"su":3168,"Ġtrib":3169,"ĠIm":3170,"AF":3171,"oms":3172,"han":3173,"Ġgirl":3174,"Ġproposed":3175,"ĠJackson":3176,"ex":3177,"Ġinfluence":3178,"ties":3179,"ĠSpanish":3180,"Ġoverall":3181,"ĠParty":3182,"ĠLouis":3183,"Ġtax":3184,"Ġkil":3185,"Ġtransport":3186,"Ġstructure":3187,"Ġequip":3188,"iral":3189,"Ġ184":3190,"Ġ1960":3191,"Ġscript":3192,"Ġbr":3193,"Ġdivision":3194,"Ġ300":3195,"inese":3196,"ÃŃ":3197,"be":3198,"Ġagreed":3199,"ĠAssociation":3200,"Ġanti":3201,"Ġintended":3202,"Ġjud":3203,"Ġbow":3204,"Ġrunning":3205,"ift":3206,"ending":3207,"icles":3208,"Ġtype":3209,"sen":3210,"Ġdaughter":3211,"Ġbig":3212,"Ġbroadcast":3213,"Ġpurch":3214,"Ġnearly":3215,"Ġsupported":3216,"atives":3217,"Ġdeep":3218,"che":3219,"Ġresearch":3220,"Ġdi":3221,"Ġwide":3222,"imum":3223,"Ġestablish":3224,"Ġhelped":3225,"Ġmarried":3226,"ĠChicago":3227,"iles":3228,"Ġmovement":3229,"Ġawarded":3230,"Ġmultip":3231,"ny":3232,"ĠGreen":3233,"ili":3234,"ĠDu":3235,"ĠCouncil":3236,"ĠLater":3237,"atively":3238,"ĠJust":3239,"ĠTer":3240,"Ġ1998":3241,"Ġfavor":3242,"Ġcreate":3243,"acing":3244,"Ġintens":3245,"ĠChinese":3246,"Ġdiss":3247,"Ġbird":3248,"Ġdark":3249,"Ġsusp":3250,"omer":3251,"ĠAdm":3252,"teen":3253,"Ġstars":3254,"Ã¶":3255,"ĠCont":3256,"Ġlonger":3257,"ĠRo":3258,"Ġlanguage":3259,"Ġhigher":3260,"Ġcat":3261,"Ġplanned":3262,"mon":3263,"Ġcompared":3264,"Ġcaptured":3265,"Ġincreasing":3266,"Ġfans":3267,"Ġconclud":3268,"uz":3269,"Ġcourse":3270,"ĠIr":3271,"ĠSong":3272,"Ġchanged":3273,"ien":3274,"ĠIf":3275,"ounds":3276,"Ġexperience":3277,"bers":3278,"Ġapproximately":3279,"Ġrelated":3280,"Ġ33":3281,"Ġdone":3282,"Ġfeature":3283,"Ġfifth":3284,"Ġliving":3285,"Ġthemsel":3286,"enty":3287,"ĠOver":3288,"Ġthemselves":3289,"abit":3290,"ĠSal":3291,"Ġproducer":3292,"ĠKore":3293,"tained":3294,"ĠEmp":3295,"arent":3296,"Ġ70":3297,"Ġtemper":3298,"Ġspace":3299,"ĠEdward":3300,"Ġtracks":3301,"Ġmostly":3302,"ĠHistory":3303,"isions":3304,"Th":3305,"Ġwithd":3306,"ĠEarly":3307,"olic":3308,"ĠOper":3309,"ĠEnter":3310,"ĠPacific":3311,"ĠUp":3312,"Ġthus":3313,"can":3314,"ij":3315,"Ġdead":3316,"Ġwoman":3317,"umn":3318,"Ġoperations":3319,"Ġimm":3320,"Ġremains":3321,"ĠBillboard":3322,"Ġbring":3323,"Ġsyn":3324,"Ġquarter":3325,"ĠServ":3326,"thing":3327,"Ġour":3328,"Ġnatural":3329,"imin":3330,"Ġult":3331,"oint":3332,"Ã¼":3333,"vin":3334,"Ġwhether":3335,"Ġconcept":3336,"Ġweap":3337,"Ġdram":3338,"anded":3339,"Ġprobably":3340,"Ġsoldiers":3341,"Ġran":3342,"Ġcopies":3343,"Al":3344,"rast":3345,"uth":3346,"bour":3347,"Ġbuildings":3348,"Ġleader":3349,"Ġvoice":3350,"Ġface":3351,"Ġboy":3352,"Ġextended":3353,"Ġlyrics":3354,"Ġforward":3355,"Ġdepart":3356,"ĠMont":3357,"Ġcomplex":3358,"Ġboard":3359,"iring":3360,"ĠEv":3361,"Ġreact":3362,"Ġbattles":3363,"Ġissued":3364,"Ġheav":3365,"Ġchall":3366,"riage":3367,"vey":3368,"ging":3369,"Ġreally":3370,"itt":3371,"Ġcountries":3372,"ĠAtlantic":3373,"ospital":3374,"Ġ1997":3375,"rate":3376,"ĠSun":3377,"urt":3378,"Ġsuffered":3379,"Ġ37":3380,"ĠScot":3381,"Ġcm":3382,"Ġgoals":3383,"Ġincludes":3384,"ĠJohnson":3385,"Ġimmediately":3386,"Ġattend":3387,"hood":3388,"ĠLake":3389,"Ġbreed":3390,"Ġmanager":3391,"Ġcapital":3392,"Ġprivate":3393,"Ġmixed":3394,"iant":3395,"Ġofficers":3396,"ĠCongress":3397,"ĠInter":3398,"Ġlikely":3399,"Ġcann":3400,"ĠLove":3401,"ĠBack":3402,"Ġdistrib":3403,"hold":3404,"Ġmach":3405,"ĠFlorida":3406,"Ġmeth":3407,"ĠJew":3408,"bury":3409,"Ġremoved":3410,"Ġplant":3411,"Ġinitial":3412,"Ġceleb":3413,"During":3414,"Ġincrease":3415,"ĠFranc":3416,"venue":3417,"Ġhealth":3418,"de":3419,"Ġsubsequently":3420,"ĠApp":3421,"Ġleave":3422,"Ġplans":3423,"ria":3424,"Ġalways":3425,"Ġfocus":3426,"Ġcoin":3427,"rol":3428,"ĠMost":3429,"Ġnetwork":3430,"ections":3431,"Ġservices":3432,"Ġmount":3433,"Ġvia":3434,"Ġstatus":3435,"Ġcompan":3436,"rial":3437,"Ġvisit":3438,"Ġlocation":3439,"order":3440,"ĠFinal":3441,"ams":3442,"iation":3443,"ĠBig":3444,"ĠFort":3445,"ĠTown":3446,"Ġproblems":3447,"Ġflag":3448,"ĠSea":3449,"ĠQueen":3450,"well":3451,"Ġoffered":3452,"Ġinstr":3453,"ctor":3454,"ĠDist":3455,"etic":3456,"ously":3457,"aily":3458,"Ġmodel":3459,"Ġterms":3460,"Ġnorm":3461,"Ġmur":3462,"Ġcolon":3463,"ĠTexas":3464,"ĠChina":3465,"Ġapproach":3466,"wer":3467,"Ġvillage":3468,"Ġsomething":3469,"Ġadminist":3470,"ĠOld":3471,"Ġtons":3472,"Ġfell":3473,"ounted":3474,"At":3475,"ĠEarth":3476,"ĠFollowing":3477,"Ġtor":3478,"ironment":3479,"Ġsch":3480,"Ġmajority":3481,"burg":3482,"ĠTor":3483,"ĠKn":3484,"Ġprofessional":3485,"ĠCamp":3486,"Ġcounter":3487,"lor":3488,"Ġ183":3489,"adium":3490,"Ã³":3491,"ĠLaw":3492,"stant":3493,"Ġgot":3494,"ibr":3495,"Ġcause":3496,"Ġconsist":3497,"aches":3498,"uries":3499,"ĠAfrica":3500,"Ġinters":3501,"ĠLord":3502,"ĠRail":3503,"Ġdamaged":3504,"ĠTrans":3505,"ĠPet":3506,"Ġmeeting":3507,"pan":3508,"oe":3509,"olk":3510,"Ġjob":3511,"Ġappears":3512,"ĠMr":3513,"Ġconfir":3514,"Ġadop":3515,"Ġminute":3516,"ĠPri":3517,"ĠJim":3518,"ĠCanadian":3519,"Ġranked":3520,"Ġlay":3521,"oes":3522,"uf":3523,"Ġindividual":3524,"Ġcomposed":3525,"cean":3526,"Ġrevealed":3527,"ĠCenter":3528,"ĠAnt":3529,"ify":3530,"ĠTur":3531,"Ġang":3532,"Ġflight":3533,"Ġattacks":3534,"ĠSquadron":3535,"itect":3536,"ĠBoy":3537,"reater":3538,"Ġplot":3539,"Ġ90":3540,"Ġdiscovered":3541,"Ġraised":3542,"reak":3543,"umed":3544,"Ġfinanc":3545,"ĠWood":3546,"Ġrespectively":3547,"Ġmakes":3548,"gar":3549,"ĠRussian":3550,"Ġnumerous":3551,"ĠHow":3552,"ĠIts":3553,"Ġassociated":3554,"ste":3555,"Ġaltern":3556,"Ġtakes":3557,"ĠAngeles":3558,"Ġdomin":3559,"ĠIII":3560,"Ġneeded":3561,"Ġinspired":3562,"Ġanc":3563,"Ġlived":3564,"Ġ1995":3565,"ault":3566,"Ġgrand":3567,"ĠHighway":3568,"Ġlaunched":3569,"Ġyet":3570,"ĠCarol":3571,"ription":3572,"Ġcand":3573,"eff":3574,"Ġnature":3575,"ĠKent":3576,"Ġ34":3577,"Ġamb":3578,"Ġpow":3579,"ĠCentral":3580,"Ġdig":3581,"Ġcoach":3582,"Ġoccurred":3583,"ken":3584,"Ġcontains":3585,"Ġveh":3586,"estival":3587,"Ġbene":3588,"Ġshown":3589,"Ġattempted":3590,"uals":3591,"Ġattacked":3592,"uments":3593,"Ġmoving":3594,"Ġconditions":3595,"ĠOl":3596,"Ġhour":3597,"rie":3598,"Ġupper":3599,"ka":3600,"VD":3601,"iest":3602,"down":3603,"Ġsales":3604,"Ġgra":3605,"ective":3606,"ĠMur":3607,"ĠMel":3608,"joy":3609,"Ġcollect":3610,"imb":3611,"Ġ38":3612,"orce":3613,"ĠTV":3614,"aught":3615,"ĠYear":3616,"Ġissues":3617,"Ġbirth":3618,"Ġwhole":3619,"Ġ2016":3620,"Ġsal":3621,"izing":3622,"ĠMartin":3623,"Ġcer":3624,"Ġexam":3625,"Ġ1950":3626,"Ġinformation":3627,"Ġyards":3628,"Ġfarm":3629,"oly":3630,"ĠBow":3631,"Ġslight":3632,"Ġbox":3633,"vert":3634,"win":3635,"urity":3636,"uing":3637,"Ġ1996":3638,"Ġmom":3639,"Ġreferred":3640,"Ġcritical":3641,"Ġi":3642,"ĠEmpire":3643,"Ġincor":3644,"reme":3645,"Ġnumbers":3646,"Ġfinally":3647,"Ġsmaller":3648,"Ġelected":3649,"Ġselected":3650,"Ġdefeat":3651,"Ġsen":3652,"Ġresulted":3653,"ĠTour":3654,"Ġscient":3655,"ĠRev":3656,"ĠGroup":3657,"Ġstay":3658,"Ġbad":3659,"Ġgrant":3660,"ĠRad":3661,"Ġqual":3662,"Ġactive":3663,"ĠSir":3664,"Ġprincip":3665,"Ġsinger":3666,"kin":3667,"Ġstandard":3668,"Ġsecret":3669,"Ġpit":3670,"itation":3671,"uated":3672,"Ġmission":3673,"Ġindustry":3674,"ĠMiss":3675,"enant":3676,"Ġlargely":3677,"ortun":3678,"Ġens":3679,"Ġoperation":3680,"ĠBet":3681,"Ġsem":3682,"andon":3683,"Ġprec":3684,"onic":3685,"Ġlink":3686,"oura":3687,"Ġassigned":3688,"Ġsaf":3689,"Ġearned":3690,"Ġ1994":3691,"Ġthr":3692,"Ġlegisl":3693,"Ġcommented":3694,"ĠItalian":3695,"ya":3696,"itude":3697,"Ġmale":3698,"Ġexpected":3699,"ãĥ":3700,"ĠSuper":3701,"oud":3702,"iled":3703,"ĠCorps":3704,"ĠDes":3705,"Ġaudience":3706,"Ġroy":3707,"lled":3708,"Ġlisted":3709,"Ġsuggest":3710,"Ġcovered":3711,"Ġpurp":3712,"ĠDVD":3713,"Ġunable":3714,"irection":3715,"Ġsched":3716,"Ġheart":3717,"Ġtraditional":3718,"Ġeducation":3719,"gr":3720,"Ġtrade":3721,"ĠBoth":3722,"Ġartist":3723,"Ġnewsp":3724,"Ġfriends":3725,"Ġdouble":3726,"Ġclosed":3727,"Ġrefused":3728,"ĠDel":3729,"agon":3730,"Ġunderst":3731,"Ġaw":3732,"Ġrecover":3733,"Ġattention":3734,"ounts":3735,"use":3736,"ĠPenn":3737,"Ġmethod":3738,"ighter":3739,"Ġprimary":3740,"Ġsister":3741,"ogue":3742,"ĠNot":3743,"Ġkind":3744,"Ġtalk":3745,"ĠViet":3746,"tered":3747,"Ġreason":3748,"ĠGar":3749,"Ġofficer":3750,"Ġplat":3751,"Ġbelow":3752,"oo":3753,"Ġcontem":3754,"hips":3755,"Ġenjoy":3756,"Ġability":3757,"Ġ1940":3758,"Ġdepression":3759,"Ġmeant":3760,"anced":3761,"Ġperformances":3762,"isher":3763,"Ġdeclared":3764,"Ġwalk":3765,"Ġblood":3766,"Ġ49":3767,"Ġgiving":3768,"Ġletter":3769,"Ġcompl":3770,"Ġword":3771,"undred":3772,"ples":3773,"ĠWales":3774,"Ġfighting":3775,"Ġmiddle":3776,"Ġcommander":3777,"Ġbooks":3778,"Ġreligious":3779,"Ġtheat":3780,"Ġmax":3781,"Ġhot":3782,"ĠOut":3783,"Ġ180":3784,"ĠMany":3785,"Ġsett":3786,"Ġrate":3787,"ĠCath":3788,"ona":3789,"ĠDis":3790,"ĠJose":3791,"ĠMichigan":3792,"Ġrecords":3793,"Ġmatches":3794,"Ġconstit":3795,"ĠCr":3796,"Ġnames":3797,"aped":3798,"Ġproduce":3799,"Ġquestion":3800,"ĠNort":3801,"utch":3802,"ĠDemocr":3803,"antasy":3804,"Ġcompetition":3805,"irt":3806,"Ġcentre":3807,"Ġserious":3808,"Ġunit":3809,"road":3810,"ĠMass":3811,"ĠTest":3812,"odies":3813,"Ġdisapp":3814,"Ġtouch":3815,"Ġvocals":3816,"ims":3817,"ĠMinister":3818,"iences":3819,"20":3820,"Ġmention":3821,"ounded":3822,"Ġri":3823,"ĠZeal":3824,"ector":3825,"ĠAcad":3826,"Ġaccount":3827,"Ġdocument":3828,"Ġabandon":3829,"icted":3830,"Ġrapid":3831,"Ġenergy":3832,"Ġnecess":3833,"Ġ41":3834,"ux":3835,"ils":3836,"quar":3837,"Ġ1992":3838,"Ġkilomet":3839,"icient":3840,"ervation":3841,"ares":3842,"echan":3843,"Ġdut":3844,"Ġtraff":3845,"Ġconstructed":3846,"ĠTeam":3847,"ĠCle":3848,"ening":3849,"yr":3850,"Ġtheme":3851,"Ġris":3852,"oses":3853,"ĠCare":3854,"rier":3855,"ette":3856,"Ġroyal":3857,"Ġpick":3858,"ishop":3859,"Ġstra":3860,"Ġnearby":3861,"Ġhighly":3862,"Ġseparate":3863,"ĠZealand":3864,"Ġcontinue":3865,"edic":3866,"vention":3867,"ĠLong":3868,"Ġprep":3869,"Ġchief":3870,"ĠOx":3871,"ails":3872,"Ġdrum":3873,"Ġeffort":3874,"osh":3875,"rug":3876,"Ġcas":3877,"ĠFer":3878,"Ġpresented":3879,"Ġtur":3880,"ĠPre":3881,"Ġcombat":3882,"oper":3883,"Ġpositions":3884,"ĠUnder":3885,"Ġannual":3886,"Ġreduced":3887,"ether":3888,"ibly":3889,"Ġcontrovers":3890,"uit":3891,"Ġ400":3892,"Ġdirectly":3893,"ĠMexico":3894,"ieut":3895,"ĠArch":3896,"cel":3897,"hy":3898,"Ġlevels":3899,"ĠAfrican":3900,"Ġmeans":3901,"ĠFore":3902,"Ġcle":3903,"Ġneigh":3904,"Ġnotes":3905,"Ġ1930":3906,"Ġattended":3907,"Ġsevent":3908,"Ġpractice":3909,"Ġtried":3910,"shire":3911,"Ġcompos":3912,"Ġforest":3913,"emorial":3914,"ĠTime":3915,"ĠStep":3916,"Ġhar":3917,"Ġfast":3918,"Ġnuc":3919,"Ġedition":3920,"Ġtrain":3921,"Ġge":3922,"ado":3923,"acher":3924,"Ġ55":3925,"ĠHaw":3926,"ita":3927,"ĠFox":3928,"arents":3929,"ĠSum":3930,"vement":3931,"Ġtwenty":3932,"Ġmetal":3933,"Ġaccepted":3934,"osen":3935,"Ġwatch":3936,"ĠChart":3937,"ĠWal":3938,"Ġstating":3939,"ĠCons":3940,"Ġmovie":3941,"Ġarchitect":3942,"Ġtext":3943,"rical":3944,"Ġrepe":3945,"Ġcandid":3946,"isation":3947,"pe":3948,"track":3949,"light":3950,"Ġconcert":3951,"ras":3952,"Ġ1993":3953,"Ġadvance":3954,"stitute":3955,"Ġ1991":3956,"Ġpair":3957,"Ġportray":3958,"Ġdirection":3959,"house":3960,"Ġ179":3961,"Ġfr":3962,"Äĩ":3963,"Ġseem":3964,"Ġdism":3965,"Ġschools":3966,"Ġlegal":3967,"ĠSo":3968,"ĠMa":3969,"Ġreject":3970,"eway":3971,"lict":3972,"inem":3973,"ĠWall":3974,"ĠAnother":3975,"MS":3976,"wide":3977,"Ġasp":3978,"icip":3979,"Ġhorse":3980,"fall":3981,"ĠTre":3982,"Ġthick":3983,"Ġmarriage":3984,"illery":3985,"aging":3986,"Ġrecomm":3987,"ĠMajor":3988,"ĠMore":3989,"Ġefforts":3990,"Ġmanaged":3991,"Ġcollege":3992,"ĠDepartment":3993,"Ġ+":3994,"Ġpurs":3995,"ĠScotland":3996,"like":3997,"Ġwing":3998,"utions":3999,"Ġending":4000,"Ġ39":4001,"Ġresulting":4002,"irit":4003,"ĠSar":4004,"ieutenant":4005,"ros":4006,"ĠGreek":4007,"band":4008,"Ġshowed":4009,"Ġdropped":4010,"awn":4011,"Ġresponsible":4012,"illed":4013,"Ġnation":4014,"Ġdisplay":4015,"Ġinside":4016,"ĠBu":4017,"Ġcases":4018,"Ġkept":4019,"Ġcust":4020,"ĠJones":4021,"Ġenvironment":4022,"ĠInfantry":4023,"Ġculture":4024,"Ġrare":4025,"Ġmeaning":4026,"Ġrat":4027,"Ġcyclone":4028,"olf":4029,"ĠKh":4030,"Ġ48":4031,"Ġdom":4032,"ĠMadonna":4033,"ĠDar":4034,"Ġincorpor":4035,"ĠBrad":4036,"Ġbegins":4037,"pass":4038,"ĠCross":4039,"Ġvariety":4040,"ceeded":4041,"Ġmorning":4042,"Ġcerem":4043,"Ġhouses":4044,"Ġforms":4045,"Ġchampionship":4046,"ĠChris":4047,"ĠBob":4048,"Ġwords":4049,"ani":4050,"ini":4051,"Ġarrest":4052,"Ġschol":4053,"Ġyard":4054,"ĠCreek":4055,"peror":4056,"ĠMatt":4057,"Ġoil":4058,"ĠBost":4059,"ĠManc":4060,"Ġinches":4061,"Ġmarked":4062,"cend":4063,"An":4064,"gl":4065,"ĠHel":4066,"Ġcontinues":4067,"ĠKenn":4068,"Ġspl":4069,"Ġscience":4070,"Ġperm":4071,"ĠAnn":4072,"Ġsymb":4073,"ĠCrit":4074,"ĠBC":4075,"ĠHung":4076,"Ġ181":4077,"gypt":4078,"ecting":4079,"ittle":4080,"Åį":4081,"ĠRecords":4082,"Ġbank":4083,"ols":4084,"Ġuses":4085,"Ġeconomic":4086,"writ":4087,"cle":4088,"ĠPost":4089,"Ġsource":4090,"ĠLeg":4091,"thel":4092,"bed":4093,"ĠSecret":4094,"ĠStone":4095,"ĠEr":4096,"Ġquality":4097,"Ġdefend":4098,"ulations":4099,"ĠTheir":4100,"Ġlear":4101,"ĠWilliams":4102,"ĠService":4103,"Ġhundred":4104,"ĠVer":4105,"Ġsettle":4106,"ĠParliament":4107,"ĠLad":4108,"ĠGames":4109,"Ġimpact":4110,"Ġstarting":4111,"Ġconducted":4112,"ĠChe":4113,"thur":4114,"Ġspecific":4115,"Ġstrugg":4116,"Ġallowing":4117,"ĠSever":4118,"ĠDou":4119,"ĠGo":4120,"ĠPan":4121,"Ġbeat":4122,"een":4123,"Ġpresence":4124,"Ġ1942":4125,"ĠSociety":4126,"Ġamount":4127,"Ġsides":4128,"Ġdu":4129,"ĠMic":4130,"Ġviewers":4131,"Ġcaptain":4132,"sych":4133,"Ġdance":4134,"Ġmetres":4135,"Ġchap":4136,"ingu":4137,"ĠFour":4138,"ĠNews":4139,"rown":4140,"Ġunivers":4141,"irm":4142,"Ġexhib":4143,"Ġsuppl":4144,"Ġrule":4145,"ĠEgypt":4146,"ĠFoot":4147,"Ġdistinct":4148,"ĠTro":4149,"ĠTri":4150,"Ġmultiple":4151,"ding":4152,"arian":4153,"Ġtransferred":4154,"Ġpotential":4155,"Ġforeign":4156,"ersey":4157,"Ġcontrast":4158,"inet":4159,"Ġpeaked":4160,"Ġ47":4161,"ĠBook":4162,"ĠStan":4163,"itiz":4164,"Ġ65":4165,"Ġenemy":4166,"Ġyour":4167,"Ġbecomes":4168,"Ġtraffic":4169,"Ġmess":4170,"ĠCommittee":4171,"ping":4172,"Ġowned":4173,"Ġthings":4174,"Ġfounded":4175,"Ġgreater":4176,"ĠLatin":4177,"ĠSur":4178,"ĠArm":4179,"Ġvocal":4180,"Ġconcluded":4181,"Ġopt":4182,"Ġportion":4183,"very":4184,"ĠSouthern":4185,"ym":4186,"Ġcastle":4187,"Ġscoring":4188,"Ġrespond":4189,"Ġstories":4190,"Ġproperty":4191,"iance":4192,"Ġattempts":4193,"rong":4194,"Ġencoun":4195,"ĠSince":4196,"kn":4197,"ĠOh":4198,"Ġrelatively":4199,"ĠGre":4200,"Ġprimarily":4201,"ĠJer":4202,"Ġdemonst":4203,"ĠPrince":4204,"Ġple":4205,"ecause":4206,"Ġfederal":4207,"Ġfinancial":4208,"ĠLu":4209,"ograp":4210,"ressive":4211,"aine":4212,"ellig":4213,"Ġactually":4214,"ĠGeorg":4215,"Ġanimals":4216,"ider":4217,"ĠSat":4218,"Ġobserved":4219,"Ġtourn":4220,"ĠBoston":4221,"Ġlif":4222,"Ġcollection":4223,"Ġopportun":4224,"ĠSol":4225,"alle":4226,"Ġtitled":4227,"anes":4228,"fect":4229,"Ġfeaturing":4230,"istics":4231,"Ġwriters":4232,"Ġwrite":4233,"Ġ46":4234,"ĠChief":4235,"Ġjournal":4236,"eds":4237,"Ġ1944":4238,"ĠAdmiral":4239,"Ġwa":4240,"Ġstrength":4241,"Ġwor":4242,"umber":4243,"Ġinch":4244,"ĠVietn":4245,"Ġmechan":4246,"Ġweaken":4247,"Ġsituation":4248,"Ġspot":4249,"ĠBridge":4250,"Ġpaid":4251,"Ġdistance":4252,"ĠSwed":4253,"Ġpremi":4254,"Ġparents":4255,"Ġindependent":4256,"ĠOxford":4257,"Ġfigure":4258,"mas":4259,"Ġshare":4260,"ĠBattalion":4261,"stein":4262,"Ġmel":4263,"Ġactor":4264,"Ġacting":4265,"Ġcompanies":4266,"ĠCamb":4267,"Ġdivided":4268,"ĠSil":4269,"Ġmind":4270,"Ġ64":4271,"ĠCommission":4272,"Ġonto":4273,"ĠDen":4274,"astic":4275,"ada":4276,"ĠOtt":4277,"ĠClass":4278,"lam":4279,"ih":4280,"ĠFin":4281,"Ġcollabor":4282,"Ġ43":4283,"ĠManchester":4284,"Ġtarget":4285,"anna":4286,"Ġslightly":4287,"ĠHor":4288,"Ġpiece":4289,"Ġfunction":4290,"ĠParis":4291,"rel":4292,"Ġselling":4293,"Ġreform":4294,"perial":4295,"Ġ42":4296,"ricket":4297,"Ġpowerful":4298,"Ġtorped":4299,"Ġconcent":4300,"chest":4301,"Ġinnings":4302,"Ġrating":4303,"Ġ44":4304,"thlet":4305,"oration":4306,"ĠWin":4307,"Ġplays":4308,"Ġlot":4309,"Ġrough":4310,"Ġtoday":4311,"Ġbroke":4312,"uge":4313,"Ġcho":4314,"Ġera":4315,"osaur":4316,"annel":4317,"ĠSpec":4318,"la":4319,"Ġactions":4320,"Ġwaters":4321,"Ġultimately":4322,"itan":4323,"istry":4324,"ĠStephen":4325,"Ġtrial":4326,"Ġsquare":4327,"ĠDef":4328,"Ġmaximum":4329,"ĠColumb":4330,"ĠJeff":4331,"ĠBat":4332,"ĠJoseph":4333,"Ġdise":4334,"Ġtend":4335,"ĠLife":4336,"illa":4337,"ĠCaptain":4338,"ĠBBC":4339,"load":4340,"Ġpilot":4341,"Ġbound":4342,"Ġinterp":4343,"rupt":4344,"Ġblue":4345,"Ġcompletely":4346,"Ġsought":4347,"oti":4348,"Ġgar":4349,"ĠAcademy":4350,"Ġlog":4351,"Ġscale":4352,"ĠHarrison":4353,"Ġ1920":4354,"ĠTw":4355,"Ġ1945":4356,"ĠEntertain":4357,"mond":4358,"mark":4359,"Ġsociety":4360,"under":4361,"Ġbehav":4362,"Ġess":4363,"Ġhus":4364,"Ġmainly":4365,"ĠFred":4366,"ota":4367,"Ġdesignated":4368,"za":4369,"omy":4370,"ĠCroat":4371,"Ġ1941":4372,"Ġofficials":4373,"Ġstruck":4374,"Ġconver":4375,"ĠMuseum":4376,"Ġtransl":4377,"cers":4378,"onn":4379,"ylvan":4380,"Ġactivity":4381,"Ġpolicy":4382,"ĠTim":4383,"Ġ150":4384,"Ġcombined":4385,"Ġsay":4386,"Ġinfluenced":4387,"Ġwear":4388,"ĠLine":4389,"olved":4390,"ĠSeries":4391,"Ġsearch":4392,"Ġvess":4393,"ented":4394,"Ġthous":4395,"Ġcalling":4396,"ĠLuc":4397,"racted":4398,"iano":4399,"Ġalongside":4400,"AS":4401,"Ġnortheast":4402,"Ġseconds":4403,"Ġbatter":4404,"while":4405,"Ġsout":4406,"ĠBrigade":4407,"TV":4408,"orses":4409,"ĠArab":4410,"ala":4411,"Ġwinter":4412,"Ġsources":4413,"ĠAmericans":4414,"ĠPop":4415,"ĠWay":4416,"Ġseg":4417,"udd":4418,"Ġbackground":4419,"phy":4420,"ĠOs":4421,"Ġwebs":4422,"Ġice":4423,"ĠItaly":4424,"Ġnews":4425,"Ġthir":4426,"Ġtheory":4427,"rative":4428,"Ġrecent":4429,"Ġsuc":4430,"ĠSaint":4431,"Ġcrow":4432,"Ġmem":4433,"Ġgained":4434,"ote":4435,"Ġnominated":4436,"Ġplatform":4437,"HL":4438,"adel":4439,"Ġproblem":4440,"Ġelectric":4441,"ĠGra":4442,"Ġartists":4443,"ero":4444,"ĠEntertainment":4445,"Ġnaval":4446,"Ġwidely":4447,"quarters":4448,"ĠIre":4449,"ĠThree":4450,"ĠRegiment":4451,"ĠForm":4452,"Ġsystems":4453,"Ġpromoted":4454,"Ġconfirmed":4455,"ube":4456,"pson":4457,"Ġreaching":4458,"ĠHal":4459,"Ġproved":4460,"ĠAvenue":4461,"Ġresults":4462,"Ġ52":4463,"Ġpassing":4464,"ĠLittle":4465,"ibrary":4466,"Ġalbums":4467,"Ġexplained":4468,"Ġsubsequent":4469,"Ġgreatest":4470,"Ġconflict":4471,"ĠFleet":4472,"Ġwick":4473,"ĠIreland":4474,"aling":4475,"Ġcorn":4476,"Ġcontent":4477,"Ġinvasion":4478,"ĠConf":4479,"Ġir":4480,"Ġsn":4481,"Ġcoming":4482,"Ġcharge":4483,"Ġhero":4484,"Ġresist":4485,"Ġpeace":4486,"Ġsixth":4487,"ĠAlb":4488,"ĠVan":4489,"iro":4490,"Ġnorthwest":4491,"Ġweather":4492,"Ġ182":4493,"oured":4494,"ĠSk":4495,"Ġcounty":4496,"aga":4497,"Ġadj":4498,"grad":4499,"Ġshortly":4500,"town":4501,"Ġversions":4502,"Ġ1943":4503,"Ġpath":4504,"Ġserve":4505,"ĠLee":4506,"Ġcausing":4507,"Ġ1989":4508,"Ġsays":4509,"Ġsust":4510,"ĠMod":4511,"yond":4512,"Ġexpressed":4513,"iced":4514,"Ġreception":4515,"ĠWind":4516,"Ġseek":4517,"Ġburn":4518,"itness":4519,"Ġ51":4520,"Ġresidents":4521,"bon":4522,"Ġborder":4523,"Ġsoundtrack":4524,"ansion":4525,"Ġchem":4526,"ĠGood":4527,"Ġemot":4528,"ĠCatholic":4529,"Ġcities":4530,"ĠCarl":4531,"Ġseasons":4532,"ips":4533,"Ġgreen":4534,"ĠValley":4535,"ategory":4536,"Ġappearances":4537,"ĠMax":4538,"Ġsense":4539,"yon":4540,"Ġsexual":4541,"Ġhospital":4542,"AA":4543,"Ġrequire":4544,"infall":4545,"Ġpun":4546,"Ġphysical":4547,"Ġidentified":4548,"Ġolder":4549,"ighth":4550,"Ġhands":4551,"ĠEll":4552,"ĠHurricane":4553,"arden":4554,"Ġiron":4555,"olt":4556,"ĠVictoria":4557,"Ġtells":4558,"Ġoffer":4559,"Ġtrue":4560,"Ġdedic":4561,"ĠSant":4562,"unction":4563,"Ġkg":4564,"ysis":4565,"ĠLo":4566,"ancy":4567,"Ġartillery":4568,"Ġrepresented":4569,"Ġweapons":4570,"Ġextra":4571,"Ġahead":4572,"Ġgas":4573,"Ġla":4574,"aded":4575,"ĠLiber":4576,"eption":4577,"ĠRay":4578,"Ġpal":4579,"ĠNorm":4580,"ronic":4581,"ylvania":4582,"Ġeas":4583,"ĠNin":4584,"Ġheavily":4585,"ĠLight":4586,"ĠAut":4587,"ĠShow":4588,"ĠMiddle":4589,"Ġsupp":4590,"abeth":4591,"itable":4592,"Ġavoid":4593,"ĠBus":4594,"lers":4595,"ĠCommun":4596,"Ġchallen":4597,"Ġdefense":4598,"Ġstudent":4599,"Ġagg":4600,"Ġalone":4601,"Ġimage":4602,"Ġspread":4603,"Ġapparent":4604,"Ġstudies":4605,"Ġofficially":4606,"Ġhusband":4607,"known":4608,"ĠTop":4609,"Ġdistrict":4610,"Ġexecutive":4611,"bur":4612,"Ġbit":4613,"Ġinstit":4614,"ĠWeek":4615,"ĠCharl":4616,"ĠDutch":4617,"essions":4618,"Ġdebuted":4619,"Ġwild":4620,"Ġfloor":4621,"Ġprominent":4622,"ĠProdu":4623,"Ġcapture":4624,"Ġpack":4625,"Ġconsisted":4626,"Ġinstrument":4627,"Ġsend":4628,"Ġinjury":4629,"ĠLive":4630,"Ġfired":4631,"Ġorganization":4632,"Ġequipment":4633,"ports":4634,"Ġresc":4635,"Ġstone":4636,"pool":4637,"Ġpattern":4638,"Ġprepar":4639,"Ġargued":4640,"ias":4641,"Ġaired":4642,"Ġfigures":4643,"By":4644,"Ġsurpris":4645,"Ġexped":4646,"urban":4647,"ĠRam":4648,"Ġgrowth":4649,"Ġeth":4650,"ĠHistor":4651,"acity":4652,"ĠDun":4653,"Ġbud":4654,"Ġpict":4655,"Ġhun":4656,"Ġcouple":4657,"ĠIll":4658,"ĠMat":4659,"Ġdoing":4660,"Ġreturning":4661,"Ġmagn":4662,"Ġgraph":4663,"Ġring":4664,"Ġcontemporary":4665,"ushed":4666,"Ġpoet":4667,"Ġcert":4668,"lines":4669,"ĠSa":4670,"Ġpan":4671,"ĠRy":4672,"Ġweight":4673,"rat":4674,"rog":4675,"ees":4676,"Ġox":4677,"ĠWork":4678,"hew":4679,"Ġlaid":4680,"Ġdoub":4681,"Ġhabit":4682,"Ġearth":4683,"Ġleaders":4684,"Ġstep":4685,"ĠTay":4686,"Ġmatter":4687,"Ġaffected":4688,"ĠTod":4689,"Ġpieces":4690,"Ġtun":4691,"appen":4692,"ĠAlbert":4693,"Ġ600":4694,"ĠCivil":4695,"Ġpropos":4696,"ĠKar":4697,"Ġmaintained":4698,"inson":4699,"Ġrang":4700,"When":4701,"ĠFre":4702,"Ġshell":4703,"Ġoccasion":4704,"ifying":4705,"Ġvisited":4706,"Ġhere":4707,"ental":4708,"Ġmaintain":4709,"Ġcommunic":4710,"ĠMen":4711,"Ġcomes":4712,"Ġspeech":4713,"ĠYoung":4714,"Ġtermin":4715,"Ġcriticized":4716,"emic":4717,"ĠDi":4718,"Ġhyd":4719,"Ġactivities":4720,"ĠEliz":4721,"stone":4722,"Ġrain":4723,"ĠJul":4724,"ockey":4725,"ĠNorthern":4726,"Ġexec":4727,"Ġattract":4728,"ĠFootball":4729,"ĠCarolina":4730,"ola":4731,"acement":4732,"Ġhall":4733,"eed":4734,"Ġcitiz":4735,"Ġtournament":4736,"ĠFar":4737,"Ġreign":4738,"ĠStorm":4739,"Ġemph":4740,"Ġtoward":4741,"ocked":4742,"ĠDam":4743,"Ġsingles":4744,"ĠBond":4745,"uls":4746,"Ġdrug":4747,"Ġtrees":4748,"ĠDirect":4749,"Ġreference":4750,"ners":4751,"Ġcrowd":4752,"Ġsenior":4753,"Ġformation":4754,"elve":4755,"Ġadapt":4756,"Ġsurre":4757,"Ġsetting":4758,"Ġmedical":4759,"ivity":4760,"Ġworldwide":4761,"agn":4762,"ĠHomer":4763,"Ġterritory":4764,"amber":4765,"yer":4766,"estic":4767,"Ġ53":4768,"Ġtrying":4769,"Ġstations":4770,"ruit":4771,"gian":4772,"Ġdog":4773,"Ġbul":4774,"ĠSeveral":4775,"Ġnegoti":4776,"Ġbirds":4777,"ĠBre":4778,"Ġ1987":4779,"uct":4780,"Ġdoll":4781,"ĠSystem":4782,"Ġmachine":4783,"Ġfellow":4784,"Ġmurder":4785,"embly":4786,"Ġclaims":4787,"ĠGal":4788,"ĠSub":4789,"Ġgod":4790,"ĠFantasy":4791,"Ġcell":4792,"Ġdispl":4793,"Ġhistorian":4794,"omers":4795,"Ġ85":4796,"ĠDistrict":4797,"Ġrainfall":4798,"Ġrisk":4799,"gu":4800,"Ġaccident":4801,"ĠGovernment":4802,"Ġfully":4803,"ĠHolly":4804,"Ġload":4805,"uled":4806,"Ġ1988":4807,"Ġvalue":4808,"Ġtherefore":4809,"resh":4810,"Ġsplit":4811,"bit":4812,"ĠTropical":4813,"Ġchosen":4814,"Ġtreatment":4815,"Ġuniversity":4816,"ĠGuard":4817,"Ġguest":4818,"ĠOrig":4819,"ayer":4820,"ĠOcean":4821,"ĠScottish":4822,"ĠBackground":4823,"ĠHa":4824,"velopment":4825,"rael":4826,"rance":4827,"Ġsens":4828,"Ġtwice":4829,"eller":4830,"Ġfrequently":4831,"Ġsupply":4832,"ĠStudios":4833,"ĠRog":4834,"Ġreports":4835,"illy":4836,"ordin":4837,"stitution":4838,"Ġleaves":4839,"Ġgovernor":4840,"Ġpaper":4841,"ĠHard":4842,"Ġremark":4843,"Ġut":4844,"ampion":4845,"ĠGovernor":4846,"Ġdyn":4847,"Ġlabel":4848,"aly":4849,"ĠTem":4850,"izes":4851,"ledge":4852,"ĠPolish":4853,"ĠHome":4854,"Ġfaced":4855,"azz":4856,"ĠSenate":4857,"Ġopin":4858,"min":4859,"Ġwalls":4860,"Ġfollows":4861,"ĠField":4862,"ĠGirl":4863,"Ġbillion":4864,"ĠPenns":4865,"ĠDuke":4866,"Ġoperated":4867,"Ġgrew":4868,"ĠAdd":4869,"ufact":4870,"Ġsurrounding":4871,"ĠRom":4872,"Ġplanet":4873,"rect":4874,"Ġswe":4875,"Ġcontained":4876,"onents":4877,"orter":4878,"resp":4879,"gend":4880,"ĠMarsh":4881,"Ġcondition":4882,"ĠDev":4883,"ĠDaniel":4884,"Ġdegree":4885,"Ġherself":4886,"Ġbal":4887,"Ġhorses":4888,"ĠEastern":4889,"Ġmanufact":4890,"ety":4891,"ĠBeat":4892,"isco":4893,"Ġcolor":4894,"ĠRos":4895,"Ġaccompan":4896,"Ġsle":4897,"Ġwounded":4898,"Ġtypically":4899,"Ġescape":4900,"ĠColon":4901,"ĠJud":4902,"antly":4903,"Ġpasses":4904,"mit":4905,"Ġmaster":4906,"Ġunf":4907,"Ġsimply":4908,"ĠChristmas":4909,"Ġbrown":4910,"Ã¨":4911,"Ġfuel":4912,"isters":4913,"Ġreinf":4914,"ĠBecause":4915,"utation":4916,"Ġ54":4917,"Ġrailway":4918,"Ġelement":4919,"Ġdraft":4920,"ĠLike":4921,"Ġdang":4922,"ĠNight":4923,"Ġeditor":4924,"Ġlives":4925,"Ġorders":4926,"aming":4927,"ĠLew":4928,"Ġarms":4929,"Ġphil":4930,"fully":4931,"ĠAllied":4932,"ĠRod":4933,"more":4934,"Ġserving":4935,"Ġnothing":4936,"ographer":4937,"Ġcamer":4938,"rich":4939,"uous":4940,"Ġauthority":4941,"Ġchose":4942,"ĠPen":4943,"Ġopposed":4944,"Ġworkers":4945,"Ġvote":4946,"Ġmoment":4947,"Ġconsecutive":4948,"Ġcannot":4949,"ricult":4950,"ĠJon":4951,"Ġnewly":4952,"Ġnative":4953,"Ġfan":4954,"Ġexperiment":4955,"Ġunknown":4956,"ucky":4957,"isf":4958,"Ġ95":4959,"Ġparticipated":4960,"Ġgrowing":4961,"Ġwebsite":4962,"Ġ56":4963,"Ġ1986":4964,"Ġ97":4965,"Ġcasual":4966,"Ġemphas":4967,"Ġattrib":4968,"ancing":4969,"Ġpsych":4970,"eld":4971,"ager":4972,"ĠCorn":4973,"ãĤ":4974,"FA":4975,"Ġproducers":4976,"Ġbass":4977,"Ġfair":4978,"ĠOperation":4979,"Ġbenef":4980,"Ġlosing":4981,"Ã¤":4982,"Ġadopted":4983,"ĠBart":4984,"Ġadvanced":4985,"ilies":4986,"Ġfilming":4987,"imens":4988,"anda":4989,"Ġheard":4990,"ĠFestival":4991,"Ġspirit":4992,"Ġfeed":4993,"Ġsevere":4994,"pton":4995,"Ġoffensive":4996,"ĠCastle":4997,"Ġopposition":4998,"Ġfiction":4999,"ype":5000,"Ġextend":5001,"Ġguard":5002,"Ġcapacity":5003,"Ġrom":5004,"orship":5005,"Ġbasis":5006,"Ġcouncil":5007,"Ġsequence":5008,"Ġactors":5009,"ĠIslands":5010,"ĠPers":5011,"aven":5012,"TC":5013,"zy":5014,"uses":5015,"Ġends":5016,"Ġnewspaper":5017,"ĠÎ":5018,"Ġast":5019,"Ġweak":5020,"Ġsquadron":5021,"Ġprin":5022,"Ġadvant":5023,"ĠWilson":5024,"Ġrear":5025,"ura":5026,"Ġabandoned":5027,"uman":5028,"Ġcompar":5029,"Ġ177":5030,"ĠSound":5031,"ĠTaylor":5032,"Ġrival":5033,"isers":5034,"lement":5035,"ables":5036,"iated":5037,"Ġprompt":5038,"Ġkick":5039,"tar":5040,"ĠPennsylvania":5041,"Ġhonor":5042,"ĠElizabeth":5043,"BA":5044,"Ġflying":5045,"ĠJac":5046,"Ġelev":5047,"Ġenter":5048,"Ġcoal":5049,"ĠBor":5050,"ocated":5051,"Ġcreating":5052,"ĠIrish":5053,"ĠExp":5054,"Ġlaunch":5055,"Ġfilmed":5056,"Ġpoll":5057,"ĠAndrew":5058,"Ġregarded":5059,"Ġhappen":5060,"ĠReception":5061,"Ġexpansion":5062,"Ġnormal":5063,"ĠJoe":5064,"Ġcriticism":5065,"Ġindividuals":5066,"ĠJersey":5067,"ĠAlexander":5068,"Ġhomes":5069,"Ġbeyond":5070,"Ġagreement":5071,"ĠGall":5072,"ounger":5073,"Ġincident":5074,"ĠLand":5075,"ĠTech":5076,"ĠCard":5077,"Ġspect":5078,"Ġ178":5079,"Ġdelay":5080,"Ġspring":5081,"Ġfailure":5082,"iner":5083,"apers":5084,"Ġliber":5085,"Ġevac":5086,"Ġdeploy":5087,"Ġ76":5088,"Ġeye":5089,"Ġchair":5090,"Ġsports":5091,"Ġdismiss":5092,"Ġfamous":5093,"Ġinte":5094,"ĠBlue":5095,"Ġsail":5096,"Ġvo":5097,"Ġmeasure":5098,"ĠSpain":5099,"Although":5100,"ĠBab":5101,"ĠCa":5102,"imet":5103,"Ġpossibly":5104,"ĠMike":5105,"Ġboat":5106,"ĠCoast":5107,"Ġhistorical":5108,"Ġnegative":5109,"Ġ1939":5110,"ĠCat":5111,"ima":5112,"ĠDet":5113,"Ġbodies":5114,"iana":5115,"ĠSS":5116,"Ġachieved":5117,"Ġmob":5118,"Ġcontact":5119,"ĠSquare":5120,"Ġprogress":5121,"ico":5122,"Ġstrike":5123,"ifications":5124,"Ġsilver":5125,"Ġbelieve":5126,"ĠMD":5127,"Ġroles":5128,"ĠAre":5129,"Ġnarrow":5130,"Ġur":5131,"ĠWat":5132,"Ġkilling":5133,"Ġretired":5134,"Ġideas":5135,"ĠHead":5136,"ienced":5137,"Ġdrive":5138,"onent":5139,"Ġdisease":5140,"mosp":5141,"ĠInstitute":5142,"Ġpet":5143,"och":5144,"ĠInst":5145,"Ġtorpedo":5146,"war":5147,"ĠBroad":5148,"kins":5149,"Ġimag":5150,"Ġbriefly":5151,"erc":5152,"imal":5153,"Ġdiam":5154,"andy":5155,"Ġtask":5156,"iny":5157,"Ġeffective":5158,"ĠWW":5159,"Ġtree":5160,"Ġarrang":5161,"Ġarmed":5162,"Ġapplic":5163,"ocks":5164,"edom":5165,"Ġtower":5166,"Ġbudget":5167,"Ġperman":5168,"Ġreceive":5169,"Ġ1968":5170,"Ġrepeated":5171,"Ġadministration":5172,"Ġgranted":5173,"Ġnecessary":5174,"Ġ66":5175,"Ġ61":5176,"Ġpersonnel":5177,"ĠRevolution":5178,"Ġroads":5179,"ĠBul":5180,"Ġrejected":5181,"enger":5182,"oles":5183,"Ġtable":5184,"ĠVen":5185,"Ġtwelve":5186,"ĠIsrael":5187,"Ġkilometres":5188,"Ġinh":5189,"kes":5190,"Ġgross":5191,"Ġimproved":5192,"ĠSund":5193,"Ġleadership":5194,"Ġ1985":5195,"Ġcolumn":5196,"ĠCD":5197,"ĠRepublican":5198,"worth":5199,"Ġinterchange":5200,"Ġyellow":5201,"avalry":5202,"Ġextensive":5203,"aved":5204,"Ġdata":5205,"iments":5206,"ĠFam":5207,"ĠLind":5208,"ĠEnd":5209,"Ġstraight":5210,"oma":5211,"Ġlands":5212,"Ġturns":5213,"Ġplants":5214,"Ġinfantry":5215,"Ġpurpose":5216,"zil":5217,"Ġparalle":5218,"ĠFe":5219,"Ġmanagement":5220,"cÃ©":5221,"Ġexpress":5222,"ĠHarry":5223,"ĠDoctor":5224,"oln":5225,"Ġappl":5226,"Ġdefin":5227,"iÄĩ":5228,"Ġseat":5229,"ĠWild":5230,"Ġlanding":5231,"Ġdescribes":5232,"Ġexpanded":5233,"ĠHy":5234,"ĠCub":5235,"Ġsolo":5236,"ĠBoard":5237,"Ġfranch":5238,"Ġsuccessfully":5239,"Ġchoice":5240,"lusion":5241,"Ġmile":5242,"Ġbroken":5243,"adelph":5244,"rin":5245,"ĠMul":5246,"Ġlearn":5247,"set":5248,"Ġtru":5249,"Ġcrossing":5250,"Ġdidn":5251,"ĠWhat":5252,"Ġintellig":5253,"ĠAlbum":5254,"Ġanimal":5255,"uate":5256,"Ġdeliver":5257,"Ġexplos":5258,"Ġfought":5259,"Ġchor":5260,"gers":5261,"Ġexcl":5262,"Ġorganized":5263,"Ġcaught":5264,"Following":5265,"Ġ800":5266,"Ġvehicles":5267,"ĠSecretary":5268,"Ġcommissioned":5269,"ĠUl":5270,"Ġsuggests":5271,"Ar":5272,"Ġroof":5273,"haps":5274,"ĠPublic":5275,"ĠThough":5276,"Ġglob":5277,"Ġacquired":5278,"stream":5279,"ĠPhiladelph":5280,"etball":5281,"ĠRet":5282,"Ġplaces":5283,"ella":5284,"Ġcommittee":5285,"rif":5286,"Ġancient":5287,"Ġdrama":5288,"ĠRA":5289,"Ġcreation":5290,"Ġ1984":5291,"ĠOhio":5292,"Ġtypes":5293,"ĠElect":5294,"Ġfat":5295,"attle":5296,"appy":5297,"ĠCy":5298,"ĠClark":5299,"uan":5300,"ĠIS":5301,"Ġgives":5302,"ĠArthur":5303,"Ġarticle":5304,"Ġcomedy":5305,"Ġseventh":5306,"Ġprefer":5307,"Ġnuclear":5308,"akers":5309,"Ġsoft":5310,"Ġunsu":5311,"Ġ57":5312,"Ġwave":5313,"ii":5314,"Ġ120":5315,"ĠMir":5316,"arts":5317,"aith":5318,"etts":5319,"ĠBefore":5320,"ĠAsh":5321,"umes":5322,"zer":5323,"ĠPhiladelphia":5324,"ĠUs":5325,"Ġauthorities":5326,"Ġcontain":5327,"oted":5328,"Ġheadquarters":5329,"ĠWrit":5330,"Ġcenturies":5331,"Ġcommonly":5332,"Ġdetermined":5333,"Ġislands":5334,"Ġgenus":5335,"gn":5336,"ĠLiver":5337,"Ġroll":5338,"Ġmentioned":5339,"Ġbott":5340,"Ġrecently":5341,"Ġstreet":5342,"Ġtrav":5343,"Ġbeaut":5344,"ĠLes":5345,"Ġencoura":5346,"Ġlooking":5347,"Ġcontrolled":5348,"Ġ1967":5349,"Ġfavour":5350,"amin":5351,"ipl":5352,"restling":5353,"ev":5354,"ĠWars":5355,"ĠProt":5356,"Ġsets":5357,"Ġfamilies":5358,"ĠGeorgia":5359,"Ġhousehold":5360,"Ġsecurity":5361,"Ġaim":5362,"Ġfinds":5363,"Ġadvert":5364,"Ġdrop":5365,"Ġdecre":5366,"Ġsuppor":5367,"Ġacad":5368,"There":5369,"Ġstanding":5370,"ishes":5371,"ĠMov":5372,"Ġillust":5373,"tendo":5374,"ĠFurther":5375,"Ġunp":5376,"uting":5377,"outs":5378,"ĠRussia":5379,"Ġwithdraw":5380,"Ġsinging":5381,"ĠHit":5382,"Ġfish":5383,"Ġdial":5384,"Ġbattalion":5385,"ĠBru":5386,"Ġven":5387,"Ġreflect":5388,"ĠSher":5389,"Ġunique":5390,"Ġsac":5391,"itled":5392,"ĠBurn":5393,"Ġdeck":5394,"Ġheight":5395,"Ġcultural":5396,"Ġcontaining":5397,"Ġentirely":5398,"water":5399,"Ġorchest":5400,"Ġprotect":5401,"ĠCambridge":5402,"oh":5403,"illing":5404,"ĠOf":5405,"Ġfinish":5406,"ĠTy":5407,"incoln":5408,"Ġtouchdown":5409,"Ġmist":5410,"Ġcontributed":5411,"ĠEach":5412,"Ġthemes":5413,"Ġtry":5414,"Ġyounger":5415,"Ġprovides":5416,"Ġdefence":5417,"ĠAsia":5418,"ĠMah":5419,"Ġflooding":5420,"ĠPrime":5421,"ĠEp":5422,"apore":5423,"pping":5424,"room":5425,"Ġatmosp":5426,"ĠKorean":5427,"ĠNintendo":5428,"ĠColumbia":5429,"ĠArg":5430,"Ġawards":5431,"Ġtitles":5432,"Station":5433,"ulate":5434,"Ġpurchased":5435,"Ġmis":5436,"Ġ74":5437,"va":5438,"Ġpowers":5439,"Ġ58":5440,"Ġarrival":5441,"Ġconvers":5442,"Ġscheduled":5443,"Ġdefensive":5444,"icial":5445,"respond":5446,"wall":5447,"Ġresemb":5448,"Ġthing":5449,"ĠProduction":5450,"Ġaccompanied":5451,"Ġ1983":5452,"Ġceremony":5453,"inity":5454,"ĠJewish":5455,"Ġunus":5456,"Ġquite":5457,"Ġperfect":5458,"Ġexpedition":5459,"Ġworth":5460,"ĠEarl":5461,"ĠFrancisco":5462,"atures":5463,"rons":5464,"Ġlocations":5465,"Ġexisting":5466,"hens":5467,"Ġinteract":5468,"Ġadvantage":5469,"Ġperforming":5470,"wick":5471,"ĠCommon":5472,"laim":5473,"Ġphilos":5474,"ĠLar":5475,"Ġdedicated":5476,"Ġcomputer":5477,"Ġ1969":5478,"ĠBad":5479,"hol":5480,"Ġbat":5481,"acted":5482,"While":5483,"Ġ1964":5484,"ĠPerson":5485,"ĠLincoln":5486,"ĠOffice":5487,"ĠBrazil":5488,"dy":5489,"Ġextrem":5490,"Ġrequest":5491,"ĠNever":5492,"Ġintensity":5493,"eg":5494,"Ġstore":5495,"Ġoccupied":5496,"agan":5497,"Ġwhy":5498,"usc":5499,"Ġsquad":5500,"Ġ1914":5501,"Ġfresh":5502,"ĠSingapore":5503,"Ġcarry":5504,"Ġmounted":5505,"ĠGil":5506,"iling":5507,"ashion":5508,"Ġnob":5509,"Ġ1918":5510,"ĠLiverpool":5511,"ĠRel":5512,"yles":5513,"ĠChild":5514,"ilton":5515,"Ġfix":5516,"ĠSR":5517,"Ġtail":5518,"Ġmouth":5519,"ĠPlayStation":5520,"Ġcricket":5521,"Ġmic":5522,"Ġclosely":5523,"ker":5524,"rations":5525,"Ġfirm":5526,"Ġconsists":5527,"Ġcurrently":5528,"Ġlic":5529,"Ġsession":5530,"ĠDark":5531,"zant":5532,"fort":5533,"Ġ1971":5534,"Ġtim":5535,"ava":5536,"Ġegg":5537,"ĠHay":5538,"Ġsimple":5539,"Ġindustrial":5540,"ns":5541,"ĠâĪ":5542,"ĠDisney":5543,"ĠJenn":5544,"Ġelimin":5545,"Ġpiano":5546,"Ġ1982":5547,"Ġfacilities":5548,"Ġvari":5549,"Ġcold":5550,"Ġ1966":5551,"mouth":5552,"pper":5553,"Ġsupporting":5554,"Ġdrawn":5555,"ĠBalt":5556,"ĠHun":5557,"ĠRol":5558,"Ġty":5559,"Ġ59":5560,"Ġ1972":5561,"ware":5562,"Ġtrains":5563,"Ġbelong":5564,"ĠJean":5565,"Ġrow":5566,"Ġboats":5567,"Ġprotection":5568,"Ġrated":5569,"Ġrot":5570,"ba":5571,"Ġrise":5572,"ĠTam":5573,"Ġdefined":5574,"Ġselection":5575,"ĠLis":5576,"Ġ1979":5577,"Ġsteam":5578,"Ġharm":5579,"ĠCarey":5580,"ĠDie":5581,"otic":5582,"verse":5583,"awa":5584,"Ġregions":5585,"Ġsubmar":5586,"ĠGi":5587,"Ġprotected":5588,"Ġcalls":5589,"ĠConference":5590,"Ġpros":5591,"ĠShort":5592,"ĠOlympic":5593,"Ġhair":5594,"ĠByzant":5595,"ĠRailway":5596,"rant":5597,"ĠHon":5598,"Ġcomic":5599,"Ġmotion":5600,"gest":5601,"Ġstructures":5602,"Ġthrow":5603,"Ġlap":5604,"Ġaid":5605,"Ġshark":5606,"Ġlabor":5607,"With":5608,"ua":5609,"ĠBrook":5610,"Ġfocused":5611,"ingly":5612,"Ġopportunity":5613,"Ġreceiving":5614,"iration":5615,"Ġengaged":5616,"ĠMot":5617,"Ġcorrespond":5618,"Ġshooting":5619,"Ġanalysis":5620,"Ġ#":5621,"ĠNHL":5622,"Ġsport":5623,"Ġcitizens":5624,"Ch":5625,"ĠPot":5626,"osa":5627,"ourney":5628,"Ġmotor":5629,"ĠPeople":5630,"Ġ99":5631,"Ġ1965":5632,"Ġstrengt":5633,"Ġobserv":5634,"ĠVol":5635,"Ġnotable":5636,"Ã¸":5637,"Ġadap":5638,"Ġ1975":5639,"ira":5640,"sey":5641,"inger":5642,"ĠJr":5643,"uzz":5644,"Ġexperienced":5645,"ĠAnderson":5646,"ĠTurn":5647,"ults":5648,"olid":5649,"ĠGermans":5650,"ĠPu":5651,"ĠBas":5652,"ĠGulf":5653,"Ġconference":5654,"Ġholding":5655,"Ġproviding":5656,"ĠThrough":5657,"ĠLewis":5658,"ĠEmperor":5659,"ĠDevelopment":5660,"Ġvisual":5661,"Ġmountain":5662,"ĠOrder":5663,"Ġeyes":5664,"Ġresident":5665,"Ġsoutheast":5666,"inth":5667,"Ġhired":5668,"Ġcharts":5669,"Ġmut":5670,"unior":5671,"Ġviewed":5672,"ĠRadio":5673,"ĠHollywood":5674,"elly":5675,"Ġmerch":5676,"Ġbranch":5677,"heim":5678,"ifically":5679,"FL":5680,"ĠConn":5681,"Ġrapidly":5682,"burgh":5683,"Ġ1974":5684,"Ġrecognized":5685,"Ġrob":5686,"iler":5687,"Ġvolume":5688,"ĠPress":5689,"Ġvac":5690,"opher":5691,"Ġtransform":5692,"Ġalle":5693,"Ġ62":5694,"ĠSerb":5695,"ĠShak":5696,"Ġprote":5697,"ĠChap":5698,"ĠMiller":5699,"Ġscholars":5700,"Ġsites":5701,"30":5702,"Ġgain":5703,"ĠSummer":5704,"essed":5705,"Ġcasualties":5706,"Ġteach":5707,"Ġshared":5708,"Ġhyp":5709,"Ġ1973":5710,"Ġconcer":5711,"ĠDemocratic":5712,"Ġmoder":5713,"Ġparallel":5714,"Ġpublication":5715,"Ġ77":5716,"Ġcart":5717,"ĠGrant":5718,"Ġtemperature":5719,"Ġdigital":5720,"roll":5721,"ĠMu":5722,"Ġeconomy":5723,"Ġdeveloping":5724,"ĠLab":5725,"ĠKa":5726,"Ġsteel":5727,"Ġreaction":5728,"ĠHan":5729,"Ġedge":5730,"box":5731,"friend":5732,"standing":5733,"Ġcool":5734,"Ġintersection":5735,"Ġsymbol":5736,"ĠBarb":5737,"ĠBank":5738,"Ġ1976":5739,"zen":5740,"ĠEven":5741,"Ġapproved":5742,"Ġchance":5743,"ĠLieutenant":5744,"Ġsecondary":5745,"Ġhydro":5746,"ĠAv":5747,"ĠSteve":5748,"ĠSix":5749,"ading":5750,"Ġvon":5751,"omew":5752,"ĠFall":5753,"Ġlosses":5754,"ali":5755,"Ġmyth":5756,"Ġcontest":5757,"Ġrac":5758,"rence":5759,"Ġprepared":5760,"Ġsubstant":5761,"itors":5762,"Ġbelief":5763,"ĠRome":5764,"Ġenl":5765,"iful":5766,"Ġletters":5767,"ologist":5768,"ĠConst":5769,"ographic":5770,"Ġsignificantly":5771,"Ġwitness":5772,"ĠSu":5773,"Ġbands":5774,"Ġsort":5775,"ĠAlso":5776,"ĠDavis":5777,"Ã¡n":5778,"Ġcard":5779,"Ġsave":5780,"onder":5781,"ora":5782,"ĠBrian":5783,"ĠHMS":5784,"Ġdomestic":5785,"ĠWater":5786,"ĠMusl":5787,"ĠUN":5788,"ĠDaily":5789,"Ġ250":5790,"Ġfranchise":5791,"Ġknew":5792,"ĠAddition":5793,"ryst":5794,"Ġgoes":5795,"Ġliterature":5796,"eral":5797,"Ġunsuccess":5798,"Ġinstruct":5799,"Ġheads":5800,"achus":5801,"Ġsouthwest":5802,"Ġactress":5803,"Ġtechnology":5804,"ĠGib":5805,"Ġsemi":5806,"ĠSpecial":5807,"Ġadvent":5808,"break":5809,"Ġdescend":5810,"Ġroughly":5811,"ĠDown":5812,"Ġ67":5813,"range":5814,"Ġurban":5815,"ĠGer":5816,"ĠProv":5817,"Ġcab":5818,"ĠNaz":5819,"asty":5820,"ĠSyd":5821,"ĠAtt":5822,"ĠBeyon":5823,"enc":5824,"ĠWalter":5825,"unte":5826,"aka":5827,"theless":5828,"Ġpainting":5829,"Ġadult":5830,"ati":5831,"Ġcars":5832,"Ġanything":5833,"Ġpitch":5834,"Ġprojects":5835,"ĠMas":5836,"Ġlb":5837,"ĠLy":5838,"Ġassault":5839,"Ġexact":5840,"Ġbrothers":5841,"oz":5842,"Ġresistance":5843,"Ġgameplay":5844,"Ġbor":5845,"Ġcore":5846,"ĠPrinc":5847,"Ġneighbor":5848,"Ġsand":5849,"Ġshape":5850,"Ġstoryline":5851,"Ġreasons":5852,"Ġrules":5853,"iminal":5854,"Ġign":5855,"Ġemployed":5856,"Ġtank":5857,"ropri":5858,"ĠSand":5859,"ĠSupreme":5860,"ĠKen":5861,"Ġdaily":5862,"ĠPoint":5863,"Ġinjured":5864,"omic":5865,"Ġwatched":5866,"Ġshall":5867,"ĠMean":5868,"Ġagent":5869,"ients":5870,"amm":5871,"ĠNap":5872,"onym":5873,"Ġ1946":5874,"Ġpopularity":5875,"ĠIV":5876,"ĠLady":5877,"Ġcomposition":5878,"ĠInc":5879,"ĠBell":5880,"ĠTen":5881,"ĠGord":5882,"ĠKentucky":5883,"Ġperhaps":5884,"Ġfit":5885,"Ġisol":5886,"Ġadding":5887,"Ġenjoyed":5888,"Ġrenamed":5889,"Ġopinion":5890,"Ġgetting":5891,"Ġdeclined":5892,"ĠCommand":5893,"Ġcalc":5894,"agement":5895,"Ġcompris":5896,"Ġreputation":5897,"Ġ96":5898,"Ġ68":5899,"Ġnor":5900,"osl":5901,"inking":5902,"Ġ1981":5903,"atre":5904,"Ġshaped":5905,"Ġestate":5906,"Ġconnected":5907,"Ġlov":5908,"Ġundert":5909,"Ġrend":5910,"Ġ72":5911,"Ġretire":5912,"Ġdrew":5913,"ĠFair":5914,"Ġmuseum":5915,"oir":5916,"ĠIndust":5917,"Ġpoem":5918,"Ġregarding":5919,"ĠOlympics":5920,"Ġviews":5921,"Ġstages":5922,"ulpt":5923,"Ġconverted":5924,"bound":5925,"Ġdry":5926,"Ġ1917":5927,"ceived":5928,"ĠBeyoncÃ©":5929,"iform":5930,"igg":5931,"ĠStation":5932,"Ġagricult":5933,"ĠâĪĴ":5934,"rett":5935,"Ġallows":5936,"Ġsun":5937,"Ġdistingu":5938,"Ġnick":5939,"Ġalternative":5940,"ĠColonel":5941,"achusetts":5942,"ĠOb":5943,"vest":5944,"ules":5945,"ĠNorway":5946,"ĠUpon":5947,"ato":5948,"ads":5949,"According":5950,"rets":5951,"Ġbed":5952,"Ġheaded":5953,"athan":5954,"Ġdepth":5955,"Ġ87":5956,"Ġmissing":5957,"Ġcited":5958,"ĠIndepend":5959,"Ġincreasingly":5960,"ko":5961,"ĠMassachusetts":5962,"osis":5963,"ĠSpring":5964,"Ġstadium":5965,"Ġapproached":5966,"eper":5967,"Ġturning":5968,"gal":5969,"ĠAirport":5970,"ĠMos":5971,"Ġresponded":5972,"Ġplanning":5973,"ĠBase":5974,"Ġexerc":5975,"Ġknowledge":5976,"Ġeasily":5977,"Ġ160":5978,"ĠPhilipp":5979,"hat":5980,"Ġwealth":5981,"Ġoverl":5982,"ĠKir":5983,"Ġcells":5984,"ilding":5985,"Ġfashion":5986,"ĠMain":5987,"Ġescort":5988,"Ġequal":5989,"ĠBern":5990,"ĠDream":5991,"ĠPlan":5992,"Ġcollected":5993,"Ġ1948":5994,"Ġsucceeded":5995,"Ġ700":5996,"psons":5997,"Ġconstitution":5998,"mod":5999,"eman":6000,"lan":6001,"ĠWomen":6002,"ĠAbb":6003,"Ġsafety":6004,"Ġflu":6005,"Ġrebu":6006,"Ġexistence":6007,"ĠPrem":6008,"unicip":6009,"Ġtrip":6010,"Ġpul":6011,"wise":6012,"ignment":6013,"Ġintroduction":6014,"Ġoccas":6015,"Ġauth":6016,"ĠSimpsons":6017,"Ġmodels":6018,"Ġlearned":6019,"Ġcolle":6020,"Ġsustained":6021,"ĠOnly":6022,"ĠRoss":6023,"Ġtall":6024,"Ġpromotion":6025,"Ġoperating":6026,"mitted":6027,"uration":6028,"ĠBall":6029,"Ġ69":6030,"Ġbaseball":6031,"Ġcarrying":6032,"Ġexchange":6033,"Ġlimit":6034,"Ġyouth":6035,"Ġshowing":6036,"ĠWalk":6037,"onia":6038,"iger":6039,"Ġburied":6040,"engers":6041,"come":6042,"Ġ1978":6043,"Ġhumans":6044,"ĠSus":6045,"Ġcredited":6046,"Ġdepend":6047,"leton":6048,"Ġ63":6049,"Ġarranged":6050,"Ġ91":6051,"Ġimprove":6052,"Ġseems":6053,"Ġimpl":6054,"ĠGolden":6055,"ĠHart":6056,"Ġweakened":6057,"ĠImperial":6058,"oli":6059,"ĠSel":6060,"Ġ78":6061,"Ġdesigns":6062,"Ġ73":6063,"inary":6064,"Ġjoint":6065,"Ġpaint":6066,"state":6067,"ĠRon":6068,"ĠOttoman":6069,"Ġathlet":6070,"istan":6071,"Ġrhy":6072,"Ġ1915":6073,"Ġproceed":6074,"Ġproducing":6075,"put":6076,"eler":6077,"acts":6078,"Ġvan":6079,"Ġfreeway":6080,"ĠWhit":6081,"Ġearliest":6082,"ĠVietnam":6083,"Ġflat":6084,"Ġlasted":6085,"ĠSongs":6086,"Ġlandfall":6087,"Ġsettlement":6088,"Ġnote":6089,"Ġdescription":6090,"Ġretained":6091,"ĠAmong":6092,"Ġacres":6093,"ĠCape":6094,"Ġbrand":6095,"Ġton":6096,"ĠImp":6097,"Ġlaws":6098,"ivalent":6099,"Ġappoint":6100,"ĠVi":6101,"Ġgenre":6102,"Ġ94":6103,"ĠSydney":6104,"ĠPoland":6105,"ĠPict":6106,"Ġprograms":6107,"Ġconsc":6108,"pet":6109,"ources":6110,"Ġassistant":6111,"Äģ":6112,"Ġplayoff":6113,"Ġ1977":6114,"ĠBal":6115,"ivered":6116,"Ġreplace":6117,"Ġinstall":6118,"ĠNaval":6119,"Ġreserve":6120,"issance":6121,"Ġstatement":6122,"bell":6123,"Ġvirt":6124,"Ġapplied":6125,"Ġcatch":6126,"Ġtrust":6127,"Ġviolence":6128,"Ġneut":6129,"ĠAD":6130,"insula":6131,"Ġscientific":6132,"Ġentrance":6133,"Ġcoastal":6134,"eor":6135,"othes":6136,"ĠNick":6137,"Ġtick":6138,"For":6139,"iege":6140,"Ġhits":6141,"hi":6142,"reets":6143,"ader":6144,"Ġconsequ":6145,"tical":6146,"rell":6147,"avig":6148,"ĠArts":6149,"Ġexclus":6150,"Ġ81":6151,"Ġsynt":6152,"Ġsculpt":6153,"Ġbattery":6154,"math":6155,"Ġ1963":6156,"Ġitems":6157,"ĠWho":6158,"Ġcandidate":6159,"Ġtowns":6160,"Ġindicated":6161,"lee":6162,"Ġ98":6163,"dd":6164,"oard":6165,"ĠLet":6166,"Ġuns":6167,"time":6168,"Ġgradually":6169,"Ġdistribution":6170,"Ġpolitics":6171,"ĠMTV":6172,"Ġdelivered":6173,"Ġ1916":6174,"Ġstopped":6175,"Ġfilled":6176,"ĠJes":6177,"Ġindependence":6178,"Ġban":6179,"Ġtact":6180,"izations":6181,"ĠBowl":6182,"eke":6183,"Ġsections":6184,"ĠStew":6185,"Ġdetails":6186,"ĠMcG":6187,"eless":6188,"ĠDue":6189,"ĠRoy":6190,"rec":6191,"Ġcinem":6192,"Ġselect":6193,"Å¡":6194,"Ġcombination":6195,"mun":6196,"uro":6197,"He":6198,"Ġemp":6199,"ela":6200,"Ġsupplies":6201,"ĠCur":6202,"ĠConfeder":6203,"Ġways":6204,"Ġglass":6205,"ĠMaryland":6206,"Ġparties":6207,"Ġ71":6208,"ÅĤ":6209,"ender":6210,"AT":6211,"Ġstream":6212,"Ġengines":6213,"GN":6214,"ushing":6215,"Ġprisoners":6216,"Ġcamera":6217,"Ġappeal":6218,"ĠJay":6219,"ĠStadium":6220,"ĠCra":6221,"Ġregister":6222,"Ġcampus":6223,"Ġbask":6224,"emies":6225,"Ġ1919":6226,"Ġacts":6227,"Ġmig":6228,"Ġextremely":6229,"Ġentitled":6230,"Ġ1962":6231,"Ġsecure":6232,"Ġ89":6233,"ĠOnce":6234,"Ġfinding":6235,"Ġonline":6236,"Ġdecade":6237,"ĠMoore":6238,"ĠRid":6239,"ĠEdu":6240,"inois":6241,"Ġtal":6242,"poration":6243,"iques":6244,"ĠFire":6245,"ez":6246,"acter":6247,"Ġwinner":6248,"iversary":6249,"ĠMeanwhile":6250,"ropol":6251,"Ġarc":6252,"Ġevening":6253,"ĠAri":6254,"Ġregiment":6255,"ĠPass":6256,"ĠRem":6257,"Ġinvestigation":6258,"ĠTheatre":6259,"ĠReview":6260,"Ġbought":6261,"Ġ88":6262,"Ġthreatened":6263,"Ġmessage":6264,"Ġadapted":6265,"iller":6266,"Ġsomew":6267,"Ġsurvived":6268,"Ġknots":6269,"Ġconsum":6270,"Ġ1938":6271,"Ġ82":6272,"Ġstudied":6273,"ĠRhodes":6274,"ador":6275,"ĠAC":6276,"Ġproposal":6277,"Ġwrites":6278,"ĠBand":6279,"Ġdeaths":6280,"ja":6281,"Ġaddress":6282,"arp":6283,"Ġroutes":6284,"iat":6285,"Ġwars":6286,"ashed":6287,"Ġdownload":6288,"Ġruled":6289,"met":6290,"Ġfear":6291,"BS":6292,"Ġrelief":6293,"Ġreligion":6294,"Ġmales":6295,"Ġreduce":6296,"Ġvoted":6297,"ighters":6298,"ieval":6299,"ĠMulder":6300,"Ġrevolution":6301,"bro":6302,"Ġspecifically":6303,"Ġspons":6304,"Ġcrown":6305,"ĠStaff":6306,"Ġphase":6307,"mann":6308,"Ġduty":6309,"Ġfict":6310,"ano":6311,"phoon":6312,"Ġkingdom":6313,"ĠRun":6314,"Ġrecalled":6315,"bourne":6316,"Ġec":6317,"ctions":6318,"Ġportrayed":6319,"ĠJan":6320,"Ġsoul":6321,"ca":6322,"ĠUnivers":6323,"Ġimplement":6324,"ĠGreg":6325,"Ġcontroversy":6326,"Ġemerg":6327,"ĠGordon":6328,"aug":6329,"ĠBon":6330,"BN":6331,"Ġcauses":6332,"ician":6333,"apes":6334,"ervative":6335,"Ġble":6336,"Ġet":6337,"Ġeverything":6338,"Ġbreeding":6339,"ĠVar":6340,"chers":6341,"Ġsell":6342,"adow":6343,"Ġreferences":6344,"Ġstret":6345,"Ġ130":6346,"Ġago":6347,"Ġbottom":6348,"ĠLoc":6349,"Ġcapable":6350,"ĠVill":6351,"Ġconvin":6352,"Ġteacher":6353,"Ġimportance":6354,"ĠMemorial":6355,"Ġ1956":6356,"Ġentry":6357,"Ġmeters":6358,"ĠAge":6359,"Ġoffers":6360,"Ġ175":6361,"Ġtanks":6362,"senal":6363,"Ġsufficient":6364,"entially":6365,"Ġowner":6366,"Ġinternal":6367,"Ġopera":6368,"Ġarrested":6369,"ridges":6370,"Ġadmitted":6371,"ĠWell":6372,"Ġnomination":6373,"oys":6374,"bar":6375,"Ġcopy":6376,"ĠKong":6377,"Ġcrossed":6378,"Ġclimb":6379,"Ġproducts":6380,"Ġ79":6381,"Ġ1936":6382,"It":6383,"wich":6384,"Ġcorner":6385,"ĠSingles":6386,"Ġequipped":6387,"hr":6388,"Ġinstalled":6389,"ĠCirc":6390,"ĠConstant":6391,"Ġpreced":6392,"Ġconcerns":6393,"aki":6394,"Ġmort":6395,"Ġoverse":6396,"Ġautom":6397,"Ġinvited":6398,"ĠBir":6399,"ĠBa":6400,"Ġones":6401,"Ġconqu":6402,"Ġinterested":6403,"ĠProf":6404,"Ġstarts":6405,"Ġcrime":6406,"Ġprincipal":6407,"Ġfly":6408,"ĠKim":6409,"Ġshel":6410,"ranean":6411,"ĠBeach":6412,"Ġtell":6413,"Ġalt":6414,"ructure":6415,"Ġrecommended":6416,"Ġunl":6417,"Ġacid":6418,"Ġremainder":6419,"Ġmedal":6420,"ta":6421,"Ġshut":6422,"ansas":6423,"Ġactual":6424,"Ġsnow":6425,"ĠPlot":6426,"Ġretreat":6427,"Ġjourney":6428,"ĠUTC":6429,"Ġstock":6430,"Ġvent":6431,"Ġupgrad":6432,"espread":6433,"Ġcharged":6434,"ĠAbout":6435,"Ġsolid":6436,"Ġapart":6437,"ordan":6438,"Ġprice":6439,"Ġfunds":6440,"Ġobjects":6441,"ĠInstead":6442,"ĠJustice":6443,"Ġdoor":6444,"osaurus":6445,"ilation":6446,"ĠAnth":6447,"Ġcomposer":6448,"ĠYour":6449,"Ġfemales":6450,"Ġgall":6451,"aked":6452,"Ġconsisting":6453,"ĠRa":6454,"Ġpromote":6455,"ĠVII":6456,"Ġmilit":6457,"vis":6458,"Ġpage":6459,"ĠGram":6460,"ĠMoon":6461,"Ġ84":6462,"ĠCop":6463,"Ġ1961":6464,"Ġconsiderable":6465,"Ġdates":6466,"Ġpoly":6467,"ĠColl":6468,"hus":6469,"ĠNic":6470,"Ġtypical":6471,"ĠForest":6472,"Ġgrounds":6473,"Ġ1953":6474,"Ġcorrect":6475,"iy":6476,"erted":6477,"Ġduties":6478,"ĠOk":6479,"Ġextension":6480,"Ġblow":6481,"ĠHere":6482,"cks":6483,"rete":6484,"ĠJane":6485,"Ġevolution":6486,"Ġsomeone":6487,"BI":6488,"Ġcong":6489,"Ġrural":6490,"Ġpenal":6491,"add":6492,"ĠId":6493,"ĠNether":6494,"ĠNBA":6495,"ĠBos":6496,"Ġeighth":6497,"vements":6498,"Ġspin":6499,"Ġsole":6500,"Ġhotel":6501,"ĠDougl":6502,"king":6503,"ĠUr":6504,"osite":6505,"Ġdecades":6506,"ĠVideo":6507,"Ġimages":6508,"mb":6509,"ĠAst":6510,"ĠFound":6511,"Ġdriving":6512,"Ġreading":6513,"Ġidentity":6514,"ĠPo":6515,"Ġzone":6516,"elson":6517,"ĠMcK":6518,"ĠAdams":6519,"Ġoccurs":6520,"hetic":6521,"Ġmanner":6522,"Ġsubs":6523,"Ġskin":6524,"Ġchallenge":6525,"ĠIndones":6526,"ĠDeath":6527,"Ġlane":6528,"Ġremix":6529,"ĠAlf":6530,"Ġaspects":6531,"Ġtow":6532,"Ġpermanent":6533,"Ġaer":6534,"Ġbrigade":6535,"Ġfrag":6536,"19":6537,"ĠSunday":6538,"Ġvolcan":6539,"ĠTony":6540,"Ġdated":6541,"Ġham":6542,"ĠNorwe":6543,"Ġ1947":6544,"ĠMaria":6545,"ĠEngine":6546,"Ġvir":6547,"ĠTransport":6548,"Ġnoting":6549,"Ġrestaur":6550,"after":6551,"Ġcolour":6552,"ubb":6553,"ione":6554,"Ġsupporters":6555,"ĠHamilton":6556,"Ġslowly":6557,"ĠDirector":6558,"Ġclean":6559,"nic":6560,"Ġposted":6561,"ensus":6562,"ivals":6563,"ĠPit":6564,"iley":6565,"Ġ1958":6566,"ĠProject":6567,"veland":6568,"cknow":6569,"Ġdescribing":6570,"Ġ86":6571,"Ġinvolving":6572,"ĠIndiana":6573,"Ġspeak":6574,"Ġvessels":6575,"Ġentering":6576,"ĠCart":6577,"ĠProg":6578,"ĠPortug":6579,"Ġenemies":6580,"Ġ1910":6581,"Ġ110":6582,"Ġdress":6583,"ĠKennedy":6584,"aware":6585,"Ġequivalent":6586,"ĠSimon":6587,"Ġclasses":6588,"Ġbra":6589,"ĠPower":6590,"ĠAssembly":6591,"ooth":6592,"Ġ1957":6593,"Ġdebate":6594,"Ġsettled":6595,"Ġdin":6596,"Ġdepartment":6597,"Ġobtained":6598,"Ġ1937":6599,"regon":6600,"ĠIGN":6601,"ĠHou":6602,"ĠFA":6603,"Ġaccur":6604,"Ġarmor":6605,"ĠMilitary":6606,"ĠAlan":6607,"Ġparliament":6608,"erto":6609,"Ġtele":6610,"Ġsongwrit":6611,"Ġbasic":6612,"ĠTurk":6613,"risis":6614,"ĠMagazine":6615,"Ġpurchase":6616,"agues":6617,"ĠAdam":6618,"Ġpup":6619,"Ġpatrol":6620,"Ġfolk":6621,"Ġnest":6622,"Ġoldest":6623,"Ġfaith":6624,"Ġdeparture":6625,"fl":6626,"Ġwidespread":6627,"Ġconcerned":6628,"Ġdecline":6629,"Ġformal":6630,"ĠScully":6631,"Ġconnection":6632,"cation":6633,"ophy":6634,"Ġincome":6635,"Ġattached":6636,"hered":6637,"rim":6638,"Ġrecognition":6639,"Ġinteg":6640,"Ġmemorial":6641,"ĠConstitution":6642,"ĠRose":6643,"Ġcertified":6644,"heastern":6645,"Ġouter":6646,"ĠCult":6647,"Ġdeleg":6648,"ibb":6649,"Ġaccused":6650,"Ġsequel":6651,"ĠMountain":6652,"Ġderived":6653,"Ġdecor":6654,"rates":6655,"wan":6656,"ĠScience":6657,"Ġmode":6658,"ĠHoward":6659,"ĠWeekly":6660,"Ġha":6661,"ĠHitler":6662,"aret":6663,"Ġwearing":6664,"Ġhip":6665,"Ġdisturb":6666,"icit":6667,"ĠKat":6668,"Ġassumed":6669,"western":6670,"Ġwed":6671,"RA":6672,"ĠGun":6673,"Ġswim":6674,"Ġacknow":6675,"Ġtorn":6676,"Ġacclaim":6677,"ĠIllinois":6678,"ĠâĢĿ":6679,"Ġsurvey":6680,"organ":6681,"Ġcommitted":6682,"ĠArgent":6683,"Ġfoss":6684,"ĠPear":6685,"iot":6686,"Ġhosted":6687,"aver":6688,"Ġreturns":6689,"Ġvalley":6690,"Ġsegment":6691,"Ġsessions":6692,"Ġpopulations":6693,"agonist":6694,"Ġdenied":6695,"ekend":6696,"Ġfine":6697,"ĠBrist":6698,"Ġ1959":6699,"Ġtemple":6700,"ĠTar":6701,"ĠIra":6702,"Ġhang":6703,"iterranean":6704,"eing":6705,"Ġchampion":6706,"ĠBry":6707,"ĠInt":6708,"Ġcharges":6709,"Ġliterary":6710,"iva":6711,"ĠLeon":6712,"ĠMarc":6713,"Ġcanc":6714,"Ġregional":6715,"Ġthousands":6716,"Ġterminus":6717,"Ġtransition":6718,"ĠEric":6719,"Ġcircum":6720,"Ġsupposed":6721,"ĠBeatles":6722,"ĠSpace":6723,"Ġwarm":6724,"ĠMediterranean":6725,"ĠOregon":6726,"Ġwickets":6727,"Ġdemand":6728,"ĠDrag":6729,"ĠRolling":6730,"ĠWWE":6731,"Ġans":6732,"ĠAk":6733,"ĠGill":6734,"ĠStand":6735,"Ġ1954":6736,"Ġ1955":6737,"Ġshots":6738,"hedral":6739,"ĠISBN":6740,"udden":6741,"Ġstrongly":6742,"ĠNorwegian":6743,"borne":6744,"achel":6745,"heme":6746,"Ġcirculation":6747,"IA":6748,"Ġintelligence":6749,"ĠResearch":6750,"Ġsailed":6751,"Ġpossibility":6752,"ĠHug":6753,"Ġpassengers":6754,"Ġgeneration":6755,"emed":6756,"ĠRyan":6757,"Ġhope":6758,"Ġfictional":6759,"Ġanimated":6760,"ĠKey":6761,"ĠCleveland":6762,"ĠDouglas":6763,"ĠSav":6764,"Ġcommit":6765,"ĠPier":6766,"Ġfreedom":6767,"Ġthirty":6768,"Ġdowntown":6769,"ĠTrack":6770,"ĠStanley":6771,"ĠJordan":6772,"ito":6773,"ĠLenn":6774,"Ġhill":6775,"ami":6776,"ĠMedia":6777,"Ġrich":6778,"Ġminister":6779,"omp":6780,"Ġbehavior":6781,"Ġcloud":6782,"rage":6783,"ĠThird":6784,"ĠChannel":6785,"Ġassistance":6786,"Ġreplacement":6787,"Ġbegun":6788,"Ġfruit":6789,"Ġcommanded":6790,"ĠTreat":6791,"ĠÃĹ":6792,"Ġdestruction":6793,"atinum":6794,"lig":6795,"Ġmoves":6796,"don":6797,"mes":6798,"CA":6799,"oral":6800,"char":6801,"Ġcriminal":6802,"Ġmissions":6803,"Ġcosts":6804,"Ġmissed":6805,"ĠInit":6806,"Ġexception":6807,"ĠFreder":6808,"orced":6809,"Ġcrash":6810,"upt":6811,"Ġhighlight":6812,"Ġbringing":6813,"ĠAz":6814,"ĠFeder":6815,"Ġtied":6816,"isms":6817,"ĠGen":6818,"Ġintention":6819,"Ġfeeling":6820,"onto":6821,"Ġspeaking":6822,"ĠKorea":6823,"ĠCritical":6824,"Ġunusual":6825,"elsh":6826,"Ġintercept":6827,"Ġfinishing":6828,"Ġalleged":6829,"har":6830,"ĠMexican":6831,"Ġdemol":6832,"Ġproperties":6833,"Ġincorporated":6834,"lets":6835,"ĠFederal":6836,"Ġopposite":6837,"ĠAndy":6838,"Ġstayed":6839,"Ġflo":6840,"Ġattributed":6841,"Ġshop":6842,"Ġvolunte":6843,"Ġrecovered":6844,"ĠFame":6845,"Ġsons":6846,"Ġbreaking":6847,"Ġemerged":6848,"Ġserves":6849,"ĠPhilip":6850,"Ġatmosphere":6851,"ĠTenn":6852,"ĠHo":6853,"ĠBristol":6854,"Ġdipl":6855,"Ġ1952":6856,"Ġchorus":6857,"Ġtheatre":6858,"rating":6859,"Ġdriven":6860,"ĠBetween":6861,"Ġoccasionally":6862,"ĠPur":6863,"othing":6864,"olec":6865,"enses":6866,"Ġstrateg":6867,"umin":6868,"riers":6869,"Ġclassic":6870,"Ġspok":6871,"Ġready":6872,"Ġregularly":6873,"ĠLow":6874,"ogen":6875,"aza":6876,"Ġeffectively":6877,"Ġcavalry":6878,"oyd":6879,"ĠEs":6880,"ĠColor":6881,"Ġestablishment":6882,"aire":6883,"Ġprey":6884,"Ġcourts":6885,"Ġmethods":6886,"ĠFamily":6887,"Ġsounds":6888,"thm":6889,"Ġvary":6890,"ĠâĢľ":6891,"oslav":6892,"Ġdivers":6893,"Sp":6894,"Ġsuperv":6895,"ece":6896,"Ġdream":6897,"Ġcompletion":6898,"Ġstrengthen":6899,"Ġshore":6900,"Ġ92":6901,"Ġ93":6902,"Ġ1933":6903,"Ġmaterials":6904,"ĠBol":6905,"ĠBruce":6906,"uty":6907,"Ġ176":6908,"ĠHawai":6909,"ĠRain":6910,"ĠRele":6911,"Ġresponsibility":6912,"Ġdissip":6913,"wen":6914,"ĠBush":6915,"ĠDisc":6916,"Ġmicro":6917,"Ġwarning":6918,"Ġaccommod":6919,"ĠDer":6920,"ĠPhill":6921,"Ġheat":6922,"Ġattracted":6923,"Ġfields":6924,"Ġsurviving":6925,"ĠCE":6926,"Ġprovince":6927,"ban":6928,"ĠBah":6929,"Ġentertain":6930,"Ġpersu":6931,"Be":6932,"ici":6933,"Ġglobal":6934,"ĠSab":6935,"rane":6936,"icks":6937,"Ġquant":6938,"Ġclassified":6939,"Ġkid":6940,"sole":6941,"Ġdifferences":6942,"Ġdivisions":6943,"Ġtechnical":6944,"Ġinterpret":6945,"vens":6946,"Ġbrain":6947,"ĠMorgan":6948,"ĠKevin":6949,"rum":6950,"Ġcruiser":6951,"emeter":6952,"ipe":6953,"reck":6954,"abled":6955,"Ġpassage":6956,"Ġaboard":6957,"Ġnone":6958,"Ġ1935":6959,"Ġsam":6960,"weight":6961,"Ġclubs":6962,"Ġstood":6963,"Ġassociation":6964,"Ġratings":6965,"ĠNorman":6966,"ĠWeb":6967,"Ġneither":6968,"Ġeleven":6969,"ĠSky":6970,"night":6971,"ĠCab":6972,"Ġmusicians":6973,"ĠUSA":6974,"nce":6975,"Ġrooms":6976,"ĠLisa":6977,"ĠLanc":6978,"agle":6979,"idden":6980,"Ġmedic":6981,"ĠSweden":6982,"Ġreinforce":6983,"ĠCas":6984,"omot":6985,"ĠNow":6986,"Ġdesire":6987,"ĠNar":6988,"Ġhal":6989,"Ġ1949":6990,"Ġseparated":6991,"Ã³n":6992,"Ġclimate":6993,"ĠRoger":6994,"Ġsqu":6995,"Ġ1951":6996,"Ġshif":6997,"Ġoutbreak":6998,"Ġclassification":6999,"Ġancest":7000,"Ġvehicle":7001,"Ġreality":7002,"Ġpredecess":7003,"Ġseemed":7004,"nings":7005,"ĠNations":7006,"Ġchemical":7007,"ĠToday":7008,"Ġvotes":7009,"Ġpicture":7010,"teenth":7011,"ĠMaster":7012,"ĠFinn":7013,"Ġbattleships":7014,"Ġrose":7015,"ĠRow":7016,"ĠBudd":7017,"Ġmemory":7018,"ĠArsenal":7019,"ĠMorris":7020,"Ġhoped":7021,"ji":7022,"Ġment":7023,"ĠRaj":7024,"ĠFive":7025,"Ġrequested":7026,"ĠByzantine":7027,"Ġmovements":7028,"inton":7029,"ĠTelevision":7030,"ogy":7031,"Ġraise":7032,"Ġille":7033,"ĠEver":7034,"Ġhistorians":7035,"arsh":7036,"burn":7037,"Ġmap":7038,"ĠWelsh":7039,"inder":7040,"Ġdifficulty":7041,"Ġmo":7042,"ĠScient":7043,"Ġbasketball":7044,"ĠTemple":7045,"ige":7046,"ewhere":7047,"ĠNetherlands":7048,"ĠHell":7049,"Ġvide":7050,"Ġexpect":7051,"abil":7052,"Ġcommunities":7053,"ĠPremier":7054,"Ġrestored":7055,"ĠRobinson":7056,"Ġraid":7057,"Ġca":7058,"Ġteen":7059,"ĠConc":7060,"Ġremember":7061,"Ġprogramme":7062,"ĠWhe":7063,"ĠToronto":7064,"Ġpremiere":7065,"Ġpure":7066,"Ġdelayed":7067,"Sh":7068,"Ġfal":7069,"Ġrelative":7070,"Ġinspiration":7071,"Ġdiscovery":7072,"Ġgal":7073,"Ġfer":7074,"Ġotherwise":7075,"Ġgreatly":7076,"ĠJews":7077,"ĠFord":7078,"Ġanniversary":7079,"Ġinjuries":7080,"ĠAnton":7081,"ĠChron":7082,"ĠNelson":7083,"ĠNich":7084,"Ġaccounts":7085,"Ġsatisf":7086,"ĠSax":7087,"ĠDog":7088,"Ġfunding":7089,"Ġsurrounded":7090,"Ġflank":7091,"ĠFrancis":7092,"Ġdepict":7093,"Ġpraise":7094,"Ġpenalty":7095,"Ġspoke":7096,"hire":7097,"ilers":7098,"Ġbatting":7099,"Ġneeds":7100,"ĠBelg":7101,"iate":7102,"Ġdens":7103,"Ġpartner":7104,"Ġstrate":7105,"Ġdie":7106,"ĠKr":7107,"Ġcrop":7108,"Ġmassive":7109,"Ġweapon":7110,"Ġ1900":7111,"anth":7112,"Ġphotograph":7113,"Ġrecru":7114,"Ġclaiming":7115,"Ġsuit":7116,"ĠIraq":7117,"ĠBang":7118,"ĠDE":7119,"ĠJournal":7120,"Ġassemb":7121,"Ġastron":7122,"Ġlat":7123,"Ġtries":7124,"Ġforming":7125,"Ġstrategy":7126,"Ġwrong":7127,"ĠIron":7128,"ĠTechn":7129,"ĠPA":7130,"real":7131,"Ġcra":7132,"ĠSports":7133,"ĠPow":7134,"Ġlegend":7135,"ĠMit":7136,"ĠAdditionally":7137,"Ġaccompl":7138,"Ġdocumentary":7139,"ĠPatrick":7140,"Ġfled":7141,"Ġcrosses":7142,"Ġworst":7143,"ĠEle":7144,"ĠGh":7145,"onds":7146,"Ġstands":7147,"gets":7148,"wing":7149,"Ġarchitecture":7150,"Ġash":7151,"uther":7152,"ĠDig":7153,"ĠAllen":7154,"ĠSn":7155,"Ġtemporary":7156,"uble":7157,"Ġgirls":7158,"Ġchairman":7159,"Ġdetermine":7160,"Ġdismissed":7161,"aired":7162,"ĠMarg":7163,"Ġinvolvement":7164,"ĠDean":7165,"Ġbombard":7166,"Ġsale":7167,"Ġcategory":7168,"ĠAnne":7169,"ĠRecording":7170,"formula":7171,"ĠArmen":7172,"Ġplane":7173,"Ġinner":7174,"Ġremn":7175,"Ġadaptation":7176,"ĠJacob":7177,"Ġhear":7178,"aya":7179,"ĠMarine":7180,"going":7181,"Ġconvinced":7182,"usic":7183,"ĠOak":7184,"Ġensure":7185,"Ġenf":7186,"Ġsight":7187,"ĠOpen":7188,"Ġcul":7189,"ĠDor":7190,"Ġweekend":7191,"ĠCentre":7192,"PA":7193,"Ġ06":7194,"ĠCroatian":7195,"Ġresources":7196,"Ġsomewhat":7197,"ĠDomin":7198,"ĠNFL":7199,"Ġreserv":7200,"ĠProfess":7201,"Ġinterests":7202,"ĠHeart":7203,"ĠBishop":7204,"Ġscheme":7205,"Ġmedieval":7206,"Ġimmediate":7207,"Ġstreets":7208,"agre":7209,"Ġpresidential":7210,"Ġlibrary":7211,"Ġabsor":7212,"ĠDesign":7213,"Ġray":7214,"Ġcarbon":7215,"body":7216,"Ġconsp":7217,"ĠArn":7218,"po":7219,"itzer":7220,"Ġic":7221,"ĠTrib":7222,"ĠHoly":7223,"ĠGlob":7224,"Ġfalling":7225,"Ġcolonial":7226,"ĠIslam":7227,"ĠDa":7228,"ĠWright":7229,"aph":7230,"Ġtechniques":7231,"Ġori":7232,"ester":7233,"Ġclassical":7234,"Ġsed":7235,"Ġfighter":7236,"Ġninth":7237,"ĠPuerto":7238,"Ġappropri":7239,"Ġthrone":7240,"Ġstarred":7241,"Ġeggs":7242,"Ġacademic":7243,"Ġraces":7244,"This":7245,"Ġbright":7246,"oster":7247,"Ã±":7248,"icide":7249,"Ġadults":7250,"ĠNC":7251,"ĠAgain":7252,"Ġconvent":7253,"Ġcommemor":7254,"Ġpassenger":7255,"Ġsurviv":7256,"Ġloyal":7257,"Ġmeets":7258,"Ġlake":7259,"bec":7260,"ĠNetwork":7261,"ĠWinter":7262,"ĠHop":7263,"ĠStra":7264,"Ġreviewer":7265,"rine":7266,"Ġalien":7267,"Ġpremiered":7268,"Ġsubmarine":7269,"ĠHungarian":7270,"ĠJam":7271,"wealth":7272,"Ġabsence":7273,"Ġseeing":7274,"Ġrenew":7275,"á»":7276,"Ġfitted":7277,"ĠBrother":7278,"Ġsuperior":7279,"osure":7280,"ĠLast":7281,"ĠMars":7282,"Ġelse":7283,"Ġinterior":7284,"ĠCarter":7285,"ĠRang":7286,"Ġfavorite":7287,"orney":7288,"Ġengineer":7289,"ĠMatthew":7290,"ĠRussell":7291,"Ġdub":7292,"ronze":7293,"Ġ1913":7294,"Ġairport":7295,"Ġpartn":7296,"Ġdeemed":7297,"Ġattacking":7298,"ĠShortly":7299,"Ġconclusion":7300,"Ġappearing":7301,"oen":7302,"acent":7303,"Ġvisible":7304,"Ġdating":7305,"ivan":7306,"using":7307,"Ġsynthes":7308,"Ġcharacteristics":7309,"Ġromantic":7310,"Ġleads":7311,"Ġelections":7312,"ĠGard":7313,"ĠNiel":7314,"Ġ1926":7315,"Ġoperate":7316,"Ġfacility":7317,"Ġencouraged":7318,"ĠFront":7319,"Ġrum":7320,"Ġmunicip":7321,"Ġafterwards":7322,"Ġretirement":7323,"da":7324,"Ġlanded":7325,"book":7326,"Ġcolony":7327,"Ġconvection":7328,"ĠPak":7329,"Ġtemperatures":7330,"Ġbuy":7331,"chang":7332,"ĠLabor":7333,"Ġeveryone":7334,"ĠHend":7335,"ĠDick":7336,"Ġdoct":7337,"Ġsuffering":7338,"Ġ1927":7339,"Ġcredit":7340,"elle":7341,"ĠLibrary":7342,"aria":7343,"oming":7344,"Ġlegislation":7345,"Ġmodified":7346,"Ġlies":7347,"Ġ1921":7348,"Ġholds":7349,"Ġchalleng":7350,"ĠUlt":7351,"ĠTa":7352,"ĠNob":7353,"Ġpainted":7354,"Ġcontroversial":7355,"Ġwings":7356,"ĠKelly":7357,"Ġgone":7358,"roit":7359,"ĠâĤ":7360,"Ġ1934":7361,"li":7362,"Ġsan":7363,"ossible":7364,"ĠSimilar":7365,"ĠBou":7366,"Ġbelieves":7367,"ixon":7368,"Ġcode":7369,"urches":7370,"Ġdistributed":7371,"Ġattempting":7372,"ĠWy":7373,"ĠAI":7374,"uster":7375,"Ġstandards":7376,"Ġ08":7377,"Ġlooked":7378,"Ġrescue":7379,"tic":7380,"ĠThompson":7381,"Ġauthors":7382,"ania":7383,"Ġsecured":7384,"Ġ900":7385,"pon":7386,"Ġmonarch":7387,"Ġdepicted":7388,"Ġcancer":7389,"Ġdominated":7390,"Ġx":7391,"Despite":7392,"ĠTok":7393,"aws":7394,"Ġbattleship":7395,"ĠEst":7396,"Ġgrass":7397,"ĠPalace":7398,"Ġhabitat":7399,"asure":7400,"ĠDra":7401,"Ġanyone":7402,"coming":7403,"scape":7404,"apse":7405,"Ġcontinuing":7406,"lyn":7407,"otes":7408,"ĠBerlin":7409,"ĠGri":7410,"Ġjudge":7411,"Ġlongest":7412,"Ġimmig":7413,"Ġwel":7414,"Ġ83":7415,"Ġ1912":7416,"ĠHarris":7417,"Ġarchae":7418,"ĠDNA":7419,"ĠCooper":7420,"Ġbiggest":7421,"Ġunsuccessful":7422,"ĠFree":7423,"Ġunion":7424,"Ġgraphics":7425,"Ġpound":7426,"ache":7427,"encies":7428,"ĠEducation":7429,"eline":7430,"Ġneck":7431,"Ġobtain":7432,"ugoslav":7433,"inals":7434,"Ġtrained":7435,"ĠCommonwealth":7436,"ternal":7437,"ĠUSS":7438,"Ġsudden":7439,"Ġwins":7440,"ĠEvery":7441,"ultane":7442,"Ġjump":7443,"Ġarrangement":7444,"Ġcarrier":7445,"aska":7446,"Ġrailroad":7447,"owa":7448,"ĠStory":7449,"Ġ1932":7450,"ĠRick":7451,"opes":7452,"Ġacknowled":7453,"ĠHouston":7454,"Ġnickn":7455,"ĠTs":7456,"ĠHospital":7457,"ĠYan":7458,"ĠIndians":7459,"Ġinformed":7460,"Ġmeasures":7461,"eenth":7462,"ĠKer":7463,"alo":7464,"ĠAdvent":7465,"Ġbelt":7466,"Ġrepresenting":7467,"emetery":7468,"ĠCommander":7469,"Ġreleases":7470,"Ġachieve":7471,"ĠSanta":7472,"ĠCorporation":7473,"ĠPolice":7474,"ching":7475,"Ġsees":7476,"ĠBatman":7477,"Ġgarrison":7478,"Ġconvention":7479,"una":7480,"Ġformerly":7481,"ĠRAAF":7482,"Ġ09":7483,"Ġgrade":7484,"Ġbab":7485,"ĠUt":7486,"Ġgenerated":7487,"ĠSwedish":7488,"10":7489,"Ġstyles":7490,"Ġcloser":7491,"Ġdeployed":7492,"Ġemergency":7493,"ĠSpe":7494,"ĠParker":7495,"Ġbats":7496,"lie":7497,"rot":7498,"ture":7499,"Ġalleg":7500,"tenance":7501,"Ġquestions":7502,"olph":7503,"Ġhistoric":7504,"Ġmoderate":7505,"fare":7506,"Ġgets":7507,"Ġveter":7508,"Ġtrials":7509,"ĠSimpson":7510,"Ġfestival":7511,"Ġcycle":7512,"Ġmolec":7513,"hemat":7514,"Ġster":7515,"Ġsiege":7516,"Ġinfluential":7517,"ĠGet":7518,"ĠYugoslav":7519,"Ġemotional":7520,"otype":7521,"uts":7522,"ĠBrand":7523,"agu":7524,"Ġowners":7525,"Ġnovels":7526,"ĠNBC":7527,"ĠEy":7528,"Ġsuccessor":7529,"Ġinfluences":7530,"ĠThus":7531,"Ġnarrative":7532,"ĠÅ":7533,"Ġthin":7534,"mate":7535,"ĠBi":7536,"aints":7537,"Ġstead":7538,"Ġru":7539,"ĠDetroit":7540,"Ġexcess":7541,"Ġjournalist":7542,"ĠAcc":7543,"Ġ1929":7544,"Ġchildhood":7545,"Ġeat":7546,"Ġconstant":7547,"Ġexperiences":7548,"ĠHin":7549,"Ġpregn":7550,"Ġdefended":7551,"Ġveget":7552,"Ġdiscussed":7553,"Ġlegs":7554,"Ġapparently":7555,"Ġalco":7556,"Ġ1911":7557,"arked":7558,"Ġinstruments":7559,"Ġassass":7560,"ES":7561,"Ġvictims":7562,"Ġtreated":7563,"ĠMurray":7564,"ĠLyn":7565,"Ġenvironmental":7566,"Ġgiant":7567,"Ġdiplom":7568,"fire":7569,"Ġexecuted":7570,"imore":7571,"Ġdetail":7572,"ĠTal":7573,"Ġ140":7574,"Ġcoins":7575,"ĠRAF":7576,"Ġdepos":7577,"anta":7578,"anny":7579,"Ġoffices":7580,"iens":7581,"Ġfactors":7582,"ĠOt":7583,"Ġ1931":7584,"ĠSilver":7585,"yard":7586,"Ġmine":7587,"ĠCook":7588,"obi":7589,"Ġ1922":7590,"usted":7591,"Ġbear":7592,"Ġconcur":7593,"ĠBure":7594,"DS":7595,"ĠLi":7596,"rams":7597,"achment":7598,"Ġenters":7599,"Ġhunting":7600,"Ġwooden":7601,"noon":7602,"ĠSocial":7603,"ĠWarner":7604,"ĠPC":7605,"ĠAsian":7606,"ĠRoberts":7607,"ĠMort":7608,"aste":7609,"ĠMerc":7610,"Ġchannel":7611,"Ġhundreds":7612,"Ġride":7613,"Ġresigned":7614,"ĠCroatia":7615,"Ġocean":7616,"iliar":7617,"ĠObs":7618,"Ġuniform":7619,"rees":7620,"itter":7621,"Ġgay":7622,"Ġskills":7623,"Ġreveals":7624,"Ġnavig":7625,"ĠCru":7626,"One":7627,"Ġspend":7628,"Ġchapter":7629,"From":7630,"Ġpointed":7631,"text":7632,"ĠXbox":7633,"Ġridge":7634,"Ġclim":7635,"orous":7636,"stances":7637,"ĠCategory":7638,"Ġwatching":7639,"Ġbon":7640,"Ġprevented":7641,"ĠGaga":7642,"ĠConstruction":7643,"Ġpreferred":7644,"ĠKnight":7645,"Ġ05":7646,"ĠMelbourne":7647,"Ġpushed":7648,"Ġpull":7649,"ĠFI":7650,"Ġformat":7651,"ĠSpears":7652,"ĠJesus":7653,"icians":7654,"Ġlocomot":7655,"Ġfootage":7656,"Ġflew":7657,"Ġlanguages":7658,"Ġdifference":7659,"Ġhappened":7660,"Ġformally":7661,"Ġthereafter":7662,"Ġopponents":7663,"Ġdrums":7664,"Ġintent":7665,"Ġreportedly":7666,"Ġfacing":7667,"ĠNielsen":7668,"ois":7669,"ĠVice":7670,"Ġresign":7671,"Ġcheck":7672,"Ġrelationships":7673,"ĠMuslim":7674,"oto":7675,"Ġchain":7676,"Ġintense":7677,"Ġaccomp":7678,"Ġthousand":7679,"tty":7680,"Ġhanded":7681,"Ġdevice":7682,"Ġnotably":7683,"Ġanimation":7684,"ogether":7685,"yo":7686,"Ġfiring":7687,"ĠMun":7688,"Ġvision":7689,"Ġinhabit":7690,"ĠAnthony":7691,"Ġexisted":7692,"Ġvisitors":7693,"ĠExpress":7694,"ĠTower":7695,"Ġsurrender":7696,"ĠSomers":7697,"Ġgather":7698,"ĠModern":7699,"idi":7700,"Ġemployees":7701,"onies":7702,"ĠEvans":7703,"Ġbes":7704,"ĠPrincess":7705,"ĠChamber":7706,"mad":7707,"spec":7708,"ĠTurkish":7709,"Ġaccompany":7710,"Ġ170":7711,"olis":7712,"ĠJason":7713,"Ġdeparted":7714,"Ġlinked":7715,"Ġhearing":7716,"Ġexposed":7717,"Ġparticipate":7718,"Ġpoetry":7719,"Ġdialogue":7720,"stic":7721,"hatt":7722,"ĠAlbums":7723,"ĠClinton":7724,"Ġextent":7725,"ĠStewart":7726,"Ġfil":7727,"Ġdetailed":7728,"Ġannounce":7729,"jo":7730,"ĠOd":7731,"Ġsubstantial":7732,"ican":7733,"ĠQueens":7734,"Ġlearning":7735,"ĠGreece":7736,"Ġbeach":7737,"Ġaudio":7738,"ĠBulgar":7739,"Ġinstance":7740,"Ġuniverse":7741,"ropolitan":7742,"lock":7743,"Ġrebell":7744,"Ġconvoy":7745,"Ġcruisers":7746,"unes":7747,"prise":7748,"ĠGilbert":7749,"Ġresidential":7750,"ĠAustria":7751,"ĠBaltimore":7752,"ĠPope":7753,"Ġimpressed":7754,"orage":7755,"Ġvul":7756,"orial":7757,"Ġperiods":7758,"Ġavo":7759,"ĠSamuel":7760,"MA":7761,"endment":7762,"ĠColorado":7763,"Ġske":7764,"Ġmart":7765,"Ġhuge":7766,"ĠBed":7767,"ĠRaw":7768,"Ġplate":7769,"ĠLate":7770,"Ġpublisher":7771,"ullivan":7772,"Ġutil":7773,"ĠAround":7774,"Ġhat":7775,"Ġtaught":7776,"igen":7777,"Ġeasy":7778,"ĠLane":7779,"Ġafternoon":7780,"Ġenthus":7781,"ĠFoundation":7782,"ologists":7783,"Ġtempor":7784,"Ġstem":7785,"Ġterritories":7786,"umph":7787,"Ġdriver":7788,"Ġimprison":7789,"Ġreviewers":7790,"Ġtesting":7791,"ribed":7792,"Ġvideos":7793,"opter":7794,"ĠAuthor":7795,"Ġhappy":7796,"ogan":7797,"Ġupd":7798,"ĠArk":7799,"ĠOrgan":7800,"Ġtests":7801,"viation":7802,"iami":7803,"Ġstable":7804,"Ġliqu":7805,"ĠStock":7806,"Ġfeud":7807,"Ġ1928":7808,"Ġteeth":7809,"Ġreprodu":7810,"Ġsympt":7811,"Ġunderstand":7812,"Ġisolated":7813,"ĠGuy":7814,"Ġnegotiations":7815,"ĠLennon":7816,"cho":7817,"Ġvessel":7818,"Ġdiameter":7819,"Ġinher":7820,"Ġagents":7821,"Ġpicked":7822,"mission":7823,"eping":7824,"ĠWithin":7825,"atically":7826,"Ġbridges":7827,"utt":7828,"Ġgoods":7829,"Ġencountered":7830,"Ġdangerous":7831,"ĠLim":7832,"Ġjunior":7833,"ĠReal":7834,"Ġ1925":7835,"roke":7836,"Ġdiagn":7837,"Ġlob":7838,"Ġwithdrew":7839,"Ġsimultane":7840,"Ġaged":7841,"Ġfounder":7842,"ĠHorn":7843,"Ġreun":7844,"Ġbehavi":7845,"sea":7846,"Ġfactor":7847,"borough":7848,"Ġnormally":7849,"Ġupgraded":7850,"roc":7851,"ĠRelease":7852,"ĠBenn":7853,"Ġkeeping":7854,"ĠGiants":7855,"Ġfur":7856,"Ġspecimens":7857,"Ġwindow":7858,"Ġtie":7859,"Ġpounds":7860,"ĠHorse":7861,"ĠHeavy":7862,"uda":7863,"Ġdeter":7864,"ls":7865,"Ġmedium":7866,"Ġsatell":7867,"etime":7868,"olas":7869,"Ġrelie":7870,"Ġfrequent":7871,"ĠCam":7872,"ĠDesc":7873,"Ġsure":7874,"Ġethnic":7875,"bridge":7876,"Ġtoll":7877,"Ġmir":7878,"Ġdiet":7879,"idae":7880,"Ġpartly":7881,"Ġ1890":7882,"Ġcollaps":7883,"ĠChampionships":7884,"Ġlowest":7885,"Ġcrisis":7886,"Ġresear":7887,"ĠMalays":7888,"Ġengineering":7889,"ĠWrestling":7890,"Ġapprec":7891,"ĠAnglo":7892,"Ġoutf":7893,"Ġ1924":7894,"Ġtraveled":7895,"ĠTrek":7896,"Ġvic":7897,"iable":7898,"Ġprohib":7899,"Ġorganizations":7900,"Ġproced":7901,"helm":7902,"ĠCz":7903,"away":7904,"Ġwhereas":7905,"Ġdesigner":7906,"ĠSarah":7907,"Ġped":7908,"ĠMiami":7909,"Ġrarely":7910,"Ġlose":7911,"ĠBird":7912,"Ġrefers":7913,"Ġtone":7914,"amese":7915,"nest":7916,"ĠAud":7917,"ĠWing":7918,"Ġdoesn":7919,"Ġturrets":7920,"chen":7921,"usal":7922,"ĠThor":7923,"Ġtechnique":7924,"iece":7925,"brid":7926,"Ġinsc":7927,"ennis":7928,"ĠPlayer":7929,"gery":7930,"Ġvice":7931,"Ġorb":7932,"igs":7933,"Ġspending":7934,"Ġfinale":7935,"ski":7936,"Ġcriticised":7937,"ĠSomerset":7938,"Ġ07":7939,"Ġadvice":7940,"ĠFrederick":7941,"Ġpermission":7942,"Ġmaintenance":7943,"ila":7944,"Ġlad":7945,"Ġplatinum":7946,"col":7947,"Ġax":7948,"ĠBuck":7949,"Ġpersp":7950,"Ġuncertain":7951,"Ġdifficulties":7952,"Ġphen":7953,"FC":7954,"ygen":7955,"abama":7956,"Ġcomplic":7957,"Ġpartially":7958,"Ġrestric":7959,"Ġpolicies":7960,"Ġbypass":7961,"Ġpersonality":7962,"Ġagree":7963,"ĠUnlike":7964,"Ġverse":7965,"Ġmainstream":7966,"Ġcompete":7967,"Ġranking":7968,"Ġindicate":7969,"ĠTreaty":7970,"Ġexcell":7971,"ibbean":7972,"Ġproport":7973,"ĠHans":7974,"ilst":7975,"Ġrecordings":7976,"ĠMarshall":7977,"inction":7978,"uscript":7979,"oked":7980,"Ġcomments":7981,"Ġunn":7982,"Ġremove":7983,"Ġanticip":7984,"Ġfinals":7985,"ĠCaribbean":7986,"ĠForces":7987,"Ġmamm":7988,"ĠKnow":7989,"Ġrefuge":7990,"ĠNevertheless":7991,"Ġsafe":7992,"urance":7993,"ĠMario":7994,"rior":7995,"attered":7996,"Ġconcerts":7997,"Ġwindows":7998,"Ġstrip":7999,"Ġseats":8000,"Ġrestrict":8001,"Ġmoral":8002,"Ġsymp":8003,"chell":8004,"ĠSeattle":8005,"ĠCanal":8006,"Ġovers":8007,"Ġmonument":8008,"Ġrates":8009,"Ġjur":8010,"Ġrepair":8011,"Ġextreme":8012,"Ġfalls":8013,"Ġfighters":8014,"Ġrecur":8015,"Ġ1923":8016,"Ġrecommend":8017,"All":8018,"Ġpitched":8019,"Ġrepresentative":8020,"xual":8021,"Ġcovers":8022,"ĠYanke":8023,"Ġalter":8024,"Ġtot":8025,"Ġtruth":8026,"sk":8027,"Ġtenth":8028,"Ġdiff":8029,"power":8030,"Ġprompted":8031,"isd":8032,"Ġforcing":8033,"rang":8034,"Ġdescribe":8035,"Ġprotest":8036,"Ġhockey":8037,"Ġphr":8038,"ĠIowa":8039,"ĠCrown":8040,"Ġtub":8041,"Ġreconst":8042,"Ġshear":8043,"Ġdestroyers":8044,"Ġpin":8045,"ĠMississ":8046,"mates":8047,"ĠJess":8048,"Ġminimum":8049,"Ġunderw":8050,"ĠBros":8051,"ifer":8052,"enh":8053,"Ġpric":8054,"Ġhull":8055,"Ġchurches":8056,"Ġneighborhood":8057,"Ġfriendly":8058,"Ġbases":8059,"Ġexamples":8060,"ĠUSD":8061,"Ġboys":8062,"ĠTownship":8063,"ĠCre":8064,"ĠAnna":8065,"Ġdrawing":8066,"ĠCall":8067,"ĠML":8068,"ĠCR":8069,"ĠBuff":8070,"ĠGarden":8071,"Ġtravelled":8072,"Ġbombers":8073,"Ġinaug":8074,"ĠAlabama":8075,"Ġdoctor":8076,"Ġdynasty":8077,"Ġadjacent":8078,"Ġmand":8079,"Ġapproval":8080,"mers":8081,"ĠMP":8082,"ĠMinistry":8083,"Ġhousing":8084,"Ġdisplayed":8085,"bra":8086,"ante":8087,"ĠHungary":8088,"ods":8089,"ĠMach":8090,"Ġcreator":8091,"ĠSenator":8092,"Ġcredits":8093,"Ġju":8094,"eu":8095,"iac":8096,"ĠMinnes":8097,"ĠHand":8098,"Ġgrown":8099,"ĠAustralians":8100,"Ġjoining":8101,"Ġlisting":8102,"Ġcollapse":8103,"Ġtribute":8104,"ĠLawrence":8105,"Ġaware":8106,"ĠGrammy":8107,"Ġpartnership":8108,"Ġprotagonist":8109,"Ġturb":8110,"Ġfung":8111,"ĠHuman":8112,"odore":8113,"Ġexplo":8114,"ĠDiego":8115,"ĠNazi":8116,"Äį":8117,"ĠOp":8118,"Ġmoments":8119,"Ġacted":8120,"Ġchanging":8121,"Ġcreative":8122,"ãģ":8123,"alions":8124,"ĠHamp":8125,"Ġdesignation":8126,"ĠCountry":8127,"Ġpowered":8128,"ugby":8129,"Ġinstrumental":8130,"ĠDead":8131,"itud":8132,"Ġrefere":8133,"Ġtrend":8134,"Ġasks":8135,"ĠNapole":8136,"ĠDance":8137,"phone":8138,"onnaissance":8139,"velt":8140,"Ġcanal":8141,"Ġradar":8142,"Ġstorms":8143,"ĠDave":8144,"Ġarts":8145,"ĠHealth":8146,"Ġvillages":8147,"ĠDur":8148,"Ġpossession":8149,"Ġappointment":8150,"wa":8151,"Ġadvis":8152,"Ġdollars":8153,"ĠBelgium":8154,"imeter":8155,"ĠRoc":8156,"Ġ1905":8157,"Ġtreaty":8158,"Ġscientists":8159,"jamin":8160,"ĠAh":8161,"ĠExt":8162,"ounced":8163,"Ġrounds":8164,"otten":8165,"Ġvictories":8166,"Ġsurvive":8167,"ĠMcD":8168,"Ġ1909":8169,"Ã§":8170,"Ġeliminated":8171,"Ġpaintings":8172,"Ġcovering":8173,"Ġwheel":8174,"Ġminimal":8175,"Ġ1908":8176,"ĠGuardian":8177,"Ġprecip":8178,"ĠCharlie":8179,"Ġels":8180,"gon":8181,"Ġelsewhere":8182,"Ġtelling":8183,"icts":8184,"Ġnewspapers":8185,"Re":8186,"Ġinnov":8187,"Ġsurprise":8188,"Ġbenefit":8189,"ĠLegacy":8190,"idd":8191,"ivated":8192,"active":8193,"ĠBlood":8194,"ecraft":8195,"ĠHu":8196,"ĠMedal":8197,"Ġseeking":8198,"ĠHockey":8199,"Ġarriving":8200,"Ġanaly":8201,"ĠDC":8202,"Ġhelping":8203,"Ġoccupation":8204,"Ġrhythm":8205,"sters":8206,"Ġsuicide":8207,"ĠVietnamese":8208,"icy":8209,"ouri":8210,"ĠNat":8211,"Ġpurposes":8212,"ĠHud":8213,"Ġvalues":8214,"Ġdispute":8215,"Ġunlike":8216,"Ġoccasions":8217,"Ġbrick":8218,"Ġgard":8219,"Ġsmooth":8220,"Ġloan":8221,"sky":8222,"Ġpool":8223,"ĠBan":8224,"ĠHills":8225,"Ġtwin":8226,"vy":8227,"Ġwet":8228,"rupted":8229,"hattan":8230,"Ġoption":8231,"roid":8232,"orious":8233,"ĠShakesp":8234,"ĠAlong":8235,"Ġmanuscript":8236,"ographical":8237,"ĠCold":8238,"Ġsoil":8239,"Ġfishing":8240,"Ġgat":8241,"ĠRepresent":8242,"Ġstruggle":8243,"Ġcryst":8244,"esh":8245,"ĠAR":8246,"overs":8247,"Ġmurd":8248,"ĠBanks":8249,"mith":8250,"osevelt":8251,"Ġbalance":8252,"orph":8253,"Ġ105":8254,"Ġhelic":8255,"Ġdegrees":8256,"Ġpreserved":8257,"Ġschedule":8258,"Ġ125":8259,"ĠBrig":8260,"Ġ04":8261,"rix":8262,"Ġflash":8263,"Jo":8264,"ĠChildren":8265,"Ġcateg":8266,"acks":8267,"ĠLl":8268,"ĠGab":8269,"Ġcooper":8270,"ĠPeninsula":8271,"Ġpublicly":8272,"Ġ1907":8273,"acle":8274,"ĠKhan":8275,"ĠTrust":8276,"atherine":8277,"Ġviolent":8278,"Ġcandidates":8279,"no":8280,"Ġresumed":8281,"inally":8282,"Ġemperor":8283,"ĠManhattan":8284,"Ġhonour":8285,"nik":8286,"Ġcompeted":8287,"Ġpilots":8288,"Ġwedding":8289,"ĠThen":8290,"Ġsurvivors":8291,"ishment":8292,"ĠMinnesota":8293,"rome":8294,"Ġ164":8295,"incial":8296,"ĠAdminist":8297,"munition":8298,"Ġdies":8299,"Ġabilities":8300,"mph":8301,"rm":8302,"Ġprocl":8303,"ĠÃĨ":8304,"Ġneutral":8305,"action":8306,"TA":8307,"ulating":8308,"Ġspan":8309,"Ġcook":8310,"oking":8311,"Ġbeautiful":8312,"Ġimpossible":8313,"ĠRand":8314,"Ġcoordin":8315,"Ġintensified":8316,"ĠIan":8317,"Ġalignment":8318,"Ġargument":8319,"ĠTun":8320,"Ġmulti":8321,"Ġteaching":8322,"fted":8323,"isp":8324,"Ġcustom":8325,"Ġadvoc":8326,"ĠPolit":8327,"aud":8328,"Ġassisted":8329,"Ġpoison":8330,"Ġwrest":8331,"Ġlem":8332,"Ġdefeating":8333,"Ġconsult":8334,"obile":8335,"Ġconcrete":8336,"Ġelectronic":8337,"Ġlists":8338,"Ġprosp":8339,"ĠLaure":8340,"ĠCamer":8341,"ĠDiv":8342,"ĠKal":8343,"Ġovert":8344,"Ġnations":8345,"ĠIndustry":8346,"ĠHind":8347,"ĠKansas":8348,"Ġserial":8349,"Ġsimpl":8350,"Ġrivers":8351,"ensions":8352,"Ġdiscip":8353,"Ġabsol":8354,"ĠRoosevelt":8355,"ĠAff":8356,"Ġpy":8357,"ĠHotel":8358,"ĠAlfred":8359,"Ġassists":8360,"Ġfoundation":8361,"ĠFranklin":8362,"Ġopponent":8363,"Ġelabor":8364,"Ġinteresting":8365,"eare":8366,"à¤":8367,"ĠÄ":8368,"Ġdanc":8369,"ilty":8370,"ĠBull":8371,"Ġagricultural":8372,"Ġbusinesses":8373,"rÃ©":8374,"Ġsuitable":8375,"Ġbacking":8376,"To":8377,"Ġparent":8378,"Ġmines":8379,"unch":8380,"ĠFal":8381,"Ġsigning":8382,"Ġsubmitted":8383,"Ġ165":8384,"Ġ1880":8385,"Ġoxygen":8386,"Ġfifteen":8387,"Ġscholar":8388,"Ġtunnel":8389,"ĠMississipp":8390,"Ġunderstanding":8391,"bl":8392,"Ġgrey":8393,"ĠBenjamin":8394,"ĠSon":8395,"Ġencounter":8396,"Ġsymptoms":8397,"iveness":8398,"itated":8399,"Ġciting":8400,"ĠSatur":8401,"Ġwaves":8402,"Ġbehalf":8403,"die":8404,"icer":8405,"ĠSi":8406,"Ġorbit":8407,"ĠHong":8408,"Ġspiritual":8409,"Ġsunk":8410,"ctic":8411,"ĠVI":8412,"ĠChristopher":8413,"Ġpercentage":8414,"Ġparish":8415,"Ġsank":8416,"agen":8417,"Ġforests":8418,"ĠShel":8419,"Ġninet":8420,"Ġforty":8421,"ĠPortland":8422,"Ġsituated":8423,"Ġsigns":8424,"ĠBh":8425,"Ġclosing":8426,"ĠArea":8427,"ĠIce":8428,"Ġsubjects":8429,"ĠBlues":8430,"ĠAnim":8431,"onymous":8432,"alities":8433,"Ġammunition":8434,"rows":8435,"asters":8436,"Ġvoiced":8437,"dale":8438,"Ġusual":8439,"Ġillness":8440,"Ġbid":8441,"Ġnom":8442,"ĠDal":8443,"ĠLin":8444,"ĠLith":8445,"ĠMichel":8446,"ĠRap":8447,"Ġrepairs":8448,"ĠFlight":8449,"aron":8450,"ĠKurt":8451,"Ġresolution":8452,"ĠBeck":8453,"Ġcorpor":8454,"Un":8455,"essee":8456,"ĠWalker":8457,"ĠHindu":8458,"SP":8459,"ĠWard":8460,"ĠWolf":8461,"Ġimperial":8462,"Ġasking":8463,"ĠEvent":8464,"Ġdisaster":8465,"Ġfunctions":8466,"ĠBuilding":8467,"Ġcollaboration":8468,"lah":8469,"Ġassess":8470,"Ġattendance":8471,"ĠThroughout":8472,"father":8473,"Ġcontroll":8474,"Ġrestaurant":8475,"rus":8476,"Ġlieutenant":8477,"eton":8478,"Ġaudiences":8479,"Ġfeelings":8480,"Ġstring":8481,"Ġevil":8482,"Ġunderground":8483,"Ġdeliber":8484,"ĠInterstate":8485,"Äĥ":8486,"Ġworship":8487,"ĠHero":8488,"Ġkne":8489,"Ġjunction":8490,"Ġflights":8491,"ĠAlexand":8492,"Since":8493,"amic":8494,"Ġportra":8495,"Ġaffairs":8496,"Ġsuspended":8497,"arth":8498,"CC":8499,"ĠNash":8500,"Ġskull":8501,"uv":8502,"zz":8503,"ĠAthlet":8504,"Ġexit":8505,"sex":8506,"ĠTag":8507,"odge":8508,"ais":8509,"amps":8510,"race":8511,"Ġpron":8512,"Ġwilling":8513,"Ġtargets":8514,"ËĪ":8515,"ĠKings":8516,"Ġcargo":8517,"Ġiniti":8518,"Ġearthqu":8519,"rator":8520,"Ġrecre":8521,"ori":8522,"ĠCole":8523,"Ġaffair":8524,"Ġfuneral":8525,"Ġprol":8526,"Ġoperational":8527,"Ġ1906":8528,"ĠWol":8529,"resents":8530,"ques":8531,"Ġabol":8532,"Ġ360":8533,"Ġpoorly":8534,"ng":8535,"Ġmeasured":8536,"ĠShakespeare":8537,"Ġlect":8538,"rants":8539,"Ġcompilation":8540,"Ġdocuments":8541,"Ġmountains":8542,"Ġfiled":8543,"orders":8544,"racts":8545,"ĠLouisiana":8546,"Ġaimed":8547,"uable":8548,"ĠRace":8549,"weet":8550,"ĠFried":8551,"Ġcircuit":8552,"ĠEgyptian":8553,"Ġregistered":8554,"Ġanch":8555,"ĠJos":8556,"Ġ1904":8557,"Ġconscious":8558,"ĠDw":8559,"ĠBrun":8560,"andal":8561,"Ġstatue":8562,"Ġfavorable":8563,"ĠTennessee":8564,"ĠNative":8565,"inea":8566,"ĠCampbell":8567,"Ġsubt":8568,"Ġelder":8569,"Ġaffili":8570,"ĠPhilippines":8571,"Ġrout":8572,"Ġliked":8573,"Ġadopt":8574,"ĠFriend":8575,"Ġ1870":8576,"ĠHistoric":8577,"anium":8578,"Ġbot":8579,"ĠCob":8580,"Ġrecognised":8581,"Ġexplosion":8582,"ĠMississippi":8583,"Ġprofessor":8584,"Ġentertainment":8585,"ĠBox":8586,"Ġjazz":8587,"Ġrepresents":8588,"ception":8589,"Ġtemporarily":8590,"ĠComb":8591,"adi":8592,"ĠLabour":8593,"gate":8594,"Ġsector":8595,"ĠDepression":8596,"ĠPalest":8597,"ĠMontreal":8598,"ĠWriting":8599,"Ġben":8600,"Ġsequences":8601,"Ġreplacing":8602,"era":8603,"ika":8604,"Ġfifty":8605,"ĠVinc":8606,"ateur":8607,"unc":8608,"overe":8609,"ĠSullivan":8610,"ĠHem":8611,"Ġoffering":8612,"Ġshells":8613,"idel":8614,"Ġartwork":8615,"Ġcyl":8616,"Ġwore":8617,"ĠRab":8618,"ĠDest":8619,"Ġresidence":8620,"Ġinterpre":8621,"species":8622,"ĠLam":8623,"Ġmargin":8624,"Ġpreparation":8625,"issions":8626,"face":8627,"Ġ03":8628,"Ġreflected":8629,"Ġrestoration":8630,"Ġnucle":8631,"Ġalliance":8632,"Ġprime":8633,"Ġreluct":8634,"Ġdirectors":8635,"Ġexpensive":8636,"Ġrig":8637,"Ġ01":8638,"Ġ*":8639,"uma":8640,"Ġterror":8641,"ĠMissouri":8642,"ylan":8643,"ancell":8644,"ĠReturn":8645,"Ġtouring":8646,"Ġoverw":8647,"ĠHalo":8648,"inental":8649,"Ġcompleting":8650,"Ġamongst":8651,"Ġthinking":8652,"Ġalcohol":8653,"Ġsuggesting":8654,"atus":8655,"Ġbanks":8656,"Ġhorror":8657,"Ġgrav":8658,"bishop":8659,"ĠMicro":8660,"ellect":8661,"ĠIndependent":8662,"Ġcancelled":8663,"Ġrebuilt":8664,"rep":8665,"ĠKu":8666,"Ġcoverage":8667,"ĠLucas":8668,"Ġcod":8669,"ĠStevens":8670,"ĠPerform":8671,"uary":8672,"rak":8673,"quir":8674,"ĠDom":8675,"Ġpulled":8676,"Ġreven":8677,"Ġdecides":8678,"Ġescaped":8679,"Ġdimens":8680,"Ġerupt":8681,"Ġbay":8682,"Ġwasn":8683,"Ġamounts":8684,"ĠSteven":8685,"zona":8686,"Ġcous":8687,"ĠMack":8688,"Ġlacked":8689,"Ġtribes":8690,"overeign":8691,"ĠNag":8692,"ĠGuide":8693,"Ġdramatic":8694,"ĠRen":8695,"Ġracing":8696,"ĠMargaret":8697,"Ġclearly":8698,"Ġcommunication":8699,"ĠCuba":8700,"Ġgarden":8701,"Ġpatterns":8702,"Ġfamiliar":8703,"Ġpredomin":8704,"urally":8705,"ĠFiles":8706,"Ġengagement":8707,"gro":8708,"Ġfrig":8709,"Ġrit":8710,"Ġownership":8711,"apping":8712,"Ġargues":8713,"artney":8714,"Ġmarks":8715,"Ġsaved":8716,"ĠIndies":8717,"Ġarmored":8718,"Ġperspective":8719,"okes":8720,"Ġmathemat":8721,"Ġcolonies":8722,"Ġgang":8723,"Ġwicket":8724,"ĠWarren":8725,"Ġdrove":8726,"ĠMes":8727,"ĠMcL":8728,"Ġcontributions":8729,"Ġmerchant":8730,"ĠMess":8731,"ova":8732,"Ġsolution":8733,"storm":8734,"ĠPle":8735,"Ġrecon":8736,"ĠJosh":8737,"athy":8738,"ĠPersian":8739,"ĠCow":8740,"Ġprint":8741,"Ġfastest":8742,"ĠKirk":8743,"ĠApple":8744,"Ġplayoffs":8745,"Ġartistic":8746,"Ġadministrative":8747,"ĠFrid":8748,"Ġseed":8749,"Ġremnants":8750,"rings":8751,"ieties":8752,"ĠMitchell":8753,"ĠCzech":8754,"Ġtag":8755,"ĠPed":8756,"Ġexecut":8757,"Ġcharacterized":8758,"ĠArizona":8759,"Ãº":8760,"ĠTamil":8761,"bre":8762,"Ġfalse":8763,"ĠGraham":8764,"Ġboundary":8765,"idency":8766,"Ġrising":8767,"Ġmilitia":8768,"Some":8769,"Ġkings":8770,"Ġseverely":8771,"Ġcrews":8772,"Ġinstitutions":8773,"Ġarmament":8774,"Ġdisappoin":8775,"oga":8776,"Ġbadly":8777,"ĠLov":8778,"ĠJoh":8779,"Ġretail":8780,"Ġdepending":8781,"Ġ115":8782,"Ġflagship":8783,"EC":8784,"rik":8785,"Ġearning":8786,"exp":8787,"Ġbulk":8788,"fish":8789,"ĠMaur":8790,"ĠRing":8791,"Ġgenetic":8792,"Ġdistinctive":8793,"Ġbowling":8794,"itting":8795,"Ġexplains":8796,"Ġideal":8797,"ĠDragon":8798,"ses":8799,"orer":8800,"Ġbran":8801,"Ġnotice":8802,"Ġrecip":8803,"ĠYe":8804,"ĠBureau":8805,"equ":8806,"Ġbronze":8807,"omber":8808,"Ġfallen":8809,"Ġexcav":8810,"Ġrestricted":8811,"Ġranks":8812,"Ġcontext":8813,"ĠEP":8814,"Ġfrust":8815,"Ġcomparison":8816,"Ġthrew":8817,"ectic":8818,"cru":8819,"elli":8820,"pha":8821,"Ġdemonstrated":8822,"SA":8823,"lings":8824,"ĠSnow":8825,"mented":8826,"ĠScout":8827,"Ġexplain":8828,"Ġcondem":8829,"Ġranging":8830,"ĠInitially":8831,"Ġquiet":8832,"ĠPhoen":8833,"ĠMagn":8834,"ĠSaturday":8835,"uations":8836,"Ġpoems":8837,"ĠConfederate":8838,"Ġinland":8839,"Ġcontrols":8840,"Ġinhabitants":8841,"life":8842,"ĠEdge":8843,"Ġriders":8844,"Ġtrick":8845,"Ġsisters":8846,"Ġgap":8847,"Ġ174":8848,"Ġarrive":8849,"ĠBilly":8850,"Ġloop":8851,"ĠkW":8852,"Ġpractices":8853,"Ġwants":8854,"Ġmental":8855,"Ġmaneu":8856,"iph":8857,"Ġconservative":8858,"Ġfaster":8859,"ĠTan":8860,"ivia":8861,"Ġvel":8862,"ĠChand":8863,"formation":8864,"Ġelectron":8865,"Ġwider":8866,"itzerland":8867,"ĠSony":8868,"acon":8869,"Ġshield":8870,"Ġsynd":8871,"Ġobvious":8872,"Ġrevol":8873,"ocking":8874,"Ġkit":8875,"Ġsurge":8876,"Ġexclud":8877,"Ġspotted":8878,"otton":8879,"hu":8880,"Ġmeat":8881,"Ġacceler":8882,"ĠBroadway":8883,"Ġvulner":8884,"Ġreaches":8885,"ĠProm":8886,"ĠLas":8887,"Ġdistinguished":8888,"Ġpace":8889,"Ġplus":8890,"Ġnorthward":8891,"Ġevolved":8892,"oven":8893,"ĠVis":8894,"Ġexhibition":8895,"asts":8896,"Ġapplication":8897,"lahoma":8898,"Ġgate":8899,"Ġ1901":8900,"ĠNon":8901,"Ġmillimet":8902,"Ġquarterback":8903,"aro":8904,"Ġnominations":8905,"Ġagency":8906,"Ġtriple":8907,"Ġprotein":8908,"ĠGrey":8909,"Ġsubspecies":8910,"John":8911,"Ġframe":8912,"ruption":8913,"Ġsatellite":8914,"ĠBusiness":8915,"Ġtip":8916,"Ġautobi":8917,"Ġdominant":8918,"Ġprepare":8919,"Ġhouseholds":8920,"Ġpredicted":8921,"ĠPrior":8922,"Ġpalace":8923,"ĠFederation":8924,"vant":8925,"inations":8926,"ĠWilhelm":8927,"Ġwreck":8928,"Ġtex":8929,"ĠABC":8930,"Ġstorage":8931,"Ġslaves":8932,"din":8933,"urer":8934,"sequently":8935,"grade":8936,"Ġintellect":8937,"Ġ1903":8938,"ĠProgram":8939,"anton":8940,"Ġabund":8941,"lus":8942,"ĠCher":8943,"ĠSwitzerland":8944,"Ġthor":8945,"Ġ155":8946,"eland":8947,"ĠMarie":8948,"ĠAustrian":8949,"Ġarticles":8950,"Ġprinted":8951,"ĠDigital":8952,"Ġ1902":8953,"uki":8954,"Ġvs":8955,"Ġvast":8956,"Ġcarriers":8957,"Ġattained":8958,"Ġrepeatedly":8959,"ĠLiz":8960,"Ġfixed":8961,"Ġpredecessor":8962,"ĠLang":8963,"Ġallies":8964,"Ġstores":8965,"Ġvertical":8966,"Ġsurgery":8967,"Ġ02":8968,"iders":8969,"Ġoutl":8970,"Ġstrict":8971,"Ġsignal":8972,"ĠLithuan":8973,"Ġpeaking":8974,"imen":8975,"Ġphilosophy":8976,"Ġphenomen":8977,"Ġadventure":8978,"Ġbiographer":8979,"Ġblocks":8980,"Ġexcellent":8981,"Ġboss":8982,"ĠDylan":8983,"ĠSin":8984,"Ġyield":8985,"Ġdisagre":8986,"Ġtack":8987,"ascar":8988,"rov":8989,"Ġpretty":8990,"ĠMrs":8991,"Ġillegal":8992,"riptions":8993,"Ġbombs":8994,"fe":8995,"Ġperceived":8996,"rose":8997,"Ġseriously":8998,"Ġchoose":8999,"icate":9000,"Ġcomfort":9001,"yler":9002,"Ġapartment":9003,"Ġremarked":9004,"Ġwestward":9005,"Ġuseful":9006,"Ġwaiting":9007,"ĠRico":9008,"ĠNa":9009,"Ġcircumstances":9010,"Ġtight":9011,"aughters":9012,"Ġcurren":9013,"ihanna":9014,"Ġsket":9015,"Ġsurrend":9016,"ĠEconom":9017,"Ġmeetings":9018,"Ġcoinc":9019,"Ġdrugs":9020,"Ġbattalions":9021,"Ġdollar":9022,"ĠOklahoma":9023,"Å«":9024,"Ġsick":9025,"itage":9026,"ardo":9027,"Ġinstitution":9028,"ĠRidge":9029,"Ġphone":9030,"ĠSmall":9031,"Ġbreat":9032,"emen":9033,"Ġcivilian":9034,"Ġlayer":9035,"ĠBaby":9036,"ĠSoon":9037,"Ġarmour":9038,"Ġreaders":9039,"ĠOriginal":9040,"azing":9041,"Ne":9042,"Ġwhilst":9043,"ĠMurphy":9044,"Ġgust":9045,"ĠDS":9046,"Ġchamber":9047,"ĠSeven":9048,"Ġmatters":9049,"mi":9050,"ĠNik":9051,"Ã©e":9052,"Ġcasting":9053,"Ġfriendship":9054,"Ġtiss":9055,"inian":9056,"apolis":9057,"Ġstrengthened":9058,"rint":9059,"Ġhorn":9060,"ĠUE":9061,"Ġvisiting":9062,"Ġplanets":9063,"ĠDenmark":9064,"Ġholid":9065,"Ġrub":9066,"arant":9067,"Ġreconnaissance":9068,"ĠRecord":9069,"AR":9070,"ĠAmy":9071,"Ġretain":9072,"ĠHarv":9073,"Ġsimilarly":9074,"ĠTerrit":9075,"TW":9076,"Ġsimultaneously":9077,"mingham":9078,"ĠBomb":9079,"estone":9080,"Ġlegacy":9081,"ĠTokyo":9082,"esses":9083,"Ġalternate":9084,"ĠAbbey":9085,"Ġ168":9086,"Ġdemanded":9087,"onomy":9088,"Ġtyphoon":9089,"Ġempt":9090,"ĠCampaign":9091,"acc":9092,"Ġpanel":9093,"Ġjustice":9094,"LC":9095,"ĠBarry":9096,"Ġenlisted":9097,"Ġalive":9098,"Ġinsisted":9099,"ĠAtlanta":9100,"tha":9101,"ĠStr":9102,"ĠPerry":9103,"Ġrevers":9104,"ĠHur":9105,"Ġhook":9106,"ĠSuch":9107,"estyle":9108,"Ġshipping":9109,"Ġroots":9110,"ĠDelaware":9111,"Ġrevenue":9112,"entle":9113,"ĠFem":9114,"Ġpromised":9115,"Ġdemands":9116,"Ġbombing":9117,"ĠBaseball":9118,"ĠRat":9119,"ĠHarvey":9120,"ĠTel":9121,"ĠPrize":9122,"arr":9123,"Ġpersonally":9124,"ĠRailroad":9125,"jan":9126,"Ġlanes":9127,"Ġpropag":9128,"Ġathletes":9129,"lain":9130,"Ġconsole":9131,"ĠPitts":9132,"aration":9133,"Ġmainland":9134,"Ġdrivers":9135,"Ġstruggled":9136,"Ġdefinition":9137,"Ġlooks":9138,"ĠLeslie":9139,"ĠClar":9140,"Ġportions":9141,"Ġpione":9142,"Ġbacked":9143,"Ġcontinu":9144,"Ġaudition":9145,"Ġorchestra":9146,"Ġbehaviour":9147,"cott":9148,"Ġsung":9149,"ĠTon":9150,"ĠAld":9151,"ghan":9152,"Ġdiver":9153,"ĠMadag":9154,"ĠInternet":9155,"acre":9156,"ĠRoll":9157,"ĠMother":9158,"Ġartific":9159,"Ġguitarist":9160,"otyp":9161,"ĠVe":9162,"Ġjobs":9163,"AC":9164,"ĠMaj":9165,"Ġmarketing":9166,"ĠYankees":9167,"odox":9168,"Ġsubst":9169,"Ġoblig":9170,"ĠRihanna":9171,"Ġarmies":9172,"regation":9173,"inding":9174,"Ġsurpass":9175,"Ġguilty":9176,"Ġdemolished":9177,"Sever":9178,"ĠWor":9179,"12":9180,"Ġdancing":9181,"iti":9182,"itis":9183,"ĠSoul":9184,"ĠMik":9185,"Ġstarring":9186,"ĠSet":9187,"ĠIran":9188,"ĠInn":9189,"Ġruling":9190,"Ġcup":9191,"Ġindu":9192,"Ġfeels":9193,"atern":9194,"ication":9195,"olly":9196,"Ġcompens":9197,"azines":9198,"ĠJuan":9199,"Ġincreases":9200,"Ġprofile":9201,"Ġfactory":9202,"Ġ166":9203,"Ġcompliment":9204,"umps":9205,"Ġessential":9206,"Ġpunk":9207,"Ġmining":9208,"Ġheading":9209,"Ġtheater":9210,"Ġcounties":9211,"ĠFif":9212,"Ġpages":9213,"Ġobst":9214,"folk":9215,"run":9216,"ĠSem":9217,"Ġexpression":9218,"Ġorganisation":9219,"Ġpursue":9220,"ouver":9221,"apped":9222,"Ġ109":9223,"Ġdiscont":9224,"Ġbelieving":9225,"je":9226,"Ġaffect":9227,"Ġdiscovers":9228,"raction":9229,"Ġpatron":9230,"Ġdelivery":9231,"Ġbonus":9232,"ĠLex":9233,"Ġmultipl":9234,"Ġsalt":9235,"ĠJohnny":9236,"where":9237,"Ġclothing":9238,"avery":9239,"Ġstick":9240,"Ġports":9241,"Ġsucceed":9242,"ĠChel":9243,"ĠMuch":9244,"Ġmobile":9245,"Ġsad":9246,"ĠNixon":9247,"osm":9248,"ĠEdwards":9249,"ĠPil":9250,"Ġcrest":9251,"ĠMcM":9252,"Ġelevation":9253,"Ġodd":9254,"Ġacou":9255,"fle":9256,"Ġkiss":9257,"ĠLost":9258,"ultan":9259,"cles":9260,"ti":9261,"ĠHudson":9262,"Ġdrink":9263,"Ġsecretary":9264,"Ġdoubt":9265,"Ġsq":9266,"Ġaccum":9267,"Ġforecast":9268,"aks":9269,"Ġorn":9270,"ello":9271,"tario":9272,"terbury":9273,"Ġengage":9274,"ecticut":9275,"bird":9276,"Ġhoriz":9277,"ĠHaving":9278,"Ġdemocr":9279,"mund":9280,"Ġchest":9281,"ĠGray":9282,"irty":9283,"ĠFat":9284,"ĠBuddh":9285,"Ġaltered":9286,"aux":9287,"ĠEnterprise":9288,"Ġoverseas":9289,"Ġmayor":9290,"Ġbaby":9291,"annon":9292,"ĠWag":9293,"Ġdeterior":9294,"Ġlisten":9295,"ĠArnold":9296,"ĠRights":9297,"Ġexpand":9298,"owed":9299,"Ġdefences":9300,"ĠBosn":9301,"acked":9302,"Ġrenov":9303,"ĠRub":9304,"Ġcancel":9305,"Ġerected":9306,"warf":9307,"oons":9308,"inces":9309,"ĠAy":9310,"irts":9311,"Ġvoy":9312,"shore":9313,"Ġcompounds":9314,"Ġsettlers":9315,"ĠMadagascar":9316,"Ġstress":9317,"Ġmusician":9318,"opp":9319,"ĠOntario":9320,"ĠImpact":9321,"oa":9322,"oker":9323,"ĠJimmy":9324,"ĠKarl":9325,"Ġpale":9326,"asant":9327,"stan":9328,"ĠVik":9329,"Ġlegislature":9330,"ĠBaker":9331,"OS":9332,"Ġobjective":9333,"yrus":9334,"ĠGirls":9335,"ĠJonathan":9336,"Ġdecisions":9337,"Ġraising":9338,"Ġhighways":9339,"Ġaerial":9340,"Ġliquid":9341,"Ġdisl":9342,"Ġconversion":9343,"ĠAllies":9344,"Ġsolar":9345,"rous":9346,"ĠGoth":9347,"Ġaftermath":9348,"Ġsoldier":9349,"Ġconcentration":9350,"akh":9351,"Ġscen":9352,"ensively":9353,"Ġcampaigns":9354,"ĠObama":9355,"Ġsitting":9356,"ĠDefence":9357,"gs":9358,"mat":9359,"ĠPeace":9360,"Ġindicating":9361,"Ġconspir":9362,"Ġhapp":9363,"ulous":9364,"ifies":9365,"Ġexactly":9366,"ĠNear":9367,"ĠTracy":9368,"Ġhidden":9369,"Ġprove":9370,"boy":9371,"Ġorganised":9372,"Ġwealthy":9373,"Ġacknowledged":9374,"aments":9375,"ĠFel":9376,"Ġpermitted":9377,"Ġdanger":9378,"ĠConnecticut":9379,"Ġwrestling":9380,"ĠSpart":9381,"Ġtrouble":9382,"Ġradical":9383,"Ġimprovements":9384,"ĠUniversal":9385,"Ġdissipated":9386,"ĠJup":9387,"Ġrealized":9388,"Ġski":9389,"Ġstriking":9390,"Ġgraduated":9391,"Ġdressed":9392,"ĠWayne":9393,"ĠBirmingham":9394,"Ġappropriate":9395,"ĠPhoenix":9396,"15":9397,"ĠPars":9398,"Ġconfron":9399,"ĠPruss":9400,"ĠPearl":9401,"otte":9402,"Ġexecution":9403,"ĠMans":9404,"ratropical":9405,"erg":9406,"Ġanth":9407,"Ġmeter":9408,"Ġobservations":9409,"Ġmac":9410,"ĠRachel":9411,"Ġraids":9412,"Ġlin":9413,"uese":9414,"Ġprofit":9415,"ĠJar":9416,"Ġencl":9417,"Ġremoval":9418,"Ġinterpretation":9419,"ĠCanterbury":9420,"Ġfewer":9421,"Ġtravels":9422,"ĠWorks":9423,"Ġsky":9424,"Ġcelebrated":9425,"ĠFurthermore":9426,"Ġvenue":9427,"inister":9428,"ĠSig":9429,"Ġnet":9430,"Ġpublications":9431,"Ġinitiated":9432,"Ġsharp":9433,"ancouver":9434,"Ġturret":9435,"Ġaggressive":9436,"Ġtheatrical":9437,"Ġchapel":9438,"ĠFriday":9439,"ĠFarm":9440,"Ġpublishing":9441,"Ġrequires":9442,"Ġevacuated":9443,"Ġjurisd":9444,"ivation":9445,"agh":9446,"ĠKit":9447,"Ġdebt":9448,"ĠCommunity":9449,"itudes":9450,"Ġfounding":9451,"Ġorigins":9452,"Ġoriginated":9453,"Ġcannon":9454,"Ġtort":9455,"itals":9456,"ĠCost":9457,"ipper":9458,"pent":9459,"Ġstationed":9460,"ĠOutstanding":9461,"ĠLess":9462,"Ġexplan":9463,"Ġ152":9464,"Ġconnect":9465,"ĠShaw":9466,"Ġbrill":9467,"ĠKl":9468,"Ġdefending":9469,"Ġestablishing":9470,"Ġsupple":9471,"Ġmush":9472,"Ġconsidering":9473,"Ġrebellion":9474,"Ġshorter":9475,"Ġsteps":9476,"Ġarrangements":9477,"Ġannouncement":9478,"adier":9479,"DI":9480,"Ġcutting":9481,"ĠKeith":9482,"OT":9483,"Ġbones":9484,"ĠPlayers":9485,"Ġfantasy":9486,"ĠRal":9487,"rapped":9488,"aja":9489,"Ġguarant":9490,"Ġmagic":9491,"ĠBoys":9492,"erk":9493,"itively":9494,"Ã¦":9495,"ĠPubl":9496,"Ġmagazines":9497,"Ġerr":9498,"Ġconnecting":9499,"autical":9500,"Ġaspect":9501,"ĠRan":9502,"Ġ173":9503,"ĠMint":9504,"ĠMcCartney":9505,"Ġapproaching":9506,"Ġmemor":9507,"Ġextratropical":9508,"Ġhosts":9509,"Ġdonated":9510,"Ġplacing":9511,"ennium":9512,"ĠMountains":9513,"Ġwalking":9514,"hears":9515,"Ġing":9516,"ĠBath":9517,"ĠHold":9518,"Ġinsects":9519,"Ġstrategic":9520,"Ġlying":9521,"ĠDall":9522,"Ġongoing":9523,"ĠGate":9524,"Ġdiscussion":9525,"ĠBobby":9526,"ĠVancouver":9527,"Ġfunny":9528,"Ġcolleagues":9529,"Ġtalent":9530,"asa":9531,"ĠChampion":9532,"ĠMorrison":9533,"Ġcub":9534,"ĠStat":9535,"Ġmonitor":9536,"Ġyoungest":9537,"ĠDrive":9538,"ĠPotter":9539,"Several":9540,"Ġglac":9541,"ĠAdministration":9542,"hous":9543,"Ġedited":9544,"Ġpredict":9545,"Ġclosest":9546,"à¸":9547,"Ġmal":9548,"ĠSymph":9549,"Ġqualified":9550,"Ġhypothes":9551,"ĠBernard":9552,"Ġgathered":9553,"Ġforth":9554,"Ġbattlecru":9555,"Ġtubes":9556,"Ġdecide":9557,"ĠTrophy":9558,"ĠPortuguese":9559,"ĠComple":9560,"ĠEdin":9561,"Ġ104":9562,"Ġvolumes":9563,"adal":9564,"ecution":9565,"Ġputting":9566,"Ġlandscape":9567,"Ġrede":9568,"Ġwatershed":9569,"onium":9570,"ĠNAS":9571,"enna":9572,"venth":9573,"Ġswitch":9574,"Ġwithdrawal":9575,"bow":9576,"fts":9577,"ĠHugh":9578,"earing":9579,"Ġstrongest":9580,"Ġ1860":9581,"Ġindicates":9582,"ĠPakistan":9583,"Ġangle":9584,"Ġforg":9585,"Ġcaps":9586,"ĠTodd":9587,"onald":9588,"Ġmarkets":9589,"Ġidentify":9590,"ĠPatt":9591,"ĠDiam":9592,"Ġgray":9593,"Ġ1893":9594,"ĠForeign":9595,"Ġsupplied":9596,"Ġles":9597,"ĠManu":9598,"ĠLegend":9599,"Ġexposure":9600,"Ġcircle":9601,"ĠGriff":9602,"atra":9603,"ĠOpp":9604,"Ġneighbour":9605,"ĠTriple":9606,"ĠNine":9607,"Ġdesert":9608,"Ġspecimen":9609,"Ġconfront":9610,"Ġmerely":9611,"ĠWindows":9612,"Ġcollapsed":9613,"Ġpartial":9614,"Ġchallenged":9615,"ĠTed":9616,"ĠHann":9617,"elta":9618,"Ġbeam":9619,"Ġdensity":9620,"ĠPa":9621,"Ġbrig":9622,"ĠMem":9623,"Ġcock":9624,"Ġbare":9625,"Ġshift":9626,"ĠZe":9627,"Most":9628,"ĠShip":9629,"ĠCov":9630,"avel":9631,"Ġvisits":9632,"Ġlimits":9633,"Ġdubbed":9634,"Ġspac":9635,"ĠChampions":9636,"Ġfeeding":9637,"ĠJupiter":9638,"join":9639,"ĠLion":9640,"Ġhydrogen":9641,"ĠHampshire":9642,"ĠPap":9643,"Ġprovision":9644,"Ġ1896":9645,"ĠLen":9646,"soft":9647,"hard":9648,"ĠLat":9649,"yt":9650,"agger":9651,"Ġeducational":9652,"Ġconventional":9653,"Ġplain":9654,"ĠAbd":9655,"ĠNCAA":9656,"ĠTol":9657,"Ġseized":9658,"athers":9659,"ieth":9660,"Ġduo":9661,"ista":9662,"Ġclin":9663,"ĠDeb":9664,"Ġannually":9665,"ĠReserve":9666,"ye":9667,"err":9668,"ĠKan":9669,"ugg":9670,"Ġcorps":9671,"Ġconcentrated":9672,"Ġtopped":9673,"rod":9674,"irates":9675,"otal":9676,"Ġbearing":9677,"Ġmarry":9678,"Ġmembership":9679,"Ġexha":9680,"Ġchampions":9681,"Ġretro":9682,"amental":9683,"Ġattending":9684,"Ġassembly":9685,"Ġbacter":9686,"iper":9687,"Ġparody":9688,"Ġranges":9689,"ĠNapoleon":9690,"Ġdogs":9691,"ĠMission":9692,"Ġ1898":9693,"Ġoffense":9694,"ĠAfghan":9695,"ĠCharts":9696,"Ġnavy":9697,"ĠLaur":9698,"onica":9699,"Ġfurn":9700,"ĠMeteor":9701,"Ġemphasis":9702,"ĠEdinburgh":9703,"Many":9704,"aft":9705,"igenous":9706,"terior":9707,"Ġweekly":9708,"Ġ172":9709,"Ġproductions":9710,"Ġexercise":9711,"Ġunless":9712,"Ġlegit":9713,"Ġtalking":9714,"ĠBradman":9715,"Ġticket":9716,"ĠDwight":9717,"Ġinvestigate":9718,"ĠCycl":9719,"ioc":9720,"ĠMosc":9721,"Ġtrough":9722,"Ġbasin":9723,"ĠEventually":9724,"Ġanime":9725,"Ġ350":9726,"Ġcoup":9727,"olve":9728,"Ġpromotional":9729,"Ġcruc":9730,"Ã¼r":9731,"Ġprize":9732,"Ġbond":9733,"Ã°":9734,"Ġbone":9735,"Ġjury":9736,"Ġportrayal":9737,"ĠTNA":9738,"Ġceased":9739,"Ġfortress":9740,"Ġflooded":9741,"uzzle":9742,"ĠPam":9743,"ported":9744,"ĠVictorian":9745,"Ġadvertising":9746,"Ġfill":9747,"ĠBeng":9748,"Ġregime":9749,"ĠDod":9750,"Ġuncom":9751,"Ġconservation":9752,"Ġuncle":9753,"Ġbirthday":9754,"ayan":9755,"ĠGary":9756,"umble":9757,"Ġinvent":9758,"Ġ127":9759,"Ġemployment":9760,"Ġpersons":9761,"Ġoutput":9762,"Ġqueen":9763,"Ġcoff":9764,"Ġballad":9765,"ĠDemocrats":9766,"uart":9767,"rolled":9768,"ĠLib":9769,"Ġsending":9770,"Ġattitude":9771,"Ġexperimental":9772,"Ġphotographs":9773,"Ġbishop":9774,"ĠConvention":9775,"Ġsoftware":9776,"imm":9777,"Ġeval":9778,"Ġhitting":9779,"Ġquestioned":9780,"amas":9781,"oviÄĩ":9782,"Ġguide":9783,"aman":9784,"Ġprovincial":9785,"ĠYorkshire":9786,"ĠTig":9787,"Ġscattered":9788,"pled":9789,"Ġdrinking":9790,"Ġtranslation":9791,"Ġaggreg":9792,"ĠVillage":9793,"MI":9794,"ĠAlice":9795,"Ġunclear":9796,"Ġunderwent":9797,"ĠChes":9798,"ĠDub":9799,"ĠOur":9800,"Ġmature":9801,"ĠSay":9802,"rawn":9803,"hammad":9804,"ĠChronicle":9805,"Ġoverwhel":9806,"Ġoutd":9807,"Ġendors":9808,"Ġ101":9809,"anner":9810,"Ġreplied":9811,"Ġassembled":9812,"ĠMarvel":9813,"Ġcousin":9814,"ĠBach":9815,"ĠJoy":9816,"Ġ1899":9817,"rapy":9818,"Ġcens":9819,"Ġpapers":9820,"Ġrepresentatives":9821,"Ġliberal":9822,"Ġclock":9823,"Ġcoat":9824,"Ġlawyer":9825,"ashes":9826,"Ġcommentary":9827,"Ġswimming":9828,"ĠÃĨthel":9829,"Ġwire":9830,"Ġexternal":9831,"ologies":9832,"Ġproclaim":9833,"Ġthirteen":9834,"Ġimagery":9835,"OK":9836,"ications":9837,"ĠBrothers":9838,"Ġstere":9839,"ĠTob":9840,"Ġshr":9841,"Ġtrail":9842,"Ġmonaster":9843,"ĠMeg":9844,"Ġempire":9845,"Ġcomprom":9846,"assador":9847,"ĠPersonal":9848,"Ġloved":9849,"ĠCelt":9850,"ĠDale":9851,"ĠFlying":9852,"Ġlawsu":9853,"Ġterrain":9854,"ĠChristianity":9855,"Ġacoustic":9856,"idal":9857,"rip":9858,"Ġslave":9859,"Ġwait":9860,"Ġexclusive":9861,"Ġduration":9862,"aders":9863,"Ġelectricity":9864,"Ġpictures":9865,"hin":9866,"Ġstreak":9867,"Ġdaughters":9868,"Ġmovies":9869,"owski":9870,"ĠCritics":9871,"ĠHonor":9872,"ĠGene":9873,"Ġdevast":9874,"Ġsang":9875,"Ġcad":9876,"ĠIsa":9877,"ĠArgentina":9878,"Ġexpert":9879,"Ġaccompanying":9880,"Ġbranches":9881,"Ġsurrendered":9882,"ĠPin":9883,"ersed":9884,"ĠYears":9885,"Ġarrives":9886,"Ġtenure":9887,"atever":9888,"ensed":9889,"ĠSeason":9890,"Ġstronger":9891,"Ġidentical":9892,"mn":9893,"hell":9894,"ĠTit":9895,"urd":9896,"pler":9897,"Ġburial":9898,"ĠMand":9899,"alling":9900,"Ġsuccession":9901,"ĠAnc":9902,"Ġdread":9903,"ĠMong":9904,"Ġbeats":9905,"riors":9906,"Ġreverse":9907,"Ġcomponents":9908,"Ġcharter":9909,"ĠFinland":9910,"ĠAx":9911,"ĠWii":9912,"Ġ108":9913,"ĠMonte":9914,"Ġprices":9915,"ario":9916,"Ġscar":9917,"Ġ169":9918,"Ġreveal":9919,"ĠType":9920,"ellation":9921,"place":9922,"Ġreducing":9923,"Ġreinforcements":9924,"ĠNatural":9925,"illes":9926,"Ġprev":9927,"Ġtrading":9928,"Ġpenet":9929,"ĠQueensland":9930,"ĠLloyd":9931,"ĠLt":9932,"olen":9933,"Ġspaces":9934,"Ġdestroying":9935,"ĠFleming":9936,"ĠOliver":9937,"Ġpush":9938,"ĠFund":9939,"Ġfailing":9940,"Ġmechanical":9941,"Ġcompeting":9942,"ĠBoat":9943,"Ġexclusively":9944,"ĠHawaii":9945,"uras":9946,"Ġisot":9947,"Ġsleep":9948,"redits":9949,"ĠHeritage":9950,"ĠCommunist":9951,"ĠProtest":9952,"Ġcomponent":9953,"Ġquad":9954,"Ġstops":9955,"Ġatomic":9956,"IV":9957,"Ġmyst":9958,"ĠBooks":9959,"Ġcounterp":9960,"ĠCollins":9961,"Ph":9962,"ĠKap":9963,"ĠMaya":9964,"Ġ1850":9965,"Ġslavery":9966,"Ġprecipitation":9967,"Ġdict":9968,"Ġdevelopers":9969,"ĠGor":9970,"ricts":9971,"Ġdevices":9972,"Ġfossil":9973,"onian":9974,"abe":9975,"ibilities":9976,"Ġgovernments":9977,"Ġtraded":9978,"Ġpolar":9979,"ĠGlen":9980,"ĠUEFA":9981,"case":9982,"Ġreward":9983,"ĠJama":9984,"Ġmini":9985,"Ġpole":9986,"Ġelig":9987,"ĠBelgian":9988,"Ġconsistent":9989,"Ġbanned":9990,"Ġcenters":9991,"Ġwish":9992,"Ġvaried":9993,"Ġobsc":9994,"ĠAS":9995,"ĠPink":9996,"ĠKam":9997,"Ġflowers":9998,"ĠRangers":9999,"Ġartificial":10000,"ĠCad":10001,"ĠMarge":10002,"Ġtube":10003,"Ġpel":10004,"Ġradiation":10005,"ĠEmmy":10006,"Ġow":10007,"Ġwaste":10008,"ĠKo":10009,"Ġconsiders":10010,"Ġredes":10011,"Ġplatforms":10012,"Ġvirus":10013,"Ġtomb":10014,"Ġincom":10015,"Ġbath":10016,"uded":10017,"legraph":10018,"Ġcontribution":10019,"ethel":10020,"Ġdisb":10021,"Ġelectrical":10022,"Ġearthquake":10023,"itarian":10024,"ĠNorfolk":10025,"Ġhybrid":10026,"ĠLiberal":10027,"ĠPad":10028,"pike":10029,"Ġburned":10030,"ĠJerry":10031,"roph":10032,"ĠDin":10033,"angel":10034,"Ġhumor":10035,"Ġarchitectural":10036,"Ġsongwriter":10037,"ĠMalt":10038,"Ġreviewed":10039,"Ġecc":10040,"rank":10041,"ĠPrix":10042,"Arthur":10043,"ĠTurner":10044,"Ġproceeded":10045,"Ġfourteen":10046,"Ġboilers":10047,"Ġprofession":10048,"Ġadvised":10049,"rastructure":10050,"Ġunderstood":10051,"Ġfrequency":10052,"Ġ163":10053,"Ġhandled":10054,"Ġ1897":10055,"enesis":10056,"Ġintersects":10057,"Ġtalks":10058,"acles":10059,"Ġdestroyer":10060,"Ġimprovement":10061,"Ġlie":10062,"Ġheir":10063,"ĠHowe":10064,"ĠTransportation":10065,"Ġamateur":10066,"Ġcopper":10067,"ĠCricket":10068,"ĠBeaut":10069,"ĠDram":10070,"aze":10071,"ĠServices":10072,"Ġtexts":10073,"Ġrequirements":10074,"ĠHardy":10075,"Ġtheore":10076,"eto":10077,"Ã¶n":10078,"ĠSaxon":10079,"Cl":10080,"ĠSle":10081,"Ġconceived":10082,"Ġsamples":10083,"uating":10084,"ĠDak":10085,"ĠEug":10086,"olds":10087,"Ġconflic":10088,"Ġphrase":10089,"Ġinduct":10090,"ĠThose":10091,"Ġportr":10092,"itely":10093,"Ġinvestment":10094,"ĠTraining":10095,"Ġsixteen":10096,"Ġreferring":10097,"Ġreduction":10098,"bal":10099,"Ġrein":10100,"ĠList":10101,"Ġshares":10102,"iciency":10103,"Ġusers":10104,"ulty":10105,"ĠCraig":10106,"ensis":10107,"Ġairfield":10108,"ĠMedical":10109,"Ġworn":10110,"ĠRic":10111,"Ġcharity":10112,"Ġcertainly":10113,"rehens":10114,"Ġweigh":10115,"ĠGallery":10116,"encing":10117,"ĠBak":10118,"Ġ106":10119,"axy":10120,"Ġvoting":10121,"ĠApoll":10122,"Ġrespective":10123,"Ġcleared":10124,"ĠHarbor":10125,"Ġpraising":10126,"ĠNicholas":10127,"Ġsoph":10128,"ĠMust":10129,"Ġparks":10130,"Ġlabour":10131,"strong":10132,"tery":10133,"ĠBlu":10134,"Ġconstitutional":10135,"ĠMoscow":10136,"Ġexceed":10137,"Ġlock":10138,"Ġunw":10139,"Ġconnections":10140,"Ġphotography":10141,"Ġflows":10142,"Ġtactics":10143,"ĠTax":10144,"Ġnit":10145,"Ġgrossing":10146,"Ġspoken":10147,"eding":10148,"Ġtoured":10149,"ffield":10150,"Ġ154":10151,"Ġqualifying":10152,"Ġblind":10153,"Ġsurvival":10154,"ĠOslo":10155,"etheless":10156,"ĠTak":10157,"Ġshoulder":10158,"ĠRalph":10159,"gom":10160,"ĠSomet":10161,"Ġautumn":10162,"ĠHarvard":10163,"Ã«":10164,"ĠAra":10165,"avor":10166,"ĠMarket":10167,"Ġsweet":10168,"ĠHob":10169,"Ġcontinuous":10170,"ĠBurton":10171,"ĠBennett":10172,"Ġfisher":10173,"ĠYellow":10174,"Ġ167":10175,"Ġruler":10176,"Ġreorgan":10177,"Ġstuff":10178,"Ġcommenced":10179,"Ġcommanding":10180,"car":10181,"rh":10182,"ĠSak":10183,"Ġnautical":10184,"ĠPy":10185,"ĠJun":10186,"ĠAndre":10187,"Ġpatients":10188,"Ġconfidence":10189,"ĠSwiss":10190,"Ġtaxes":10191,"Ġtonnes":10192,"Ġunlik":10193,"icated":10194,"ĠâĢ¦":10195,"Ġopportunities":10196,"ĠProfessor":10197,"Ġenthusi":10198,"ĠVincent":10199,"Ġfasc":10200,"Ġexists":10201,"Ġlegislative":10202,"ĠPittsburgh":10203,"Ġtransported":10204,"OC":10205,"ĠLock":10206,"ĠDeep":10207,"Ġcommunist":10208,"ĠPeters":10209,"ĠDyn":10210,"Ġsignature":10211,"Ġcompetitive":10212,"bes":10213,"aters":10214,"ingham":10215,"ĠPic":10216,"Ġcamps":10217,"Ġuranium":10218,"ĠCurt":10219,"Ġrelocated":10220,"Ġtranslated":10221,"haw":10222,"Ġnat":10223,"Ġmelody":10224,"ĠBroadcast":10225,"lad":10226,"ĠJTW":10227,"porting":10228,"ĠJTWC":10229,"ĠAM":10230,"Ġtested":10231,"Ġindeed":10232,"ĠDavies":10233,"Ġrocks":10234,"Ġminority":10235,"anger":10236,"Ġreinforced":10237,"Ġfulf":10238,"illo":10239,"ashi":10240,"ĠAftermath":10241,"Ġtraveling":10242,"Ġfairly":10243,"Ġsovereign":10244,"Ġmoon":10245,"cester":10246,"Ġdece":10247,"Ġcommanders":10248,"Ġrevolt":10249,"Ġpairs":10250,"ĠRud":10251,"Ġrevised":10252,"minster":10253,"ĠMond":10254,"ĠNi":10255,"Ġ111":10256,"Ġnoble":10257,"ĠHughes":10258,"hum":10259,"Ġimpression":10260,"ĠSwift":10261,"Ġcartoon":10262,"ĠSyria":10263,"ĠCatherine":10264,"Ġmanga":10265,"Ġexplicit":10266,"ĠBald":10267,"Ġuncon":10268,"Ġwithdrawn":10269,"Ġcrops":10270,"ĠPrim":10271,"ĠIndonesia":10272,"rost":10273,"Ġblues":10274,"ĠLook":10275,"oca":10276,"Ġaccord":10277,"Ġprogramming":10278,"urricanes":10279,"eared":10280,"ĠAP":10281,"ĠGot":10282,"ĠThunder":10283,"Ġextending":10284,"expected":10285,"Ġfram":10286,"Ġdischar":10287,"ĠAlaska":10288,"Ġdisplaced":10289,"Ġpap":10290,"ĠCO":10291,"Ġexperiments":10292,"ĠAntonio":10293,"Ġhole":10294,"uto":10295,"rien":10296,"Ġearn":10297,"Ġprinciples":10298,"Ġvoices":10299,"ĠKate":10300,"Ġpromin":10301,"Ġextinct":10302,"avia":10303,"Ġprovinces":10304,"ĠTrail":10305,"Before":10306,"ĠSom":10307,"ĠSweet":10308,"ationally":10309,"Ġchron":10310,"Ġrepresentation":10311,"Ġmagnitude":10312,"Ġlearns":10313,"isive":10314,"ĠRP":10315,"Ġconce":10316,"seud":10317,"Ġcharacteristic":10318,"ussion":10319,"Ġprisoner":10320,"Ġenforce":10321,"oda":10322,"Ġdistant":10323,"Ġcatal":10324,"ĠDarwin":10325,"oria":10326,"asks":10327,"ĠLiving":10328,"Ġsumm":10329,"Ġculmin":10330,"ĠMayor":10331,"Ġsample":10332,"Ġwonder":10333,"Ġcraft":10334,"TS":10335,"ĠUpper":10336,"Ġabuse":10337,"Ġmarine":10338,"Ġlights":10339,"Ġinterpreted":10340,"len":10341,"ĠMason":10342,"Ġ1895":10343,"itious":10344,"Ġwarfare":10345,"Ġnerv":10346,"utton":10347,"aching":10348,"Ġrelatives":10349,"ĠHerald":10350,"ĠDonald":10351,"ĠSimilarly":10352,"rooms":10353,"Ġcompound":10354,"Ġpractical":10355,"eston":10356,"Ġapproaches":10357,"Ġrivalry":10358,"Ġhem":10359,"Ġherit":10360,"ĠSecurity":10361,"ĠPictures":10362,"ĠMS":10363,"ĠOri":10364,"ĠAli":10365,"Ġvictim":10366,"Ġcuts":10367,"ĠIsraeli":10368,"ĠCameron":10369,"Ġid":10370,"ĠLem":10371,"ĠMicrosoft":10372,"Ġairing":10373,"Ġdisplays":10374,"zed":10375,"Ġtraditions":10376,"Ġjudg":10377,"Ġburning":10378,"Ġproposals":10379,"Ġshifted":10380,"Ġbull":10381,"Ġcarries":10382,"Ġskill":10383,"Ġlighting":10384,"ĠJefferson":10385,"Ġrehears":10386,"ĠInv":10387,"uez":10388,"Ġwarnings":10389,"ĠSid":10390,"Ġchore":10391,"ĠStars":10392,"Ġblocked":10393,"Ġgirlfriend":10394,"Ġmultiplayer":10395,"Ã¥":10396,"Ġsings":10397,"Ġrestore":10398,"Ġmyster":10399,"Ġgraduate":10400,"Ġmedicine":10401,"ĠProp":10402,"ags":10403,"ĠOrange":10404,"Ġweb":10405,"Ġrebels":10406,"Ġparticipation":10407,"ĠDallas":10408,"Ġthunder":10409,"Ġmans":10410,"Ġabsent":10411,"Ġtransportation":10412,"Ġpreparing":10413,"ambers":10414,"Ġscores":10415,"ĠOfficer":10416,"ĠPhys":10417,"Ġconven":10418,"aha":10419,"ĠClay":10420,"Ġmarch":10421,"ĠGuinea":10422,"ĠFalls":10423,"Ã¢":10424,"umped":10425,"Ġvaluable":10426,"Ġinterviews":10427,"ĠWoman":10428,"Ġprotests":10429,"Ġcyclones":10430,"Ġbrilliant":10431,"Ġwished":10432,"Ġriding":10433,"Ġsalary":10434,"Ġfilmm":10435,"ĠGrace":10436,"ĠDefense":10437,"Other":10438,"merce":10439,"Ġpassion":10440,"ĠTerry":10441,"Ġsalv":10442,"ĠFu":10443,"Ġ102":10444,"Ġunlikely":10445,"Ġcreek":10446,"Ġpier":10447,"leans":10448,"ĠCass":10449,"ĠSheffield":10450,"Ġrecovery":10451,"berry":10452,"Ġinfl":10453,"ginning":10454,"Ġcabinet":10455,"ocity":10456,"ĠChile":10457,"ĠAustin":10458,"ĠFinally":10459,"Ġmaintaining":10460,"ĠDescription":10461,"Ġdistricts":10462,"Ġreforms":10463,"ĠCraw":10464,"imp":10465,"ĠWallace":10466,"ĠFormation":10467,"Ġcinema":10468,"Ġfest":10469,"uri":10470,"Ġintervention":10471,"Ġgarn":10472,"Ġarguing":10473,"ĠQuebec":10474,"Ġestimates":10475,"ĠSteel":10476,"ĠDanish":10477,"Ġcourses":10478,"Ġgrandfather":10479,"Ġdrummer":10480,"Ġracial":10481,"Upon":10482,"ĠChen":10483,"ĠRest":10484,"Ġcontend":10485,"Ġclar":10486,"Ġamph":10487,"Ġaft":10488,"ĠQuest":10489,"Ġbeneath":10490,"Ġrecurring":10491,"ĠFBI":10492,"ĠEmer":10493,"ĠStef":10494,"ĠVel":10495,"ĠGeoff":10496,"iar":10497,"ĠEc":10498,"Ġreleg":10499,"Ġsignificance":10500,"Ġpetition":10501,"ĠClassic":10502,"Ġvulnerable":10503,"ĠHav":10504,"ĠRu":10505,"ource":10506,"Ġkills":10507,"Ġtowers":10508,"Ġeating":10509,"ĠOsc":10510,"Ġupset":10511,"Ġadvertis":10512,"Ġaccurate":10513,"ĠSug":10514,"ocal":10515,"Ġdiverse":10516,"ĠTai":10517,"ĠWells":10518,"Ġvalid":10519,"ĠBrazilian":10520,"lete":10521,"cha":10522,"ĠSusan":10523,"ĠAer":10524,"Ġstatistics":10525,"Ġcommunications":10526,"ĠAdv":10527,"ĠLuke":10528,"onge":10529,"ĠGreatest":10530,"ĠCathedral":10531,"Ġsponsored":10532,"ĠAuthority":10533,"ĠGreater":10534,"Ġparas":10535,"ĠAgency":10536,"Ġapplications":10537,"Ġhind":10538,"oting":10539,"ĠNord":10540,"ĠÐ":10541,"ĠEis":10542,"ĠOriginally":10543,"reated":10544,"Ġcant":10545,"ĠEff":10546,"Ġclothes":10547,"ĠOrleans":10548,"ME":10549,"Two":10550,"beat":10551,"Ġshock":10552,"Ġansw":10553,"ĠRena":10554,"osexual":10555,"Ġnumbered":10556,"ĠCyrus":10557,"ĠHaz":10558,"Ġunexpected":10559,"achute":10560,"Ġairline":10561,"Ġefficient":10562,"ĠOverall":10563,"erver":10564,"ĠHalf":10565,"ĠPrincip":10566,"abilities":10567,"Ġsurve":10568,"ĠGuitar":10569,"Ġtoler":10570,"ĠJohnston":10571,"Ġsteep":10572,"Ġmorph":10573,"Ġsacrif":10574,"Ġdecorated":10575,"ĠGa":10576,"ĠSega":10577,"Ġshallow":10578,"ĠConstantin":10579,"utor":10580,"ĠWhere":10581,"ĠEve":10582,"Ġinclusion":10583,"Ġlasting":10584,"ĠExper":10585,"itate":10586,"ĠHD":10587,"ĠSpirit":10588,"Ġfaces":10589,"Ġessentially":10590,"ĠLarry":10591,"Ġanswer":10592,"ĠGlobe":10593,"ĠMalaysia":10594,"wright":10595,"Ġtale":10596,"Ġpm":10597,"Ġmate":10598,"Ġgender":10599,"Ġconsolid":10600,"ĠNext":10601,"Ġsurprised":10602,"ĠMI":10603,"affe":10604,"ĠFourth":10605,"ĠClarke":10606,"ĠRio":10607,"ĠDaw":10608,"ĠOwen":10609,"ipped":10610,"Ġcharted":10611,"ĠFr":10612,"Ġchronic":10613,"Ġjet":10614,"ĠNev":10615,"Ġemotion":10616,"Ġmood":10617,"Ġliner":10618,"ĠBryan":10619,"unning":10620,"Ġ1861":10621,"edia":10622,"asha":10623,"Ġ1889":10624,"Ġdeeply":10625,"ĠSign":10626,"landers":10627,"ĠYam":10628,"Ġbeaten":10629,"dess":10630,"rary":10631,"Ġtheories":10632,"anche":10633,"Ġsquadrons":10634,"ĠUtah":10635,"ĠParsons":10636,"Ã©t":10637,"Ġratio":10638,"ĠSerbian":10639,"Ġfate":10640,"ocation":10641,"Ġmerged":10642,"ĠLocal":10643,"ĠCBS":10644,"hers":10645,"Ġmanage":10646,"Ġ158":10647,"Ġsummit":10648,"Ġpotentially":10649,"ĠProvince":10650,"ĠReich":10651,"aiden":10652,"Ġ1894":10653,"Ġdrafted":10654,"ĠSac":10655,"keeper":10656,"Ġsuspic":10657,"ĠPanzer":10658,"levard":10659,"ĠCultural":10660,"Ġtours":10661,"lex":10662,"iko":10663,"castle":10664,"Ġprocesses":10665,"ĠSalt":10666,"vet":10667,"Ġho":10668,"ĠHey":10669,"Ġ162":10670,"Ġgrave":10671,"ĠJunior":10672,"Ġswit":10673,"Ġproportion":10674,"reens":10675,"Ġcrimes":10676,"Tube":10677,"ĠFisher":10678,"Ġdescent":10679,"ĠLink":10680,"ĠOm":10681,"Ġ113":10682,"Ġsentence":10683,"Ġ1891":10684,"Ġdancers":10685,"Ġdual":10686,"ĠKane":10687,"Ġscr":10688,"Ġdemo":10689,"NC":10690,"ĠIl":10691,"Ġbeating":10692,"Ġcivilians":10693,"Ġsegments":10694,"ĠMcKin":10695,"Ġpersuaded":10696,"enson":10697,"ĠRichmond":10698,"Ġmerc":10699,"Ġbeauty":10700,"ĠArmstrong":10701,"Ġdim":10702,"Ġdense":10703,"Ġfunded":10704,"Ġimplemented":10705,"Ġheritage":10706,"Ġhills":10707,"ĠAT":10708,"ĠNeil":10709,"ĠRepublicans":10710,"ATO":10711,"ĠScientology":10712,"Ġboot":10713,"Ġaccommodate":10714,"Ġbell":10715,"Ġ1000":10716,"Ġreactions":10717,"ĠKaiser":10718,"Ġaltitude":10719,"asm":10720,"ĠGay":10721,"ĠPriv":10722,"ĠChelsea":10723,"ĠFighter":10724,"ĠStill":10725,"Ġmanip":10726,"Ġcolors":10727,"ĠVers":10728,"Ġpresentation":10729,"ĠAmb":10730,"Ġagriculture":10731,"Ġpip":10732,"ĠSee":10733,"ĠAmendment":10734,"Ġstructural":10735,"Ġcomplained":10736,"Ġrib":10737,"Ġwine":10738,"istent":10739,"Ġproof":10740,"aping":10741,"Ġfeared":10742,"ĠEnt":10743,"ĠPlant":10744,"Ġadminister":10745,"Ġdevoted":10746,"13":10747,"Ġcolumns":10748,"born":10749,"ĠLiter":10750,"Ġevident":10751,"Ġaddressed":10752,"ĠXII":10753,"Ġsoutheastern":10754,"Ġ<":10755,"Ġnurs":10756,"ocket":10757,"ĠScar":10758,"Ġrequiring":10759,"Ġsailing":10760,"ĠPicture":10761,"Ġdwarf":10762,"Ġrejoin":10763,"sts":10764,"arks":10765,"boards":10766,"Ġ1892":10767,"Ġoriented":10768,"onsin":10769,"Ġ156":10770,"Ġtriang":10771,"ĠMend":10772,"Ġbreaks":10773,"gie":10774,"the":10775,"Ã©s":10776,"ni":10777,"sburg":10778,"Ġfame":10779,"heric":10780,"yself":10781,"ĠMuhammad":10782,"ĠAA":10783,"ĠCS":10784,"olar":10785,"Ġ135":10786,"Ġerror":10787,"Ġobservation":10788,"ĠActor":10789,"Ġjack":10790,"ĠOrchest":10791,"Ġgolden":10792,"Ġtribe":10793,"Ġtruck":10794,"Ġvoyage":10795,"ĠTogether":10796,"ĠIndonesian":10797,"Ġ1800":10798,"Ġfollowers":10799,"Ġrecept":10800,"Ġmythology":10801,"Ġkidn":10802,"Ġcards":10803,"isons":10804,"Ġinteraction":10805,"Ġpregnant":10806,"ĠTang":10807,"ĠSox":10808,"ĠOfficial":10809,"Ġjudges":10810,"Ġpink":10811,"Ġgene":10812,"ĠYouTube":10813,"Ġresearchers":10814,"Ġrect":10815,"ĠPS":10816,"Ġconfusion":10817,"Ġ240":10818,"Ġquarters":10819,"usalem":10820,"Ġholiday":10821,"Ġjurisdiction":10822,"bu":10823,"ulus":10824,"Ġâģ":10825,"ĠRegister":10826,"Music":10827,"urst":10828,"ĠIvan":10829,"rific":10830,"ĠSout":10831,"anted":10832,"Ġintermedi":10833,"othy":10834,"Ġoperates":10835,"Ġknee":10836,"Ġrepris":10837,"ospel":10838,"Ġsuddenly":10839,"Ġcategories":10840,"nt":10841,"atched":10842,"Ġdiplomatic":10843,"ĠBuffalo":10844,"Ġsugar":10845,"Ġwritings":10846,"ĠHarold":10847,"Ġcommenting":10848,"Ġsuperst":10849,"Ġopens":10850,"izer":10851,"phan":10852,"iously":10853,"osaurs":10854,"ĠSymphony":10855,"nels":10856,"ĠProduct":10857,"Ġembarked":10858,"Le":10859,"lon":10860,"Ġtension":10861,"Ġ153":10862,"Ġphysics":10863,"Ġadvancing":10864,"ĠMinor":10865,"ĠStudio":10866,"Ġsculpture":10867,"Ġhighlighted":10868,"ĠâģĦ":10869,"ĠCavalry":10870,"Ġextensively":10871,"Ġsized":10872,"ĠEth":10873,"alls":10874,"quest":10875,"ometric":10876,"master":10877,"Ġfert":10878,"Ġthrown":10879,"Ġbears":10880,"ĠNature":10881,"oded":10882,"Ġassum":10883,"Ġsimilarities":10884,"isconsin":10885,"Ġprinciple":10886,"ĠâĤ¹":10887,"amount":10888,"Ġgaining":10889,"Ġages":10890,"Ġstudying":10891,"lington":10892,"ĠAirlines":10893,"Ġchallenges":10894,"Ġmud":10895,"Ġtooth":10896,"ĠFerr":10897,"enos":10898,"Ġmanif":10899,"ĠConservation":10900,"ĠBible":10901,"Ġdrown":10902,"Ġgardens":10903,"ĠEdition":10904,"Ġlifetime":10905,"ĠBurns":10906,"Ġequally":10907,"Ġsentenced":10908,"Ġstatements":10909,"Ġknocked":10910,"ĠPoly":10911,"Ġinfrastructure":10912,"Ġorange":10913,"Ġfee":10914,"Ġconstitu":10915,"ĠJerusalem":10916,"18":10917,"Ġgift":10918,"Ġrivals":10919,"Ġlocally":10920,"Ġeducated":10921,"ĠCardiff":10922,"aser":10923,"ĠPant":10924,"ĠWonder":10925,"ĠMetropolitan":10926,"Ġuniversal":10927,"Ġdisturbance":10928,"ĠPerformance":10929,"ĠPok":10930,"Ġdivorce":10931,"ĠIslamic":10932,"pine":10933,"ĠSultan":10934,"thodox":10935,"ĠStuart":10936,"ucker":10937,"ĠGameSp":10938,"mo":10939,"ĠHope":10940,"chi":10941,"Ġpredators":10942,"ÃŃn":10943,"Ġtraditionally":10944,"Ġboundaries":10945,"osph":10946,"ĠEight":10947,"ĠAlt":10948,"Ġdealing":10949,"Ġties":10950,"ĠPast":10951,"ĠWa":10952,"ĠFitz":10953,"Ġvariation":10954,"Ġpriest":10955,"kh":10956,"sor":10957,"ĠPrest":10958,"ĠConstantine":10959,"ĠTyler":10960,"Ġgh":10961,"Ġsword":10962,"Ġoverlook":10963,"ancellor":10964,"ĠNewton":10965,"Ġdocumented":10966,"ao":10967,"ĠBorn":10968,"Ġexplaining":10969,"Ġempty":10970,"Ġresolved":10971,"gomery":10972,"Ġnep":10973,"ĠDays":10974,"ĠCrus":10975,"Ġstretch":10976,"Ġreceives":10977,"Ġrings":10978,"Ġspawn":10979,"ĠGrade":10980,"Ġ1888":10981,"Ġvillain":10982,"Ġenabled":10983,"Ġsettlements":10984,"ulsion":10985,"Ġrecruited":10986,"Ġdiscontin":10987,"Ġgarnered":10988,"Ġtape":10989,"Ġforb":10990,"ĠGround":10991,"Ġsupern":10992,"Ġconsiderably":10993,"Ġtravelling":10994,"Ġurg":10995,"ĠAber":10996,"Ġnaming":10997,"Ġexplore":10998,"Ġcommercially":10999,"Ġbenefits":11000,"Ġfold":11001,"ĠCemetery":11002,"ĠGang":11003,"Ġhelps":11004,"Ġtickets":11005,"Ġstrand":11006,"ĠWalt":11007,"Ġhostile":11008,"backs":11009,"Ġrescued":11010,"ĠApollo":11011,"Ġcry":11012,"Ġseas":11013,"aple":11014,"Ġ1885":11015,"Ġoptions":11016,"ĠHeb":11017,"Ġcrashed":11018,"Ġlift":11019,"Ġsubstitute":11020,"ĠScots":11021,"Ġsmoke":11022,"Ġashore":11023,"ovak":11024,"Ġinvolves":11025,"Ġweakening":11026,"Ġcliff":11027,"Ġflex":11028,"ĠActress":11029,"ĠQuar":11030,"ĠPatri":11031,"ĠHunter":11032,"ĠHad":11033,"Ġdisorder":11034,"Ġbatted":11035,"cut":11036,"Ġdimin":11037,"ĠKid":11038,"Ġguy":11039,"Ġtasked":11040,"Ġproteins":11041,"ĠCentury":11042,"ĠBoeing":11043,"Ġconcerning":11044,"ĠIndependence":11045,"wald":11046,"Ġdying":11047,"rene":11048,"ĠTrade":11049,"Ġhoused":11050,"celand":11051,"Ġescorted":11052,"lights":11053,"ĠWisconsin":11054,"rift":11055,"Ġdoors":11056,"Ġdetect":11057,"Ġspar":11058,"Ġassert":11059,"Ġstyl":11060,"agers":11061,"ellar":11062,"Ġdepicts":11063,"ĠLegisl":11064,"ĠMovie":11065,"ĠFIFA":11066,"ĠJohann":11067,"ĠDanny":11068,"ĠRey":11069,"Ġepic":11070,"uters":11071,"zing":11072,"Ġinning":11073,"Ġvig":11074,"ĠJoan":11075,"Ġcircular":11076,"ĠKyle":11077,"Ġinnoc":11078,"Ġpursuit":11079,"Ġborrow":11080,"Ġvolunteers":11081,"Ġconcurrent":11082,"Ġelaborate":11083,"ĠAges":11084,"ĠSchum":11085,"Ġgods":11086,"ĠBaltic":11087,"ds":11088,"gged":11089,"ĠBaron":11090,"Ġdinner":11091,"Ġimprisoned":11092,"Ġinhib":11093,"ÉĻ":11094,"Ġreass":11095,"ĠCP":11096,"Ġnut":11097,"ĠMind":11098,"Ġauthorized":11099,"Ġcollections":11100,"Ġwarships":11101,"HS":11102,"ĠSud":11103,"ĠEnv":11104,"Ġeditions":11105,"Ġcompetitions":11106,"ĠBrooks":11107,"Ġconflicts":11108,"piece":11109,"ĠFull":11110,"Ġteammate":11111,"Ã©n":11112,"ĠChristians":11113,"Another":11114,"bi":11115,"ĠCer":11116,"Ġ112":11117,"Ġpursued":11118,"lane":11119,"ĠThames":11120,"ĠLeaf":11121,"Ġ145":11122,"Ġtempo":11123,"ÃŃa":11124,"ĠSaturn":11125,"hill":11126,"Ġpill":11127,"ĠBud":11128,"ĠFact":11129,"Ġrevival":11130,"Ġ1865":11131,"ĠMontgomery":11132,"Ġfra":11133,"Ġliver":11134,"ĠNas":11135,"Ġramp":11136,"Ġeventual":11137,"Ġfavourite":11138,"Ġpoliticians":11139,"Ġ978":11140,"uction":11141,"var":11142,"ourag":11143,"Ġharbour":11144,"Ġfron":11145,"Ġvirtually":11146,"tains":11147,"ĠRuth":11148,"ĠHearts":11149,"Ġopposing":11150,"Ġdrain":11151,"ĠElectric":11152,"Ġbeliefs":11153,"Ġconj":11154,"ritic":11155,"Ġscreenplay":11156,"ĠJustin":11157,"Ġchemistry":11158,"sa":11159,"ĠMeth":11160,"Ġmanufacturing":11161,"Ġurged":11162,"Ġrenewed":11163,"Ġcam":11164,"ĠAren":11165,"Ġabroad":11166,"ĠEvil":11167,"ĠRogers":11168,"Ġveteran":11169,"ĠÏ":11170,"Ġchase":11171,"ĠZone":11172,"Ġhandling":11173,"Ġcensus":11174,"ĠMall":11175,"Ġmixture":11176,"Ġcable":11177,"ĠAthens":11178,"Ġportrait":11179,"Ġvelocity":11180,"Ġstones":11181,"ĠWes":11182,"Ġleaf":11183,"Ġunve":11184,"cliff":11185,"ĠBarnes":11186,"ĠAbu":11187,"Ġexamination":11188,"Ġsuspected":11189,"Ġuniversities":11190,"ĠIns":11191,"eling":11192,"Ġmedals":11193,"ĠBask":11194,"ĠBranch":11195,"Ġstolen":11196,"ando":11197,"ĠComedy":11198,"Ġparticipants":11199,"Ġcongress":11200,"isition":11201,"Ġrushing":11202,"ublin":11203,"Ġverte":11204,"Ġpromise":11205,"ĠFlore":11206,"ĠWithout":11207,"gow":11208,"Ġlaps":11209,"Ġspur":11210,"ĠMidd":11211,"onation":11212,"lem":11213,"otion":11214,"Ġtrailer":11215,"Ġ117":11216,"ĠTribune":11217,"for":11218,"Ġcow":11219,"itic":11220,"ĠUC":11221,"izz":11222,"arest":11223,"Ġcolours":11224,"Ġ159":11225,"Ġpossess":11226,"Ġpromoting":11227,"Ġrendered":11228,"Ġremembered":11229,"Ġcattle":11230,"Ġorganisms":11231,"anim":11232,"Ġthereby":11233,"ridor":11234,"ĠMiles":11235,"Ġsharks":11236,"Ġinherited":11237,"14":11238,"inery":11239,"Ġpitcher":11240,"ĠRepresentatives":11241,"Ġtaste":11242,"Ġapply":11243,"Ġinterven":11244,"Ġcomics":11245,"ĠSean":11246,"ĠTourn":11247,"Ġcapturing":11248,"ĠRegional":11249,"Ġsor":11250,"ĠBert":11251,"ĠIceland":11252,"ĠFace":11253,"ĠReport":11254,"ĠTurkey":11255,"ĠAttorney":11256,"ĠNeb":11257,"Ġtrapped":11258,"Ġdecreased":11259,"Ġtel":11260,"Ġloud":11261,"ĠCode":11262,"Ġprox":11263,"Ġdecay":11264,"Ġpositively":11265,"Ġtracked":11266,"Ġcostume":11267,"ĠPierre":11268,"Ġbombardment":11269,"Ġtissue":11270,"ĠNS":11271,"istor":11272,"Ġmetric":11273,"ĠExecutive":11274,"ĠPas":11275,"Ġvital":11276,"Ġhopes":11277,"Ġcompositions":11278,"Ġaccidentally":11279,"Ġinhab":11280,"point":11281,"ĠTu":11282,"ĠTow":11283,"ĠMagic":11284,"ĠPul":11285,"oba":11286,"Ġrand":11287,"Ġinvaded":11288,"Ġ450":11289,"Ġcelebration":11290,"zh":11291,"ĠNATO":11292,"occ":11293,"Ġ114":11294,"auc":11295,"ĠSpider":11296,"Ġprototype":11297,"racks":11298,"ĠSherman":11299,"Ġblend":11300,"Ġsav":11301,"isan":11302,"Ġthro":11303,"ilda":11304,"Ġ118":11305,"Ġconfirm":11306,"Ġjuven":11307,"roe":11308,"Ġoccasional":11309,"ĠConstantinople":11310,"Ġwarned":11311,"ĠJudge":11312,"Ġmaps":11313,"ampton":11314,"ĠDraft":11315,"ĠMacArthur":11316,"Ġtornado":11317,"Ġib":11318,"ĠSyn":11319,"ĠFil":11320,"quer":11321,"Ġlinks":11322,"erts":11323,"ĠTitan":11324,"ĠSic":11325,"ĠJe":11326,"ĠPortugal":11327,"Ġhoping":11328,"ĠHeavyweight":11329,"vo":11330,"Ġrains":11331,"ĠNova":11332,"Ġanticipated":11333,"idia":11334,"Ġupcoming":11335,"icking":11336,"ĠWed":11337,"Ġboyfriend":11338,"ĠHunt":11339,"ovic":11340,"rible":11341,"Ġvariations":11342,"ĠAffairs":11343,"Ġ1864":11344,"áº":11345,"asp":11346,"ĠToy":11347,"Ġbomber":11348,"ĠSaf":11349,"Ġlaugh":11350,"ĠCe":11351,"ĠBright":11352,"Ġscandal":11353,"ĠNewcastle":11354,"Ġseparation":11355,"Ġbatteries":11356,"Î±":11357,"Ġdust":11358,"Ġdozen":11359,"Ġprovisions":11360,"Ġmarking":11361,"Ġgenu":11362,"Ġlaboratory":11363,"ĠChapel":11364,"LA":11365,"Ġsinking":11366,"Ġrever":11367,"igious":11368,"Ġimpressive":11369,"Ġaccessible":11370,"colm":11371,"yan":11372,"eps":11373,"Ġguests":11374,"Ġhorizont":11375,"ulum":11376,"Ġfires":11377,"icken":11378,"Ġbiological":11379,"Ġeasier":11380,"Ġnose":11381,"Ġdependent":11382,"Ġnickname":11383,"ĠReagan":11384,"ĠLeonard":11385,"neys":11386,"restrial":11387,"ĠLaboratory":11388,"fly":11389,"limin":11390,"ĠCrow":11391,"Ġsupports":11392,"Ġpolitician":11393,"ER":11394,"ĠTru":11395,"ĠGran":11396,"agles":11397,"ĠLiberty":11398,"Ġparliamentary":11399,"Ġrandom":11400,"mont":11401,"Î¿":11402,"ĠFern":11403,"artime":11404,"Ġindigenous":11405,"Ġavoided":11406,"bing":11407,"ught":11408,"ĠBeh":11409,"Ġafford":11410,"Ġthreats":11411,"ĠBarbara":11412,"Ġconsumption":11413,"16":11414,"Ġlighter":11415,"ĠYouth":11416,"ĠLev":11417,"ĠStein":11418,"held":11419,"Ġfed":11420,"ĠMarines":11421,"Ġhandle":11422,"Ġtherm":11423,"ĠJoint":11424,"Ġprogressed":11425,"amine":11426,"Ġformula":11427,"Ġeld":11428,"ĠGlas":11429,"enberg":11430,"ĠSide":11431,"Ġdeputy":11432,"atsu":11433,"Ġbiography":11434,"Ġrestrictions":11435,"Ġfier":11436,"ĠFish":11437,"ptic":11438,"Ġhyper":11439,"orf":11440,"ĠGon":11441,"ailing":11442,"Ġvolcanic":11443,"Ġcorporate":11444,"ĠDuch":11445,"ĠKrist":11446,"ĠControl":11447,"ĠRomney":11448,"Am":11449,"amics":11450,"ĠFlow":11451,"orted":11452,"Ġtruly":11453,"Ġcash":11454,"Ġimposed":11455,"rogen":11456,"ĠMi":11457,"ĠNancy":11458,"Ġtrunk":11459,"ĠManagement":11460,"Ġmixing":11461,"ĠArmenian":11462,"Ġtoxic":11463,"Ġda":11464,"agg":11465,"Ġrugby":11466,"ĠVoice":11467,"Ġparticles":11468,"Ġoccurring":11469,"ĠMeteorological":11470,"Ġfles":11471,"Ġusage":11472,"ĠBoulevard":11473,"Ġmurdered":11474,"ĠBapt":11475,"iah":11476,"ĠBears":11477,"ĠHas":11478,"Ġnoticed":11479,"Ġproduces":11480,"Ġlicense":11481,"ĠProtestant":11482,"Ad":11483,"ĠCinc":11484,"Ġenh":11485,"ielder":11486,"etta":11487,"Ġcustomers":11488,"Ġevacuation":11489,"changed":11490,"Ġdreadn":11491,"alg":11492,"ĠLP":11493,"gel":11494,"Ġãĥ":11495,"Ġwound":11496,"Ġpor":11497,"ĠMang":11498,"Ġcontracts":11499,"Ġdefenders":11500,"ĠCharlotte":11501,"oom":11502,"ĠSonic":11503,"Ġacre":11504,"heimer":11505,"ĠCinem":11506,"Ġexile":11507,"ĠEnergy":11508,"oples":11509,"acht":11510,"ĠKon":11511,"Ġcathedral":11512,"ĠFriends":11513,"Ġchoir":11514,"Ġlawsuit":11515,"ĠDublin":11516,"Ġrelation":11517,"Ġ1862":11518,"ĠCornwall":11519,"ĠOrchestra":11520,"osy":11521,"ĠERA":11522,"Ġprest":11523,"Ġwake":11524,"enz":11525,"ĠJosÃ©":11526,"Ġspeculation":11527,"Ġkiller":11528,"Ġordinary":11529,"ĠGuild":11530,"Ġtimber":11531,"ĠAgainst":11532,"Ġintellectual":11533,"Ġnephew":11534,"ĠEnvironment":11535,"Ġdebris":11536,"Ġengineers":11537,"ju":11538,"pin":11539,"ĠChester":11540,"Ġhence":11541,"Ġplates":11542,"ĠAgu":11543,"Ġangry":11544,"ĠInvest":11545,"Ġ107":11546,"ĠAntar":11547,"Ġdepicting":11548,"Ġdisappointed":11549,"hl":11550,"ĠTree":11551,"ĠAthletic":11552,"Ġaside":11553,"ĠZh":11554,"Ġeastward":11555,"bach":11556,"uche":11557,"Ġfab":11558,"Ġdevelopments":11559,"ĠXX":11560,"Ġthreatening":11561,"ĠMetro":11562,"ĠMerced":11563,"ĠFreedom":11564,"ĠLower":11565,"ĠRef":11566,"Ġkilog":11567,"Ġignored":11568,"Ġconquest":11569,"ĠCase":11570,"ĠMix":11571,"ĠFight":11572,"ĠThan":11573,"Ġindustries":11574,"Ġdecrease":11575,"ĠSaw":11576,"ĠChair":11577,"nex":11578,"emble":11579,"Ġlyrical":11580,"ĠSlav":11581,"Ġencounters":11582,"She":11583,"onial":11584,"overed":11585,"Ġterritorial":11586,"Ġthrowing":11587,"ded":11588,"ĠCena":11589,"ĠErnest":11590,"Ġcomplicated":11591,"Ġward":11592,"ĠAction":11593,"Ġchrom":11594,"ĠSex":11595,"Ġmechanism":11596,"Ġundertaken":11597,"Ġrevolutionary":11598,"ĠÄĲ":11599,"Ġthunderstorm":11600,"Ġmit":11601,"Ġune":11602,"ĠShah":11603,"ĠContinental":11604,"Ġstern":11605,"ĠCryst":11606,"Ġbreast":11607,"umbered":11608,"Ġvicinity":11609,"Ġmounts":11610,"ĠSkin":11611,"ĠPeng":11612,"rav":11613,"ĠLeices":11614,"Ġconvicted":11615,"lett":11616,"Ġelite":11617,"Ġstrikes":11618,"Ġhumanity":11619,"ĠRoom":11620,"Ġtouchdowns":11621,"Ġcu":11622,"itol":11623,"aco":11624,"osion":11625,"opic":11626,"phal":11627,"Ġremin":11628,"Ġconfident":11629,"Ġchampionships":11630,"Ġconversation":11631,"Ġmos":11632,"ĠTerm":11633,"olia":11634,"Ġexhibit":11635,"WA":11636,"entieth":11637,"Ġ220":11638,"Ġfocuses":11639,"ĠBreak":11640,"ĠAlberta":11641,"Ġmammals":11642,"Ġinaugural":11643,"Ġpenn":11644,"ĠCand":11645,"ĠMV":11646,"Ġcontacted":11647,"Ġentert":11648,"Ġ157":11649,"Ġlacking":11650,"Ġgif":11651,"Ġrealistic":11652,"Ġhonest":11653,"Ġsuspension":11654,"ĠLuft":11655,"ĠCincinn":11656,"ĠBeth":11657,"Ġpreserve":11658,"Ġboost":11659,"Ġfarmers":11660,"uber":11661,"iture":11662,"itime":11663,"Ġarose":11664,"Ġconstantly":11665,"Ġfacil":11666,"ĠOscar":11667,"etary":11668,"ĠDJ":11669,"ĠVeg":11670,"Ġmetre":11671,"ĠCollection":11672,"Ġhelicopter":11673,"Ġstim":11674,"ĠVick":11675,"iked":11676,"Ġposts":11677,"uka":11678,"Through":11679,"ĠArchbishop":11680,"ĠChad":11681,"Ġinfection":11682,"Ġdiamond":11683,"ĠSerbia":11684,"ĠSpringfield":11685,"Ġtools":11686,"iga":11687,"Ġpatri":11688,"ĠOthers":11689,"Ġå":11690,"ĠZero":11691,"ĠPete":11692,"ĠMuslims":11693,"yc":11694,"icing":11695,"ocol":11696,"ellers":11697,"ĠMicha":11698,"Ġvoters":11699,"ĠCareer":11700,"ĠTournament":11701,"Ġinfer":11702,"Ġfeathers":11703,"Ġ1840":11704,"Ġcollaborated":11705,"Ġpredominantly":11706,"ĠCanu":11707,"omed":11708,"Ġunt":11709,"Ġasserted":11710,"Ġphoto":11711,"Ġthorough":11712,"ĠTake":11713,"Ġdesper":11714,"hanced":11715,"ĠPedro":11716,"11":11717,"ortion":11718,"raltar":11719,"udi":11720,"gett":11721,"Ġpatient":11722,"Ġabsorbed":11723,"ĠYugoslavia":11724,"Ġcentered":11725,"ĠWatch":11726,"Ġreleasing":11727,"Ġcastles":11728,"ischer":11729,"oirs":11730,"quiry":11731,"Hg":11732,"Ġholes":11733,"Ġuser":11734,"Ġtune":11735,"Ġmad":11736,"Ġgrows":11737,"Ġremoving":11738,"Ġpeninsula":11739,"ĠHom":11740,"ĠLS":11741,"ubble":11742,"However":11743,"ework":11744,"Ġillustrated":11745,"ĠMalta":11746,"ĠRI":11747,"ĠUk":11748,"Ġapolog":11749,"Ġexplanation":11750,"Ġpig":11751,"Ġknows":11752,"Ġspeeds":11753,"onnie":11754,"Ġsustain":11755,"assy":11756,"sson":11757,"auge":11758,"ĠMarshal":11759,"Ġcompiled":11760,"Ġresid":11761,"Ġantib":11762,"Ġretrie":11763,"regular":11764,"Ġbreeds":11765,"ĠTyphoon":11766,"ĠGabri":11767,"Ġcanceled":11768,"Ġisn":11769,"ĠGlee":11770,"Ġ126":11771,"ahl":11772,"ĠPlace":11773,"Ġsituations":11774,"Ġbowl":11775,"ĠChamberlain":11776,"ĠFuture":11777,"Ġattorney":11778,"ennial":11779,"Ġindependently":11780,"ĠNormandy":11781,"Ġrelieved":11782,"ĠCincinnati":11783,"inter":11784,"ĠAL":11785,"Ġenorm":11786,"Ġencom":11787,"ĠGates":11788,"Ġsheep":11789,"Ġ132":11790,"ĠMalcolm":11791,"ĠShiva":11792,"Ġroadway":11793,"Ġ1887":11794,"ĠVegas":11795,"Ġlover":11796,"ĠVilla":11797,"issioned":11798,"ĠKenneth":11799,"asury":11800,"ĠSection":11801,"ĠFly":11802,"ĠComics":11803,"Ġpleased":11804,"Down":11805,"oi":11806,"encer":11807,"ĠParks":11808,"ĠLords":11809,"Ġoffshore":11810,"ĠAny":11811,"enburg":11812,"ĠMaine":11813,"utter":11814,"Ġclergy":11815,"Ġmarched":11816,"Ġlayers":11817,"music":11818,"Ã´":11819,"Ġaest":11820,"ĠGibraltar":11821,"ĠAlliance":11822,"rels":11823,"Ġlocomotives":11824,"gÃ©":11825,"hart":11826,"Ġoutstanding":11827,"Ġviewing":11828,"Ġprosper":11829,"ĠTaiwan":11830,"ulates":11831,"Ġcouldn":11832,"Ġ119":11833,"ĠIsaac":11834,"Ġpaying":11835,"Ġarena":11836,"Ġblast":11837,"Ġgenres":11838,"ĠBark":11839,"Ġexpanding":11840,"Ġ1863":11841,"icular":11842,"ĠChet":11843,"ĠKin":11844,"Ġclosure":11845,"ĠTraff":11846,"Ġvarying":11847,"ĠAfghanistan":11848,"£o":11849,"ĠKaz":11850,"Ġbackst":11851,"ringe":11852,"Ġmild":11853,"Ġbutter":11854,"overty":11855,"ĠEddie":11856,"ĠVIII":11857,"hall":11858,"Ġmask":11859,"Ġcolored":11860,"ĠReed":11861,"Ġ1886":11862,"ĠBradley":11863,"instein":11864,"avan":11865,"ĠShield":11866,"Ġsentiment":11867,"Ġdisappeared":11868,"umberland":11869,"ĠOrd":11870,"yers":11871,"Ġbapt":11872,"izard":11873,"Ġlib":11874,"Ġregulations":11875,"Ġreporting":11876,"Ġsuggestion":11877,"ĠMaced":11878,"arting":11879,"Ġperc":11880,"zes":11881,"Ġspir":11882,"ribution":11883,"Ġcelebrate":11884,"ĠRevolutionary":11885,"ĠBrooklyn":11886,"Ġgrid":11887,"Ġarmoured":11888,"ĠTechnology":11889,"imony":11890,"ĠJNA":11891,"aneous":11892,"Ġdropping":11893,"Ġasc":11894,"Ġfungus":11895,"liminary":11896,"found":11897,"ĠPel":11898,"ĠTommy":11899,"Ġconspiracy":11900,"Ġinducted":11901,"ĠËĪ":11902,"Ġfant":11903,"ipher":11904,"Ġfaculty":11905,"gus":11906,"acular":11907,"ishn":11908,"ĠMorning":11909,"Ġattraction":11910,"ĠTint":11911,"ĠJake":11912,"ĠTwitter":11913,"ĠWaters":11914,"Ġreporter":11915,"ĠBrowns":11916,"Ġromance":11917,"ĠMann":11918,"ĠKill":11919,"Ġflour":11920,"Ġnevertheless":11921,"Ġcompanion":11922,"ĠConservative":11923,"Ġeagle":11924,"ĠDud":11925,"Ġconced":11926,"ĠShep":11927,"ĠHispan":11928,"ĠMadison":11929,"Ġwitnesses":11930,"Ġblamed":11931,"Ġtent":11932,"leted":11933,"ĠTir":11934,"ĠTrad":11935,"Ġsubmer":11936,"Ġswept":11937,"feld":11938,"Ġabb":11939,"Ġaf":11940,"inated":11941,"Ġfundamental":11942,"Ġoxid":11943,"ĠWagner":11944,"Ġpseud":11945,"Ġremote":11946,"Ġpublicity":11947,"Ġorganic":11948,"flow":11949,"Ġstored":11950,"ĠPay":11951,"Ġatop":11952,"odium":11953,"ĠThr":11954,"ĠOrton":11955,"Ġpositioned":11956,"Ġsubmarines":11957,"bie":11958,"Ġwhatever":11959,"Ġparking":11960,"ĠPrinceton":11961,"Ġaqu":11962,"Ġsulf":11963,"ĠRush":11964,"ĠCyclone":11965,"omon":11966,"Ġannex":11967,"Ġretreated":11968,"ĠOrganization":11969,"eda":11970,"Ġmail":11971,"Ġverses":11972,"New":11973,"gary":11974,"elin":11975,"Ġstability":11976,"Ġfortifications":11977,"Ġfract":11978,"Ġlung":11979,"ĠCort":11980,"usters":11981,"ĠRobin":11982,"Ġfocusing":11983,"Ġshelter":11984,"Ġcondemned":11985,"ĠinHg":11986,"Ġprogressive":11987,"Ġtargeted":11988,"ubbard":11989,"Ġnoise":11990,"ĠTigers":11991,"Ġgentle":11992,"ĠEld":11993,"Ġswing":11994,"eness":11995,"ĠRus":11996,"ĠRear":11997,"ĠNation":11998,"Ġ1884":11999}